<pad>	0
<s>	0
</s>	0
<unk>	0
▁.	-0
▁t	-1
▁i	-2
▁a	-3
ou	-4
he	-5
▁s	-6
▁w	-7
▁y	-8
▁m	-9
re	-10
▁you	-11
in	-12
▁,	-13
ha	-14
▁the	-15
▁d	-16
on	-17
▁b	-18
▁c	-19
▁?	-20
▁l	-21
ve	-22
▁g	-23
▁to	-24
▁f	-25
ing	-26
▁n	-27
hat	-28
an	-29
▁o	-30
ll	-31
or	-32
▁p	-33
er	-34
▁an	-35
▁it	-36
▁he	-37
en	-38
st	-39
ow	-40
hi	-41
ot	-42
ed	-43
et	-44
om	-45
es	-46
▁we	-47
ar	-48
it	-49
▁re	-50
▁that	-51
▁ha	-52
▁in	-53
▁and	-54
▁be	-55
▁of	-56
ay	-57
▁k	-58
at	-59
▁me	-60
▁what	-61
le	-62
▁e	-63
as	-64
▁!	-65
▁do	-66
▁u	-67
▁on	-68
▁h	-69
gh	-70
id	-71
ld	-72
▁th	-73
se	-74
ri	-75
▁is	-76
out	-77
ut	-78
▁go	-79
▁j	-80
ke	-81
his	-82
ck	-83
ver	-84
ght	-85
▁li	-86
al	-87
▁for	-88
▁kn	-89
▁don	-90
▁st	-91
▁know	-92
▁not	-93
ce	-94
▁this	-95
▁have	-96
▁your	-97
▁my	-98
▁no	-99
ust	-100
▁was	-101
ad	-102
ould	-103
ome	-104
▁wh	-105
ith	-106
ant	-107
am	-108
▁with	-109
ro	-110
ee	-111
▁can	-112
ir	-113
ch	-114
ly	-115
▁but	-116
▁are	-117
ill	-118
ent	-119
▁ne	-120
all	-121
ct	-122
▁hi	-123
oo	-124
ion	-125
▁they	-126
▁so	-127
▁get	-128
▁ab	-129
▁just	-130
▁all	-131
her	-132
ea	-133
▁like	-134
hing	-135
nd	-136
is	-137
▁whe	-138
▁as	-139
▁did	-140
ink	-141
▁ll	-142
▁out	-143
▁su	-144
▁about	-145
▁there	-146
ra	-147
▁want	-148
od	-149
im	-150
▁got	-151
▁she	-152
▁if	-153
▁at	-154
▁think	-155
▁up	-156
▁here	-157
ry	-158
▁him	-159
▁any	-160
▁ri	-161
ic	-162
ake	-163
one	-164
pp	-165
▁how	-166
▁ve	-167
ell	-168
▁sh	-169
ter	-170
our	-171
▁de	-172
▁one	-173
ight	-174
▁wor	-175
ore	-176
▁well	-177
un	-178
▁r	-179
ook	-180
ie	-181
very	-182
▁who	-183
▁some	-184
op	-185
▁now	-186
▁right	-187
▁al	-188
▁see	-189
ack	-190
ur	-191
ind	-192
ive	-193
▁her	-194
and	-195
il	-196
han	-197
▁why	-198
ess	-199
art	-200
▁fr	-201
ge	-202
us	-203
▁say	-204
ally	-205
▁look	-206
▁sa	-207
▁yes	-208
▁would	-209
▁going	-210
▁man	-211
▁or	-212
▁oh	-213
ig	-214
▁tell	-215
ain	-216
▁us	-217
▁good	-218
au	-219
▁lo	-220
fe	-221
▁tim	-222
end	-223
▁pl	-224
▁ex	-225
uck	-226
▁yea	-227
▁yeah	-228
▁se	-229
▁when	-230
▁gu	-231
▁com	-232
▁could	-233
▁his	-234
ame	-235
alk	-236
ong	-237
rou	-238
▁were	-239
▁will	-240
red	-241
ate	-242
▁where	-243
ble	-244
▁som	-245
▁thing	-246
ul	-247
ers	-248
▁time	-249
▁from	-250
▁somet	-251
▁been	-252
ol	-253
▁let	-254
qu	-255
ast	-256
way	-257
os	-258
▁con	-259
ine	-260
▁them	-261
▁sp	-262
na	-263
▁back	-264
ard	-265
▁than	-266
▁come	-267
ak	-268
nt	-269
▁mean	-270
▁too	-271
ation	-272
▁then	-273
▁v	-274
▁every	-275
um	-276
▁pro	-277
▁didn	-278
▁tw	-279
itt	-280
ear	-281
lf	-282
▁may	-283
ice	-284
thing	-285
▁never	-286
▁off	-287
▁talk	-288
▁am	-289
if	-290
▁had	-291
own	-292
▁ag	-293
▁something	-294
res	-295
ous	-296
▁take	-297
▁int	-298
other	-299
▁way	-300
▁ro	-301
▁cl	-302
ick	-303
ort	-304
ven	-305
be	-306
▁really	-307
ose	-308
▁mo	-309
▁fuck	-310
▁call	-311
▁need	-312
▁ca	-313
▁make	-314
▁happ	-315
ody	-316
▁does	-317
▁ok	-318
▁jo	-319
ist	-320
▁sure	-321
▁work	-322
▁mr	-323
▁pe	-324
ittle	-325
▁bet	-326
▁by	-327
▁over	-328
▁should	-329
▁af	-330
▁little	-331
▁bo	-332
ty	-333
▁tr	-334
▁our	-335
▁more	-336
em	-337
ause	-338
▁bl	-339
▁qu	-340
▁down	-341
ace	-342
ab	-343
onna	-344
ase	-345
ople	-346
ber	-347
▁people	-348
▁gonna	-349
▁sc	-350
▁won	-351
▁has	-352
▁mar	-353
▁mu	-354
▁said	-355
▁en	-356
▁bec	-357
▁guy	-358
▁only	-359
▁okay	-360
▁very	-361
hit	-362
▁br	-363
body	-364
▁love	-365
ect	-366
▁give	-367
▁hu	-368
▁two	-369
▁kill	-370
nder	-371
ought	-372
▁maybe	-373
ag	-374
ure	-375
▁co	-376
self	-377
ther	-378
▁le	-379
ide	-380
iss	-381
▁much	-382
▁under	-383
ff	-384
est	-385
▁happen	-386
pt	-387
▁lea	-388
el	-389
▁bu	-390
lie	-391
reat	-392
▁god	-393
▁day	-394
eel	-395
▁even	-396
▁ask	-397
ree	-398
▁un	-399
▁anything	-400
▁thank	-401
ity	-402
oney	-403
▁year	-404
▁other	-405
th	-406
ies	-407
ound	-408
▁because	-409
ving	-410
▁sir	-411
▁feel	-412
per	-413
▁hell	-414
▁wr	-415
▁pre	-416
▁nothing	-417
ough	-418
ew	-419
▁dr	-420
round	-421
▁sor	-422
▁night	-423
ta	-424
▁try	-425
▁wa	-426
riend	-427
▁ar	-428
▁into	-429
▁new	-430
ting	-431
▁sorry	-432
▁belie	-433
▁ever	-434
▁thought	-435
ac	-436
pl	-437
ning	-438
▁must	-439
eep	-440
▁im	-441
▁find	-442
wn	-443
▁hel	-444
fore	-445
▁ple	-446
▁long	-447
▁again	-448
ment	-449
▁car	-450
▁rem	-451
▁before	-452
▁believe	-453
▁life	-454
▁ch	-455
▁doing	-456
▁po	-457
ather	-458
▁gir	-459
▁after	-460
▁wait	-461
▁fir	-462
▁whi	-463
ady	-464
▁cha	-465
▁put	-466
▁these	-467
▁better	-468
ue	-469
▁em	-470
▁help	-471
▁told	-472
ap	-473
▁still	-474
▁things	-475
ass	-476
▁around	-477
ite	-478
▁last	-479
▁el	-480
▁first	-481
▁cour	-482
ire	-483
▁stu	-484
▁friend	-485
row	-486
ade	-487
▁sm	-488
▁cou	-489
▁ad	-490
▁har	-491
▁kind	-492
ways	-493
ish	-494
▁old	-495
▁keep	-496
▁shit	-497
▁those	-498
▁money	-499
▁chan	-500
act	-501
age	-502
▁sw	-503
▁girl	-504
▁always	-505
▁big	-506
▁per	-507
ool	-508
▁min	-509
▁home	-510
iz	-511
get	-512
ress	-513
▁pr	-514
der	-515
▁please	-516
are	-517
▁act	-518
▁ho	-519
▁lot	-520
▁part	-521
▁years	-522
▁name	-523
ft	-524
ix	-525
▁mon	-526
▁isn	-527
ci	-528
ood	-529
▁underst	-530
▁real	-531
▁kid	-532
▁ma	-533
▁ass	-534
▁start	-535
urn	-536
▁che	-537
▁their	-538
▁chi	-539
▁list	-540
▁place	-541
day	-542
▁boy	-543
▁course	-544
▁mat	-545
de	-546
▁doesn	-547
▁supp	-548
▁care	-549
▁remem	-550
▁everything	-551
▁understand	-552
int	-553
ried	-554
▁away	-555
ep	-556
▁miss	-557
▁uh	-558
▁wat	-559
▁hand	-560
▁great	-561
▁hey	-562
▁huh	-563
▁ac	-564
ory	-565
▁bad	-566
▁live	-567
▁sec	-568
▁remember	-569
ord	-570
▁fl	-571
▁guess	-572
▁play	-573
▁might	-574
▁gr	-575
ouse	-576
si	-577
▁dis	-578
▁tra	-579
▁listen	-580
▁minut	-581
▁cra	-582
ond	-583
▁wouldn	-584
amn	-585
ance	-586
▁run	-587
▁mind	-588
▁stay	-589
▁sha	-590
▁three	-591
sp	-592
▁leave	-593
▁bus	-594
able	-595
▁ra	-596
▁hear	-597
▁show	-598
▁else	-599
▁talking	-600
ren	-601
▁own	-602
▁wom	-603
▁ain	-604
▁id	-605
▁mother	-606
rough	-607
▁head	-608
▁mak	-609
een	-610
ful	-611
▁through	-612
▁tom	-613
▁made	-614
▁dead	-615
▁gotta	-616
dy	-617
▁father	-618
▁happened	-619
ise	-620
▁fine	-621
▁ser	-622
▁comm	-623
▁house	-624
▁another	-625
▁imp	-626
▁wanted	-627
▁wrong	-628
ull	-629
man	-630
▁enough	-631
hed	-632
ank	-633
▁stop	-634
▁came	-635
ach	-636
ctor	-637
▁room	-638
▁getting	-639
▁nice	-640
ek	-641
ence	-642
▁la	-643
▁someone	-644
ans	-645
ious	-646
▁world	-647
ple	-648
ign	-649
▁sl	-650
▁wasn	-651
▁done	-652
▁rec	-653
▁tak	-654
av	-655
ps	-656
▁mor	-657
▁mom	-658
▁job	-659
ger	-660
▁app	-661
ath	-662
ub	-663
▁war	-664
▁left	-665
og	-666
▁being	-667
ock	-668
▁five	-669
▁yourself	-670
ary	-671
pe	-672
ert	-673
▁heard	-674
▁week	-675
▁saw	-676
▁haven	-677
▁pret	-678
▁fucking	-679
ms	-680
▁wi	-681
▁meet	-682
ions	-683
▁went	-684
▁di	-685
▁matter	-686
erson	-687
ny	-688
▁dif	-689
rest	-690
▁dad	-691
ia	-692
ng	-693
▁ton	-694
▁cont	-695
son	-696
▁pos	-697
▁six	-698
▁trying	-699
▁knew	-700
▁ins	-701
▁four	-702
▁bab	-703
▁looking	-704
▁fun	-705
▁pri	-706
▁same	-707
▁ph	-708
▁most	-709
▁bre	-710
▁word	-711
▁son	-712
▁plan	-713
orm	-714
▁coming	-715
ict	-716
▁te	-717
▁turn	-718
▁sin	-719
▁idea	-720
ey	-721
▁thanks	-722
▁guys	-723
ved	-724
▁which	-725
iness	-726
▁hard	-727
▁hour	-728
▁seen	-729
▁exp	-730
▁shi	-731
▁sen	-732
▁tri	-733
▁cle	-734
ually	-735
▁best	-736
ever	-737
▁att	-738
leep	-739
ars	-740
orn	-741
▁whole	-742
▁person	-743
▁pretty	-744
ated	-745
▁gl	-746
▁used	-747
▁couldn	-748
▁tonight	-749
▁sch	-750
▁pol	-751
▁comp	-752
ident	-753
▁hop	-754
▁many	-755
▁hund	-756
▁hundred	-757
orrow	-758
▁read	-759
▁hat	-760
▁baby	-761
▁proble	-762
anc	-763
▁fin	-764
▁men	-765
osed	-766
▁str	-767
▁ten	-768
▁op	-769
▁sit	-770
ud	-771
▁walk	-772
▁hur	-773
▁fo	-774
▁business	-775
my	-776
▁once	-777
▁bit	-778
ark	-779
▁fam	-780
▁stuff	-781
▁woman	-782
▁des	-783
air	-784
▁called	-785
▁without	-786
hn	-787
▁morning	-788
oth	-789
▁far	-790
▁quest	-791
▁prob	-792
▁bring	-793
▁since	-794
zy	-795
ason	-796
▁count	-797
ily	-798
▁myself	-799
▁rep	-800
▁exact	-801
hes	-802
▁dri	-803
▁drink	-804
▁jack	-805
xt	-806
▁met	-807
▁says	-808
▁end	-809
▁pres	-810
▁sur	-811
▁diffe	-812
▁killed	-813
▁found	-814
▁sho	-815
ably	-816
rist	-817
enty	-818
▁john	-819
ors	-820
▁sound	-821
▁use	-822
▁wife	-823
▁watch	-824
ail	-825
▁pay	-826
▁ya	-827
▁thi	-828
▁damn	-829
▁deal	-830
▁tomorrow	-831
ical	-832
ready	-833
▁bar	-834
ves	-835
▁while	-836
▁hold	-837
▁next	-838
ner	-839
right	-840
les	-841
▁already	-842
here	-843
▁set	-844
ss	-845
ream	-846
▁yet	-847
▁doctor	-848
▁char	-849
▁stand	-850
ug	-851
▁few	-852
ret	-853
▁point	-854
▁inte	-855
▁acc	-856
ations	-857
▁break	-858
▁anyway	-859
▁wonder	-860
▁exactly	-861
▁sleep	-862
▁cut	-863
▁such	-864
gether	-865
▁somebody	-866
▁ago	-867
▁probably	-868
ract	-869
▁took	-870
▁rest	-871
▁pick	-872
▁school	-873
▁sim	-874
aught	-875
▁month	-876
aut	-877
ave	-878
▁unt	-879
▁alone	-880
▁saying	-881
▁together	-882
▁eat	-883
▁half	-884
eet	-885
ian	-886
▁days	-887
▁jes	-888
▁interest	-889
▁ap	-890
▁exc	-891
▁brother	-892
▁friends	-893
▁open	-894
sw	-895
▁anyone	-896
eak	-897
▁rel	-898
▁wants	-899
gin	-900
▁knows	-901
ater	-902
▁forget	-903
▁crazy	-904
oy	-905
▁gun	-906
raid	-907
uth	-908
▁aw	-909
▁fif	-910
▁ter	-911
▁gone	-912
▁beaut	-913
▁minute	-914
▁today	-915
▁ey	-916
ousand	-917
▁until	-918
▁thousand	-919
vel	-920
cept	-921
▁book	-922
pped	-923
▁dec	-924
rent	-925
▁child	-926
▁pow	-927
ister	-928
▁problem	-929
me	-930
▁thinking	-931
anna	-932
▁late	-933
▁shot	-934
▁afraid	-935
▁nobody	-936
▁aren	-937
ness	-938
▁check	-939
▁fig	-940
▁makes	-941
ither	-942
▁thir	-943
sible	-944
▁second	-945
ize	-946
▁pat	-947
ang	-948
▁sk	-949
▁hello	-950
mo	-951
▁prom	-952
▁hot	-953
▁hope	-954
▁ent	-955
▁christ	-956
▁move	-957
▁supposed	-958
▁wanna	-959
mm	-960
▁mil	-961
▁jesus	-962
ons	-963
▁law	-964
▁twenty	-965
▁mrs	-966
ition	-967
less	-968
▁face	-969
▁soon	-970
▁gen	-971
▁hum	-972
▁cause	-973
▁trust	-974
▁worry	-975
▁actually	-976
▁doll	-977
med	-978
▁trou	-979
fect	-980
vent	-981
by	-982
▁vi	-983
▁minutes	-984
▁everybody	-985
▁eas	-986
rew	-987
▁hit	-988
▁case	-989
no	-990
▁godd	-991
▁reason	-992
▁cat	-993
iful	-994
where	-995
▁die	-996
▁story	-997
ling	-998
▁shut	-999
▁black	-1000
▁happy	-1001
▁true	-1002
▁compl	-1003
▁least	-1004
ertain	-1005
▁ob	-1006
▁pa	-1007
▁bed	-1008
▁sometim	-1009
▁luck	-1010
▁looks	-1011
▁high	-1012
ned	-1013
▁working	-1014
iv	-1015
▁gra	-1016
▁je	-1017
▁hurt	-1018
ork	-1019
▁beautiful	-1020
▁ear	-1021
enc	-1022
▁ed	-1023
ott	-1024
▁married	-1025
▁ben	-1026
▁town	-1027
▁whatever	-1028
▁z	-1029
▁dro	-1030
▁del	-1031
▁capt	-1032
ating	-1033
▁young	-1034
▁spe	-1035
▁lost	-1036
▁asked	-1037
ding	-1038
▁bro	-1039
llow	-1040
▁res	-1041
▁fight	-1042
▁anybody	-1043
▁different	-1044
▁chance	-1045
▁change	-1046
▁resp	-1047
▁ready	-1048
als	-1049
ged	-1050
▁trouble	-1051
ird	-1052
▁cop	-1053
▁family	-1054
▁both	-1055
use	-1056
ings	-1057
▁cr	-1058
▁fire	-1059
ired	-1060
▁ship	-1061
▁shoot	-1062
head	-1063
▁quite	-1064
▁expl	-1065
▁question	-1066
▁speak	-1067
▁sign	-1068
▁having	-1069
ont	-1070
▁bull	-1071
▁sort	-1072
▁close	-1073
ip	-1074
ile	-1075
▁par	-1076
▁times	-1077
▁gave	-1078
▁bill	-1079
▁door	-1080
▁eight	-1081
cc	-1082
ump	-1083
▁adm	-1084
▁import	-1085
▁dream	-1086
▁answ	-1087
▁gets	-1088
▁hate	-1089
▁wish	-1090
▁ev	-1091
ying	-1092
▁serious	-1093
▁dep	-1094
▁mur	-1095
▁fact	-1096
▁mill	-1097
▁mine	-1098
ult	-1099
▁dan	-1100
▁heart	-1101
▁each	-1102
▁hours	-1103
▁col	-1104
▁pass	-1105
▁police	-1106
ax	-1107
ier	-1108
uc	-1109
ared	-1110
▁num	-1111
▁fuckin	-1112
▁suppose	-1113
▁cor	-1114
▁expect	-1115
▁inv	-1116
unk	-1117
▁sy	-1118
ual	-1119
▁death	-1120
▁inf	-1121
ris	-1122
ets	-1123
▁ah	-1124
▁inst	-1125
▁inc	-1126
▁cons	-1127
ens	-1128
▁captain	-1129
▁mad	-1130
▁certain	-1131
▁send	-1132
▁power	-1133
eric	-1134
ins	-1135
▁sometimes	-1136
▁couple	-1137
dd	-1138
ah	-1139
▁goddamn	-1140
ef	-1141
▁det	-1142
pid	-1143
▁conf	-1144
▁honey	-1145
▁important	-1146
▁air	-1147
▁nat	-1148
ete	-1149
more	-1150
ange	-1151
▁everyone	-1152
▁truth	-1153
▁taking	-1154
ph	-1155
▁eng	-1156
land	-1157
▁follow	-1158
▁lau	-1159
▁kids	-1160
az	-1161
▁cas	-1162
▁dou	-1163
▁telling	-1164
▁later	-1165
▁yours	-1166
▁lie	-1167
sy	-1168
aul	-1169
ient	-1170
unch	-1171
ames	-1172
▁making	-1173
▁side	-1174
▁comes	-1175
▁pict	-1176
ho	-1177
artment	-1178
▁tou	-1179
▁country	-1180
▁gre	-1181
▁dog	-1182
▁forg	-1183
▁star	-1184
▁bob	-1185
▁dick	-1186
▁alright	-1187
▁reg	-1188
▁free	-1189
▁whit	-1190
▁easy	-1191
▁conc	-1192
▁light	-1193
▁win	-1194
ention	-1195
▁lou	-1196
▁americ	-1197
▁sex	-1198
▁full	-1199
▁mess	-1200
▁pain	-1201
▁either	-1202
te	-1203
▁stre	-1204
▁funny	-1205
▁president	-1206
ction	-1207
outh	-1208
▁stra	-1209
▁hands	-1210
▁though	-1211
ne	-1212
▁disc	-1213
▁months	-1214
cial	-1215
▁mov	-1216
▁record	-1217
▁anymore	-1218
▁dollars	-1219
ator	-1220
ross	-1221
ject	-1222
▁against	-1223
▁hun	-1224
▁ret	-1225
▁beat	-1226
▁grand	-1227
vers	-1228
▁inter	-1229
▁phone	-1230
▁def	-1231
▁ele	-1232
▁ind	-1233
▁frank	-1234
so	-1235
ial	-1236
its	-1237
olog	-1238
▁buy	-1239
▁din	-1240
▁along	-1241
ton	-1242
▁bra	-1243
▁answer	-1244
▁means	-1245
▁stupid	-1246
ward	-1247
▁sweet	-1248
▁hus	-1249
▁party	-1250
ane	-1251
▁body	-1252
▁fell	-1253
▁blood	-1254
▁lik	-1255
▁coll	-1256
▁fall	-1257
▁prof	-1258
▁eyes	-1259
▁pull	-1260
▁inside	-1261
▁ru	-1262
▁rid	-1263
teen	-1264
▁goes	-1265
io	-1266
▁tried	-1267
most	-1268
sel	-1269
ster	-1270
ute	-1271
▁lear	-1272
▁waiting	-1273
eral	-1274
cks	-1275
band	-1276
ied	-1277
▁sn	-1278
▁wear	-1279
ru	-1280
▁ste	-1281
oice	-1282
▁water	-1283
▁secret	-1284
che	-1285
▁dra	-1286
▁sent	-1287
▁running	-1288
▁sick	-1289
▁white	-1290
▁husband	-1291
▁game	-1292
▁city	-1293
▁office	-1294
umb	-1295
▁pie	-1296
▁red	-1297
▁almost	-1298
▁number	-1299
▁cal	-1300
▁started	-1301
▁beh	-1302
▁behind	-1303
ote	-1304
▁hor	-1305
▁state	-1306
▁es	-1307
led	-1308
ount	-1309
▁sub	-1310
arent	-1311
▁hang	-1312
▁sing	-1313
▁boys	-1314
▁women	-1315
▁jim	-1316
▁ge	-1317
▁vis	-1318
ates	-1319
ters	-1320
▁also	-1321
lin	-1322
side	-1323
pit	-1324
▁thirty	-1325
bb	-1326
hin	-1327
▁leg	-1328
▁betw	-1329
eter	-1330
▁between	-1331
▁himself	-1332
▁dear	-1333
▁excuse	-1334
vin	-1335
▁sense	-1336
ured	-1337
▁moment	-1338
▁exper	-1339
▁living	-1340
▁fil	-1341
ative	-1342
▁write	-1343
haps	-1344
▁test	-1345
▁perfect	-1346
▁perhaps	-1347
ks	-1348
ched	-1349
▁wind	-1350
▁class	-1351
oke	-1352
▁terri	-1353
ild	-1354
ures	-1355
▁news	-1356
▁alive	-1357
ense	-1358
▁mid	-1359
ler	-1360
▁bat	-1361
▁cri	-1362
▁seem	-1363
uce	-1364
▁york	-1365
▁offic	-1366
ma	-1367
amp	-1368
▁fre	-1369
▁miles	-1370
rence	-1371
▁sal	-1372
ides	-1373
▁drive	-1374
▁prot	-1375
▁seems	-1376
▁possible	-1377
itch	-1378
▁able	-1379
▁ahead	-1380
▁sister	-1381
▁shouldn	-1382
oss	-1383
▁tea	-1384
▁lady	-1385
▁sounds	-1386
cha	-1387
▁safe	-1388
▁street	-1389
▁human	-1390
▁abs	-1391
▁fool	-1392
▁line	-1393
▁dinner	-1394
▁million	-1395
▁mus	-1396
▁cool	-1397
▁worth	-1398
up	-1399
tle	-1400
shit	-1401
▁figure	-1402
ike	-1403
ience	-1404
▁fifty	-1405
ok	-1406
▁sat	-1407
▁mem	-1408
▁unc	-1409
▁fast	-1410
ished	-1411
▁ann	-1412
▁mag	-1413
▁straight	-1414
▁rad	-1415
▁dire	-1416
▁girls	-1417
ubl	-1418
▁dist	-1419
▁med	-1420
▁brou	-1421
▁small	-1422
▁outside	-1423
▁its	-1424
▁died	-1425
▁clean	-1426
ited	-1427
▁art	-1428
▁glad	-1429
▁imag	-1430
▁contro	-1431
▁bri	-1432
▁rus	-1433
▁shall	-1434
ten	-1435
ular	-1436
▁fore	-1437
▁bullshit	-1438
ys	-1439
▁ref	-1440
▁train	-1441
▁scared	-1442
▁add	-1443
▁sto	-1444
▁daddy	-1445
hip	-1446
▁cent	-1447
▁dest	-1448
▁mart	-1449
▁er	-1450
▁clear	-1451
gg	-1452
▁bud	-1453
▁hon	-1454
▁feeling	-1455
iet	-1456
▁bel	-1457
▁buck	-1458
▁brought	-1459
▁squ	-1460
▁asking	-1461
ility	-1462
▁dav	-1463
▁ext	-1464
▁mist	-1465
▁promise	-1466
▁ray	-1467
▁front	-1468
▁maj	-1469
ency	-1470
▁less	-1471
▁weren	-1472
▁happens	-1473
▁ball	-1474
▁poor	-1475
▁touch	-1476
ze	-1477
▁bank	-1478
▁weeks	-1479
▁except	-1480
▁geor	-1481
ald	-1482
vice	-1483
arth	-1484
ider	-1485
▁fel	-1486
▁tap	-1487
app	-1488
▁pen	-1489
▁report	-1490
ards	-1491
▁max	-1492
▁hair	-1493
aughter	-1494
▁gi	-1495
pital	-1496
▁command	-1497
▁rob	-1498
▁psy	-1499
▁food	-1500
▁wall	-1501
▁dar	-1502
▁mary	-1503
▁seven	-1504
▁explain	-1505
ls	-1506
ley	-1507
▁till	-1508
ts	-1509
▁bas	-1510
▁kiss	-1511
▁land	-1512
▁build	-1513
▁complete	-1514
▁protect	-1515
cess	-1516
men	-1517
▁save	-1518
▁order	-1519
sib	-1520
gest	-1521
▁gent	-1522
▁earth	-1523
▁children	-1524
▁mer	-1525
▁taken	-1526
room	-1527
▁key	-1528
▁picture	-1529
▁sam	-1530
▁known	-1531
▁apartment	-1532
▁blow	-1533
▁words	-1534
▁looked	-1535
ric	-1536
cent	-1537
▁joe	-1538
▁dark	-1539
▁david	-1540
▁army	-1541
▁bitch	-1542
▁dress	-1543
uss	-1544
▁lose	-1545
▁surp	-1546
▁profess	-1547
any	-1548
▁publ	-1549
▁throw	-1550
▁thinks	-1551
▁bes	-1552
▁tired	-1553
▁inform	-1554
co	-1555
fort	-1556
▁pleas	-1557
▁certainly	-1558
▁wonderful	-1559
erv	-1560
ram	-1561
▁lock	-1562
▁nine	-1563
ced	-1564
▁fav	-1565
▁step	-1566
▁jeff	-1567
ically	-1568
▁rather	-1569
aw	-1570
bar	-1571
ces	-1572
gan	-1573
▁ke	-1574
▁boss	-1575
▁works	-1576
vis	-1577
▁eve	-1578
pping	-1579
▁begin	-1580
▁somewhere	-1581
ics	-1582
▁du	-1583
▁lucky	-1584
▁parent	-1585
▁oper	-1586
dle	-1587
▁bur	-1588
iting	-1589
fic	-1590
▁low	-1591
▁press	-1592
▁ow	-1593
▁daughter	-1594
lly	-1595
ik	-1596
vern	-1597
▁sell	-1598
▁tot	-1599
of	-1600
ines	-1601
▁hos	-1602
▁needs	-1603
▁short	-1604
▁george	-1605
▁priv	-1606
▁catch	-1607
▁leaving	-1608
die	-1609
ash	-1610
airs	-1611
▁lives	-1612
onest	-1613
▁movie	-1614
▁blue	-1615
▁drop	-1616
▁hotel	-1617
▁pop	-1618
itting	-1619
▁control	-1620
▁interested	-1621
▁lead	-1622
▁susp	-1623
▁piece	-1624
erg	-1625
iam	-1626
ony	-1627
▁cost	-1628
▁gentle	-1629
▁simple	-1630
▁general	-1631
gry	-1632
uts	-1633
ones	-1634
selves	-1635
▁ought	-1636
▁honest	-1637
min	-1638
▁near	-1639
▁past	-1640
▁quick	-1641
▁danger	-1642
ault	-1643
▁fix	-1644
▁cond	-1645
▁mark	-1646
ime	-1647
▁fair	-1648
▁harry	-1649
▁clot	-1650
▁cold	-1651
▁meant	-1652
▁bag	-1653
▁jud	-1654
▁drug	-1655
ately	-1656
▁mouth	-1657
ents	-1658
▁neg	-1659
▁quit	-1660
▁clock	-1661
▁disapp	-1662
▁tre	-1663
▁hospital	-1664
mp	-1665
▁ty	-1666
dden	-1667
▁ord	-1668
▁absol	-1669
▁special	-1670
ama	-1671
vest	-1672
▁burn	-1673
▁spend	-1674
▁worse	-1675
ano	-1676
ized	-1677
▁felt	-1678
▁calling	-1679
▁bird	-1680
▁carry	-1681
▁meeting	-1682
▁top	-1683
ester	-1684
▁sold	-1685
▁ran	-1686
▁creat	-1687
▁trans	-1688
▁become	-1689
▁besides	-1690
ring	-1691
▁parents	-1692
▁playing	-1693
▁smart	-1694
▁pea	-1695
▁favor	-1696
▁strange	-1697
▁absolute	-1698
rise	-1699
▁flo	-1700
ale	-1701
▁learn	-1702
▁concer	-1703
▁turned	-1704
▁dun	-1705
▁sol	-1706
▁laugh	-1707
▁worked	-1708
iew	-1709
▁respect	-1710
▁sug	-1711
▁sun	-1712
▁outta	-1713
▁company	-1714
▁mic	-1715
▁personal	-1716
joy	-1717
ific	-1718
▁dam	-1719
▁mac	-1720
▁road	-1721
uation	-1722
▁treat	-1723
▁choice	-1724
mit	-1725
▁date	-1726
▁grow	-1727
▁nick	-1728
▁bother	-1729
bt	-1730
ants	-1731
▁fly	-1732
▁gar	-1733
▁stick	-1734
▁imagine	-1735
go	-1736
ats	-1737
▁feet	-1738
▁tele	-1739
▁franc	-1740
▁pur	-1741
idence	-1742
▁paper	-1743
▁questions	-1744
lo	-1745
amed	-1746
▁los	-1747
▁goin	-1748
aste	-1749
▁cry	-1750
ities	-1751
▁attack	-1752
▁kidding	-1753
ible	-1754
▁fut	-1755
▁stri	-1756
▁unless	-1757
▁clothes	-1758
▁pal	-1759
▁super	-1760
▁commun	-1761
▁respon	-1762
▁american	-1763
gn	-1764
▁hist	-1765
▁smell	-1766
▁handle	-1767
▁public	-1768
▁talked	-1769
▁wal	-1770
▁chick	-1771
▁loved	-1772
▁takes	-1773
nes	-1774
▁cur	-1775
▁pus	-1776
▁none	-1777
bo	-1778
igh	-1779
▁fed	-1780
dered	-1781
▁sand	-1782
▁yester	-1783
▁yesterday	-1784
key	-1785
stem	-1786
▁cann	-1787
▁mach	-1788
▁court	-1789
▁russi	-1790
▁system	-1791
cri	-1792
ior	-1793
omb	-1794
rap	-1795
▁ride	-1796
amin	-1797
ches	-1798
ution	-1799
▁bast	-1800
▁tick	-1801
▁invol	-1802
▁ju	-1803
ield	-1804
ories	-1805
▁anim	-1806
▁weird	-1807
▁sou	-1808
▁fred	-1809
▁trip	-1810
▁pract	-1811
▁eh	-1812
ided	-1813
▁coff	-1814
▁cross	-1815
▁fifteen	-1816
▁absolutely	-1817
▁kick	-1818
▁park	-1819
▁future	-1820
▁forgive	-1821
▁accident	-1822
▁happening	-1823
ett	-1824
ming	-1825
▁cops	-1826
▁king	-1827
▁enjoy	-1828
▁marry	-1829
▁finish	-1830
▁mention	-1831
▁pu	-1832
▁tur	-1833
▁sail	-1834
▁suit	-1835
ission	-1836
▁honor	-1837
ots	-1838
▁nin	-1839
▁prin	-1840
▁slow	-1841
▁drunk	-1842
▁music	-1843
▁cu	-1844
▁murder	-1845
chi	-1846
mer	-1847
▁fe	-1848
▁val	-1849
▁chief	-1850
ron	-1851
oose	-1852
▁lawy	-1853
▁govern	-1854
▁moving	-1855
▁situation	-1856
ode	-1857
▁gard	-1858
▁swear	-1859
▁consider	-1860
sk	-1861
ering	-1862
▁busy	-1863
▁difference	-1864
ues	-1865
ists	-1866
▁pap	-1867
▁vir	-1868
▁forty	-1869
▁invest	-1870
vy	-1871
bor	-1872
hole	-1873
▁lay	-1874
used	-1875
▁aff	-1876
▁jun	-1877
vious	-1878
▁plane	-1879
▁others	-1880
▁interesting	-1881
ove	-1882
▁dev	-1883
▁entire	-1884
▁terrible	-1885
▁lar	-1886
▁sake	-1887
▁kinda	-1888
▁liked	-1889
mb	-1890
▁esc	-1891
▁join	-1892
▁bucks	-1893
▁dance	-1894
▁return	-1895
▁information	-1896
▁loc	-1897
▁deep	-1898
▁appre	-1899
▁peace	-1900
▁middle	-1901
▁killing	-1902
ored	-1903
night	-1904
▁natur	-1905
▁peter	-1906
▁caught	-1907
▁cong	-1908
▁hasn	-1909
▁norm	-1910
▁fault	-1911
▁relax	-1912
▁figured	-1913
▁evil	-1914
▁prog	-1915
▁stud	-1916
▁fucked	-1917
▁seeing	-1918
▁history	-1919
ery	-1920
roy	-1921
set	-1922
orth	-1923
▁lying	-1924
▁space	-1925
▁sudden	-1926
▁lad	-1927
▁ring	-1928
▁screw	-1929
▁truck	-1930
▁coffee	-1931
▁mistake	-1932
▁sitting	-1933
▁fa	-1934
▁ly	-1935
▁buddy	-1936
▁early	-1937
▁possib	-1938
▁william	-1939
▁completely	-1940
rat	-1941
▁roy	-1942
▁conn	-1943
▁west	-1944
ised	-1945
▁wit	-1946
▁brain	-1947
▁window	-1948
arch	-1949
▁tor	-1950
▁jump	-1951
ume	-1952
und	-1953
ison	-1954
ries	-1955
▁doin	-1956
▁rock	-1957
▁appro	-1958
▁cannot	-1959
▁evening	-1960
▁watching	-1961
irth	-1962
rold	-1963
▁bath	-1964
▁jake	-1965
▁kept	-1966
▁post	-1967
▁agent	-1968
▁radio	-1969
▁strong	-1970
▁anywhere	-1971
▁ble	-1972
▁den	-1973
▁occ	-1974
iment	-1975
ments	-1976
▁ones	-1977
▁james	-1978
▁careful	-1979
sh	-1980
ges	-1981
tin	-1982
uct	-1983
▁cab	-1984
▁san	-1985
▁broke	-1986
▁worried	-1987
aine	-1988
▁eye	-1989
▁mike	-1990
▁paid	-1991
▁giving	-1992
▁changed	-1993
cher	-1994
lish	-1995
▁harold	-1996
▁hmm	-1997
▁mis	-1998
▁mot	-1999
▁heal	-2000
▁birth	-2001
▁mister	-2002
▁appreci	-2003
▁jer	-2004
▁rom	-2005
ional	-2006
▁pack	-2007
▁bruce	-2008
▁sevent	-2009
▁finally	-2010
▁private	-2011
fer	-2012
▁cir	-2013
▁foot	-2014
▁rich	-2015
▁cover	-2016
▁obvious	-2017
▁officer	-2018
ili	-2019
king	-2020
▁ice	-2021
aster	-2022
inite	-2023
itive	-2024
▁rick	-2025
▁team	-2026
stairs	-2027
▁breat	-2028
▁given	-2029
▁threat	-2030
▁discuss	-2031
ball	-2032
▁ill	-2033
▁allow	-2034
▁offer	-2035
▁accept	-2036
ye	-2037
▁ce	-2038
▁circ	-2039
▁admir	-2040
▁knock	-2041
▁store	-2042
ational	-2043
▁goodby	-2044
ene	-2045
eth	-2046
oint	-2047
▁fort	-2048
▁psych	-2049
▁uncle	-2050
▁contin	-2051
▁charlie	-2052
br	-2053
ead	-2054
erve	-2055
▁dat	-2056
▁pard	-2057
▁girlf	-2058
▁louis	-2059
▁girlfriend	-2060
ages	-2061
▁age	-2062
▁dem	-2063
ective	-2064
▁goodbye	-2065
▁uni	-2066
▁wake	-2067
▁floor	-2068
▁direct	-2069
▁travel	-2070
▁realize	-2071
ka	-2072
▁um	-2073
▁div	-2074
▁wha	-2075
▁camp	-2076
▁doubt	-2077
▁likes	-2078
▁major	-2079
▁named	-2080
▁quiet	-2081
zz	-2082
igg	-2083
unt	-2084
▁visit	-2085
▁asshole	-2086
▁involved	-2087
come	-2088
▁club	-2089
▁darling	-2090
▁totally	-2091
la	-2092
urity	-2093
▁gold	-2094
▁prison	-2095
▁walter	-2096
▁stopped	-2097
▁somethin	-2098
ety	-2099
▁da	-2100
▁mod	-2101
ulous	-2102
▁boat	-2103
▁cook	-2104
▁fill	-2105
▁lord	-2106
▁mama	-2107
▁weap	-2108
▁station	-2109
▁arm	-2110
▁bor	-2111
▁doc	-2112
▁fat	-2113
▁sad	-2114
uring	-2115
▁prod	-2116
iff	-2117
mmer	-2118
rick	-2119
sess	-2120
▁fing	-2121
▁prep	-2122
▁planet	-2123
▁destroy	-2124
ina	-2125
lex	-2126
▁bust	-2127
▁main	-2128
▁tape	-2129
▁finished	-2130
▁tv	-2131
▁beg	-2132
▁fear	-2133
▁jail	-2134
▁piss	-2135
▁books	-2136
▁eddie	-2137
▁neigh	-2138
▁table	-2139
▁belong	-2140
▁killer	-2141
▁proper	-2142
elve	-2143
pper	-2144
▁bout	-2145
▁glass	-2146
▁comput	-2147
▁longer	-2148
▁nothin	-2149
▁twelve	-2150
▁neither	-2151
▁problems	-2152
ered	-2153
▁arr	-2154
▁lunch	-2155
▁upset	-2156
▁security	-2157
rey	-2158
▁card	-2159
▁event	-2160
▁bought	-2161
▁present	-2162
to	-2163
aces	-2164
aven	-2165
▁phi	-2166
▁wel	-2167
itche	-2168
▁clos	-2169
▁crew	-2170
▁lots	-2171
▁cow	-2172
▁paul	-2173
▁roll	-2174
▁hurry	-2175
▁partic	-2176
▁instead	-2177
gu	-2178
rd	-2179
ston	-2180
▁cig	-2181
▁bott	-2182
▁green	-2183
▁across	-2184
▁letter	-2185
▁senator	-2186
▁building	-2187
▁definite	-2188
▁investig	-2189
bi	-2190
xic	-2191
▁civ	-2192
▁hom	-2193
▁bomb	-2194
▁message	-2195
▁staying	-2196
avy	-2197
nie	-2198
rench	-2199
▁third	-2200
▁tough	-2201
▁apolog	-2202
▁fellow	-2203
▁lawyer	-2204
▁admiral	-2205
▁wearing	-2206
iter	-2207
▁phot	-2208
▁colle	-2209
▁lived	-2210
▁diffic	-2211
▁gotten	-2212
▁decided	-2213
▁machine	-2214
▁suspect	-2215
illy	-2216
▁cap	-2217
▁opp	-2218
▁tem	-2219
riage	-2220
▁self	-2221
▁corre	-2222
▁heaven	-2223
▁america	-2224
▁fol	-2225
▁mel	-2226
▁dumb	-2227
▁teach	-2228
▁hardly	-2229
▁picked	-2230
▁single	-2231
▁service	-2232
▁dangerous	-2233
▁professor	-2234
▁box	-2235
▁wrote	-2236
▁needed	-2237
▁college	-2238
▁relations	-2239
▁appreciate	-2240
how	-2241
ism	-2242
une	-2243
▁ken	-2244
▁born	-2245
▁form	-2246
▁nerv	-2247
▁shar	-2248
▁bastard	-2249
▁nervous	-2250
▁attention	-2251
nel	-2252
ogn	-2253
▁cast	-2254
▁forgot	-2255
ened	-2256
uten	-2257
▁rul	-2258
▁sea	-2259
▁sil	-2260
▁spl	-2261
▁corn	-2262
▁viol	-2263
▁wood	-2264
▁calls	-2265
▁impos	-2266
▁lieuten	-2267
▁witness	-2268
ium	-2269
ully	-2270
▁prop	-2271
▁surv	-2272
▁polit	-2273
▁french	-2274
▁normal	-2275
▁driving	-2276
▁welcome	-2277
ify	-2278
ppy	-2279
urs	-2280
hood	-2281
▁emp	-2282
▁account	-2283
ham	-2284
ude	-2285
▁av	-2286
idge	-2287
▁mir	-2288
▁voice	-2289
▁recogn	-2290
▁whether	-2291
sa	-2292
kes	-2293
bert	-2294
▁hen	-2295
▁cash	-2296
▁nose	-2297
▁risk	-2298
▁level	-2299
▁price	-2300
▁movies	-2301
▁impress	-2302
oc	-2303
ette	-2304
fuck	-2305
noon	-2306
▁idi	-2307
▁van	-2308
▁chur	-2309
▁crap	-2310
▁draw	-2311
▁earl	-2312
▁suck	-2313
▁paris	-2314
▁afternoon	-2315
▁ba	-2316
▁aut	-2317
▁aye	-2318
▁wed	-2319
▁amaz	-2320
▁hall	-2321
▁freak	-2322
▁silly	-2323
▁pardon	-2324
▁english	-2325
▁lieutenant	-2326
▁band	-2327
▁fail	-2328
▁hild	-2329
▁bobby	-2330
▁address	-2331
▁comfort	-2332
▁pictures	-2333
▁detective	-2334
▁cam	-2335
▁ted	-2336
▁bunch	-2337
▁moved	-2338
▁smoke	-2339
▁stuck	-2340
▁seemed	-2341
▁seconds	-2342
▁pleasure	-2343
ov	-2344
▁mm	-2345
▁cre	-2346
▁escap	-2347
▁jimmy	-2348
▁smith	-2349
▁memory	-2350
▁standing	-2351
▁definitely	-2352
ky	-2353
▁cla	-2354
▁tar	-2355
▁enem	-2356
▁phys	-2357
▁tech	-2358
▁vict	-2359
▁judge	-2360
▁suggest	-2361
▁surpris	-2362
gue	-2363
form	-2364
▁dir	-2365
▁coun	-2366
ection	-2367
▁field	-2368
▁acting	-2369
▁arrest	-2370
▁patient	-2371
▁difficult	-2372
▁ber	-2373
▁tal	-2374
▁data	-2375
▁joke	-2376
▁sens	-2377
▁spec	-2378
▁type	-2379
▁agree	-2380
▁betty	-2381
▁elect	-2382
▁ground	-2383
▁intell	-2384
▁correct	-2385
▁washing	-2386
▁marriage	-2387
▁department	-2388
ius	-2389
ted	-2390
ined	-2391
▁adv	-2392
▁gee	-2393
▁pin	-2394
cious	-2395
▁danc	-2396
▁guns	-2397
▁conta	-2398
▁prove	-2399
▁papers	-2400
▁impossible	-2401
atic	-2402
▁aud	-2403
▁bye	-2404
▁crime	-2405
▁hildy	-2406
▁track	-2407
▁dreams	-2408
▁hungry	-2409
▁plenty	-2410
▁contact	-2411
▁government	-2412
▁gas	-2413
▁deli	-2414
▁loves	-2415
▁south	-2416
▁twice	-2417
▁percent	-2418
ilt	-2419
ray	-2420
ury	-2421
zen	-2422
▁pan	-2423
chard	-2424
▁exce	-2425
▁fish	-2426
▁phil	-2427
▁requ	-2428
▁tear	-2429
▁wild	-2430
cially	-2431
▁block	-2432
▁gives	-2433
▁horse	-2434
▁putting	-2435
▁records	-2436
▁gri	-2437
▁mas	-2438
▁owe	-2439
fully	-2440
place	-2441
▁hook	-2442
▁ridic	-2443
▁asleep	-2444
▁charge	-2445
▁elaine	-2446
▁missed	-2447
▁gentlemen	-2448
ney	-2449
bers	-2450
▁jew	-2451
▁alex	-2452
▁hide	-2453
▁song	-2454
▁civil	-2455
▁double	-2456
▁island	-2457
▁usually	-2458
▁commander	-2459
▁experience	-2460
▁tommy	-2461
▁committ	-2462
het	-2463
▁mc	-2464
ager	-2465
aret	-2466
▁pig	-2467
▁tow	-2468
▁nuts	-2469
▁exist	-2470
▁faith	-2471
▁church	-2472
▁simone	-2473
▁reading	-2474
▁computer	-2475
nal	-2476
onel	-2477
▁equ	-2478
▁crow	-2479
▁fant	-2480
▁yell	-2481
vision	-2482
▁divor	-2483
▁reach	-2484
ken	-2485
▁cy	-2486
▁coo	-2487
▁iss	-2488
▁jam	-2489
▁wow	-2490
▁cute	-2491
▁hero	-2492
▁board	-2493
▁extra	-2494
▁mexic	-2495
▁missing	-2496
▁mission	-2497
ped	-2498
▁cred	-2499
▁film	-2500
▁hill	-2501
▁whose	-2502
▁neighbor	-2503
▁surprise	-2504
▁wondering	-2505
▁ridiculous	-2506
▁hol	-2507
▁ide	-2508
▁len	-2509
▁inde	-2510
ination	-2511
▁richard	-2512
▁washington	-2513
li	-2514
fle	-2515
ners	-2516
▁dig	-2517
▁nor	-2518
▁soul	-2519
▁ways	-2520
▁dying	-2521
▁round	-2522
▁steal	-2523
▁walked	-2524
ils	-2525
yle	-2526
▁hy	-2527
aged	-2528
iced	-2529
▁dut	-2530
▁gif	-2531
ified	-2532
▁drugs	-2533
▁orders	-2534
▁writing	-2535
bs	-2536
ians	-2537
▁est	-2538
▁ger	-2539
▁inno	-2540
▁pill	-2541
▁spir	-2542
▁idiot	-2543
▁rules	-2544
▁using	-2545
▁animal	-2546
bed	-2547
ging	-2548
▁luc	-2549
▁rub	-2550
▁curi	-2551
▁henry	-2552
▁marty	-2553
▁north	-2554
▁share	-2555
▁tight	-2556
▁remind	-2557
▁attract	-2558
▁forever	-2559
▁position	-2560
▁promised	-2561
▁ourselves	-2562
inc	-2563
mas	-2564
▁odd	-2565
▁enter	-2566
▁charact	-2567
▁stories	-2568
cy	-2569
ana	-2570
rod	-2571
ula	-2572
tern	-2573
▁lang	-2574
▁const	-2575
▁force	-2576
▁study	-2577
▁summer	-2578
▁concerned	-2579
hic	-2580
ror	-2581
hael	-2582
ature	-2583
swald	-2584
▁quar	-2585
▁appear	-2586
▁christmas	-2587
▁listening	-2588
anz	-2589
ero	-2590
iny	-2591
iner	-2592
▁sar	-2593
▁sle	-2594
▁plans	-2595
▁saved	-2596
▁spent	-2597
▁techn	-2598
▁michael	-2599
▁ir	-2600
view	-2601
▁heh	-2602
▁cust	-2603
▁holy	-2604
▁admit	-2605
▁oswald	-2606
▁program	-2607
▁birthday	-2608
▁particular	-2609
esty	-2610
▁bug	-2611
▁ell	-2612
▁calm	-2613
▁flat	-2614
va	-2615
▁egg	-2616
▁fit	-2617
▁jan	-2618
▁mal	-2619
▁pil	-2620
▁shh	-2621
verse	-2622
▁benj	-2623
▁espe	-2624
▁hole	-2625
▁moon	-2626
▁port	-2627
▁awful	-2628
▁guard	-2629
▁river	-2630
▁during	-2631
▁holding	-2632
▁support	-2633
▁drinking	-2634
▁beginning	-2635
▁especially	-2636
ib	-2637
hen	-2638
itor	-2639
raph	-2640
▁leo	-2641
▁vac	-2642
▁host	-2643
▁neck	-2644
▁brown	-2645
▁trick	-2646
▁fright	-2647
▁virgin	-2648
▁brothers	-2649
yond	-2650
▁rat	-2651
▁ven	-2652
▁area	-2653
▁drag	-2654
▁pool	-2655
▁chair	-2656
▁beyond	-2657
▁health	-2658
▁victor	-2659
▁amazing	-2660
▁colonel	-2661
▁fighting	-2662
▁ug	-2663
ends	-2664
iday	-2665
▁lab	-2666
heart	-2667
▁blame	-2668
▁folks	-2669
▁willing	-2670
▁benjamin	-2671
▁surprised	-2672
hile	-2673
▁bay	-2674
▁cub	-2675
▁jac	-2676
▁hadn	-2677
▁spee	-2678
▁apart	-2679
▁mostly	-2680
▁intellig	-2681
cut	-2682
oid	-2683
uel	-2684
ives	-2685
▁nah	-2686
▁pet	-2687
▁beer	-2688
▁feed	-2689
▁mass	-2690
▁organ	-2691
▁action	-2692
wise	-2693
▁ant	-2694
▁fas	-2695
▁load	-2696
▁opin	-2697
▁dunno	-2698
▁loose	-2699
▁tells	-2700
▁sailor	-2701
▁innocent	-2702
▁sleeping	-2703
bel	-2704
ese	-2705
port	-2706
▁fbi	-2707
▁fur	-2708
▁flow	-2709
▁pray	-2710
▁succ	-2711
▁decis	-2712
▁names	-2713
▁pound	-2714
▁client	-2715
▁martin	-2716
▁notice	-2717
▁talkin	-2718
▁cigaret	-2719
▁majesty	-2720
▁feelings	-2721
▁starting	-2722
ich	-2723
rer	-2724
sie	-2725
medi	-2726
▁mix	-2727
▁cell	-2728
▁seat	-2729
▁skin	-2730
▁devil	-2731
▁wheel	-2732
▁perform	-2733
▁somehow	-2734
asy	-2735
uff	-2736
▁fro	-2737
▁gim	-2738
▁feels	-2739
▁worst	-2740
▁broken	-2741
▁excell	-2742
▁immedi	-2743
▁insane	-2744
▁nature	-2745
ush	-2746
ology	-2747
▁bear	-2748
▁code	-2749
▁guest	-2750
▁often	-2751
▁assist	-2752
▁subject	-2753
▁upstairs	-2754
▁relationship	-2755
aced	-2756
ains	-2757
▁fle	-2758
▁ori	-2759
▁swe	-2760
▁beha	-2761
▁cree	-2762
▁sant	-2763
▁suff	-2764
▁crack	-2765
▁embar	-2766
▁gener	-2767
▁keeps	-2768
▁search	-2769
▁starts	-2770
hh	-2771
lor	-2772
rass	-2773
▁bon	-2774
▁rent	-2775
▁angry	-2776
▁baron	-2777
▁mount	-2778
▁bridge	-2779
▁common	-2780
▁convers	-2781
▁knowing	-2782
▁noticed	-2783
▁weather	-2784
▁character	-2785
▁embarrass	-2786
lu	-2787
uit	-2788
roud	-2789
▁kir	-2790
▁ange	-2791
▁wine	-2792
▁blind	-2793
▁fired	-2794
▁scott	-2795
▁scream	-2796
▁letters	-2797
▁success	-2798
▁survive	-2799
▁suddenly	-2800
gth	-2801
oon	-2802
ral	-2803
▁fem	-2804
▁las	-2805
▁tax	-2806
ander	-2807
ended	-2808
light	-2809
▁agre	-2810
▁base	-2811
▁gall	-2812
▁credit	-2813
▁gettin	-2814
▁locked	-2815
▁lovely	-2816
▁necess	-2817
▁within	-2818
acy	-2819
iant	-2820
read	-2821
▁tru	-2822
astic	-2823
ption	-2824
▁butt	-2825
▁east	-2826
▁gord	-2827
▁lone	-2828
▁nope	-2829
▁thom	-2830
▁tran	-2831
▁view	-2832
▁cheap	-2833
▁emerg	-2834
▁heavy	-2835
▁finger	-2836
▁natural	-2837
▁walking	-2838
▁possibly	-2839
▁obviously	-2840
▁otherwise	-2841
▁motherfuck	-2842
ob	-2843
▁purp	-2844
▁rain	-2845
ograph	-2846
▁proud	-2847
▁waste	-2848
▁decide	-2849
▁square	-2850
▁chicken	-2851
▁project	-2852
hol	-2853
por	-2854
▁detail	-2855
▁russian	-2856
▁seventy	-2857
▁seriously	-2858
eg	-2859
ugg	-2860
ung	-2861
host	-2862
▁amb	-2863
gging	-2864
▁plus	-2865
▁rece	-2866
▁smok	-2867
▁camer	-2868
▁color	-2869
▁ghost	-2870
▁damned	-2871
▁hiding	-2872
▁places	-2873
▁opinion	-2874
▁television	-2875
ai	-2876
ino	-2877
work	-2878
▁deg	-2879
▁grad	-2880
▁hors	-2881
friend	-2882
▁birds	-2883
▁newsp	-2884
ulations	-2885
▁training	-2886
aff	-2887
ker	-2888
ply	-2889
ache	-2890
akes	-2891
aude	-2892
ices	-2893
otch	-2894
▁gal	-2895
▁ign	-2896
▁und	-2897
▁aust	-2898
▁dude	-2899
▁ugly	-2900
▁wise	-2901
▁zero	-2902
▁dollar	-2903
▁victim	-2904
▁medical	-2905
▁bathroom	-2906
gas	-2907
▁ry	-2908
▁lem	-2909
▁thr	-2910
▁vol	-2911
▁pear	-2912
▁pete	-2913
▁gimme	-2914
▁holly	-2915
▁margo	-2916
▁crimin	-2917
▁forward	-2918
▁keeping	-2919
▁contract	-2920
▁director	-2921
▁recognize	-2922
aked	-2923
ille	-2924
ploy	-2925
ently	-2926
▁cock	-2927
▁jour	-2928
▁taste	-2929
▁mexico	-2930
▁ticket	-2931
▁wedding	-2932
▁murdered	-2933
eld	-2934
▁ef	-2935
▁ta	-2936
▁gam	-2937
▁clim	-2938
▁emot	-2939
▁file	-2940
▁note	-2941
ration	-2942
▁agnes	-2943
▁langu	-2944
▁robin	-2945
mission	-2946
▁lonely	-2947
▁curious	-2948
▁herself	-2949
▁evidence	-2950
▁personally	-2951
uh	-2952
cus	-2953
▁oo	-2954
reme	-2955
wood	-2956
▁dor	-2957
▁pot	-2958
▁arri	-2959
▁carl	-2960
▁gang	-2961
▁incl	-2962
▁stew	-2963
urance	-2964
ference	-2965
▁breakf	-2966
▁effect	-2967
▁passed	-2968
▁boyfriend	-2969
sey	-2970
roup	-2971
ening	-2972
icide	-2973
itten	-2974
uthor	-2975
▁laid	-2976
▁enemy	-2977
▁pregn	-2978
▁sight	-2979
▁trial	-2980
▁design	-2981
▁simply	-2982
▁speech	-2983
▁francis	-2984
▁partner	-2985
▁possess	-2986
aly	-2987
cey	-2988
omm	-2989
▁fi	-2990
alous	-2991
▁duty	-2992
▁rome	-2993
▁stom	-2994
▁swim	-2995
▁champ	-2996
▁claim	-2997
▁heads	-2998
▁spock	-2999
▁gordon	-3000
▁arrange	-3001
▁concern	-3002
▁england	-3003
▁meaning	-3004
▁apologize	-3005
▁breakfast	-3006
bur	-3007
ole	-3008
olf	-3009
oop	-3010
▁ur	-3011
▁tie	-3012
ement	-3013
iliar	-3014
itary	-3015
ument	-3016
▁rout	-3017
▁rule	-3018
▁runs	-3019
▁warm	-3020
▁weak	-3021
▁beach	-3022
▁pants	-3023
▁convin	-3024
▁dickie	-3025
▁flight	-3026
▁german	-3027
▁kenned	-3028
▁object	-3029
▁paying	-3030
▁repres	-3031
▁hanging	-3032
▁weekend	-3033
▁sweetheart	-3034
▁immediately	-3035
ees	-3036
let	-3037
inct	-3038
rate	-3039
▁arg	-3040
▁dry	-3041
▁log	-3042
▁dump	-3043
▁farm	-3044
▁rose	-3045
ending	-3046
▁advice	-3047
▁custom	-3048
▁itself	-3049
▁lately	-3050
▁psychi	-3051
▁pulled	-3052
▁surely	-3053
▁dropped	-3054
▁justice	-3055
phi	-3056
que	-3057
▁dy	-3058
▁lu	-3059
oned	-3060
▁bax	-3061
▁exe	-3062
▁mcc	-3063
▁mob	-3064
▁tit	-3065
iforn	-3066
uncey	-3067
▁bell	-3068
▁gift	-3069
▁leon	-3070
▁repe	-3071
▁sour	-3072
▁grant	-3073
▁scene	-3074
▁stars	-3075
eration	-3076
ifornia	-3077
▁baxter	-3078
▁famous	-3079
▁indian	-3080
▁chauncey	-3081
▁condition	-3082
▁california	-3083
▁themselves	-3084
▁bi	-3085
▁ang	-3086
▁haw	-3087
▁vul	-3088
itchen	-3089
▁energ	-3090
▁react	-3091
▁introd	-3092
▁played	-3093
▁spirit	-3094
▁kitchen	-3095
▁whoever	-3096
▁gardiner	-3097
eds	-3098
ancy	-3099
riff	-3100
▁bod	-3101
▁map	-3102
itude	-3103
▁comr	-3104
▁cous	-3105
▁insp	-3106
▁mars	-3107
▁shop	-3108
ishing	-3109
▁raise	-3110
▁vegas	-3111
▁author	-3112
▁career	-3113
▁closed	-3114
▁eating	-3115
▁settle	-3116
▁sooner	-3117
▁jealous	-3118
▁kennedy	-3119
▁familiar	-3120
▁emergency	-3121
▁gentleman	-3122
▁perfectly	-3123
▁conversation	-3124
par	-3125
ruct	-3126
sing	-3127
time	-3128
▁bow	-3129
▁due	-3130
▁rum	-3131
▁ski	-3132
otten	-3133
▁page	-3134
▁push	-3135
▁snow	-3136
ground	-3137
▁horri	-3138
▁scare	-3139
▁truly	-3140
▁learned	-3141
▁sheriff	-3142
▁goodnight	-3143
gar	-3144
oun	-3145
▁boo	-3146
▁nic	-3147
▁yep	-3148
antic	-3149
▁magn	-3150
▁vall	-3151
▁match	-3152
▁print	-3153
▁rough	-3154
▁origin	-3155
▁watched	-3156
▁responsible	-3157
ife	-3158
▁et	-3159
line	-3160
▁enc	-3161
▁han	-3162
▁lic	-3163
atest	-3164
vered	-3165
▁desk	-3166
▁dign	-3167
▁harm	-3168
▁hunt	-3169
▁turns	-3170
▁wound	-3171
▁enterp	-3172
▁horses	-3173
▁bringing	-3174
▁insurance	-3175
aper	-3176
▁lee	-3177
▁pun	-3178
ville	-3179
▁craw	-3180
▁fres	-3181
▁soft	-3182
▁shock	-3183
▁sixty	-3184
▁speed	-3185
▁battle	-3186
▁bigger	-3187
▁states	-3188
▁jeffrey	-3189
▁weapons	-3190
▁greatest	-3191
▁williams	-3192
osh	-3193
zart	-3194
▁bal	-3195
▁ban	-3196
▁rev	-3197
▁til	-3198
ances	-3199
board	-3200
orney	-3201
▁pink	-3202
▁rele	-3203
▁spot	-3204
▁activ	-3205
▁games	-3206
▁ident	-3207
▁older	-3208
▁sever	-3209
▁indeed	-3210
▁lookin	-3211
▁losing	-3212
▁mozart	-3213
▁talent	-3214
▁weight	-3215
▁complain	-3216
▁pressure	-3217
▁princess	-3218
▁responsib	-3219
icy	-3220
isf	-3221
rie	-3222
rog	-3223
rage	-3224
▁nur	-3225
eared	-3226
eline	-3227
inary	-3228
▁adam	-3229
▁bert	-3230
▁chat	-3231
icious	-3232
▁above	-3233
▁dirty	-3234
▁escape	-3235
▁taught	-3236
▁matters	-3237
▁monster	-3238
▁purpose	-3239
▁science	-3240
▁theater	-3241
▁national	-3242
▁committee	-3243
anca	-3244
▁cro	-3245
▁nap	-3246
fered	-3247
urday	-3248
velop	-3249
wards	-3250
▁dave	-3251
▁keys	-3252
▁scar	-3253
▁soci	-3254
icated	-3255
▁built	-3256
▁local	-3257
▁sales	-3258
▁trade	-3259
▁energy	-3260
▁expens	-3261
▁master	-3262
▁prefer	-3263
▁shower	-3264
▁thomas	-3265
▁congrat	-3266
▁stomach	-3267
▁attorney	-3268
▁decision	-3269
▁saturday	-3270
▁following	-3271
▁naturally	-3272
▁commission	-3273
▁enterprise	-3274
tor	-3275
uro	-3276
▁fan	-3277
▁bart	-3278
▁cole	-3279
▁legs	-3280
▁becom	-3281
▁stole	-3282
▁afford	-3283
▁excited	-3284
▁quickly	-3285
▁written	-3286
▁believed	-3287
els	-3288
cket	-3289
empt	-3290
ises	-3291
mber	-3292
▁dow	-3293
▁bond	-3294
▁comb	-3295
▁doug	-3296
▁mood	-3297
▁prov	-3298
▁thro	-3299
▁empty	-3300
▁jacqu	-3301
▁laura	-3302
ization	-3303
▁jacket	-3304
▁satisf	-3305
▁signal	-3306
▁shooting	-3307
ya	-3308
boy	-3309
ilty	-3310
▁hal	-3311
▁ver	-3312
ences	-3313
using	-3314
▁peel	-3315
▁tree	-3316
▁upon	-3317
▁wash	-3318
▁plant	-3319
▁bodies	-3320
▁guilty	-3321
▁shield	-3322
▁teacher	-3323
▁apparent	-3324
▁vacation	-3325
▁comfortable	-3326
ste	-3327
▁mut	-3328
▁non	-3329
▁var	-3330
▁lift	-3331
▁ruin	-3332
▁size	-3333
▁group	-3334
▁lines	-3335
▁plays	-3336
▁spoke	-3337
▁swell	-3338
▁teeth	-3339
▁poison	-3340
▁regular	-3341
▁represent	-3342
▁hig	-3343
▁obs	-3344
▁por	-3345
▁sky	-3346
▁mort	-3347
▁onto	-3348
▁vill	-3349
▁wire	-3350
▁comin	-3351
▁sally	-3352
▁accord	-3353
▁beauty	-3354
▁bright	-3355
▁garden	-3356
▁checked	-3357
▁creature	-3358
▁language	-3359
▁practice	-3360
▁everywhere	-3361
we	-3362
▁jen	-3363
hetic	-3364
▁carp	-3365
▁held	-3366
▁matt	-3367
▁pure	-3368
▁rese	-3369
▁sher	-3370
▁whom	-3371
perate	-3372
▁crowd	-3373
▁nurse	-3374
▁assign	-3375
▁driver	-3376
▁eleven	-3377
▁helped	-3378
▁myster	-3379
▁russia	-3380
▁showed	-3381
▁nowhere	-3382
▁request	-3383
▁necessary	-3384
ops	-3385
ased	-3386
ktor	-3387
mont	-3388
▁tun	-3389
ortun	-3390
▁brit	-3391
▁wast	-3392
▁danie	-3393
▁ideas	-3394
▁shoes	-3395
▁shows	-3396
▁spell	-3397
▁split	-3398
▁stink	-3399
▁breath	-3400
▁crying	-3401
▁dunbar	-3402
▁ladies	-3403
▁louise	-3404
▁theory	-3405
▁viktor	-3406
▁doctors	-3407
▁extreme	-3408
▁johnson	-3409
▁congress	-3410
▁opportun	-3411
▁disappear	-3412
▁jacqueline	-3413
za	-3414
ued	-3415
▁hm	-3416
aren	-3417
imate	-3418
▁trap	-3419
▁drove	-3420
▁freed	-3421
▁hated	-3422
▁large	-3423
▁stren	-3424
▁engine	-3425
▁goddam	-3426
▁madame	-3427
▁animals	-3428
▁concent	-3429
▁defense	-3430
▁divorce	-3431
▁helping	-3432
▁patrick	-3433
▁responsibility	-3434
▁yo	-3435
▁ali	-3436
▁cit	-3437
▁sus	-3438
▁tip	-3439
sieur	-3440
▁grab	-3441
▁lied	-3442
▁nigg	-3443
▁pump	-3444
▁ryan	-3445
▁scre	-3446
▁scri	-3447
fortun	-3448
▁aware	-3449
▁mommy	-3450
▁queen	-3451
▁threw	-3452
▁trail	-3453
▁cousin	-3454
▁damage	-3455
▁scient	-3456
▁confess	-3457
▁further	-3458
▁however	-3459
▁monsieur	-3460
▁pregnant	-3461
▁unfortun	-3462
▁interview	-3463
bit	-3464
ele	-3465
tes	-3466
▁ms	-3467
onde	-3468
▁fab	-3469
▁naw	-3470
▁bite	-3471
▁dise	-3472
▁pant	-3473
▁unif	-3474
▁citiz	-3475
▁emper	-3476
▁fresh	-3477
▁issue	-3478
▁magaz	-3479
▁magic	-3480
▁spare	-3481
▁staff	-3482
▁blonde	-3483
▁social	-3484
▁therap	-3485
▁united	-3486
▁appoint	-3487
▁century	-3488
▁frances	-3489
▁communic	-3490
▁expected	-3491
▁favorite	-3492
▁horrible	-3493
▁speaking	-3494
▁strength	-3495
▁disappoint	-3496
af	-3497
nam	-3498
▁cho	-3499
▁fac	-3500
▁kay	-3501
▁sna	-3502
eding	-3503
tered	-3504
▁liar	-3505
▁among	-3506
▁balls	-3507
▁mirac	-3508
▁pills	-3509
▁serve	-3510
▁total	-3511
ilities	-3512
▁became	-3513
▁bottle	-3514
▁descri	-3515
▁johnny	-3516
▁weapon	-3517
▁biggest	-3518
▁deserve	-3519
▁manager	-3520
▁midnight	-3521
▁apparently	-3522
▁federation	-3523
▁ku	-3524
rupt	-3525
▁ate	-3526
▁tex	-3527
istic	-3528
▁arms	-3529
▁copy	-3530
▁shir	-3531
isters	-3532
▁broad	-3533
▁files	-3534
▁jason	-3535
▁mitch	-3536
▁sport	-3537
▁desert	-3538
▁senate	-3539
▁writer	-3540
▁negative	-3541
▁positive	-3542
▁robinson	-3543
abl	-3544
lyn	-3545
ses	-3546
val	-3547
cise	-3548
▁tro	-3549
ality	-3550
ators	-3551
▁clay	-3552
▁coat	-3553
▁dogs	-3554
▁loud	-3555
▁thor	-3556
▁whoa	-3557
iation	-3558
▁cares	-3559
▁joint	-3560
▁medic	-3561
▁murde	-3562
▁opera	-3563
▁pearl	-3564
▁pilot	-3565
▁assume	-3566
▁awhile	-3567
▁hoping	-3568
▁howard	-3569
▁incred	-3570
▁connect	-3571
▁reasons	-3572
▁military	-3573
▁hollywood	-3574
aur	-3575
ffic	-3576
▁hoo	-3577
▁nar	-3578
erves	-3579
fleet	-3580
▁alar	-3581
▁iris	-3582
▁kirk	-3583
▁sees	-3584
▁tong	-3585
▁proof	-3586
▁includ	-3587
▁lights	-3588
▁pissed	-3589
▁valley	-3590
▁bedroom	-3591
▁changes	-3592
▁express	-3593
▁hearing	-3594
▁license	-3595
▁society	-3596
▁expecting	-3597
▁secretary	-3598
▁starfleet	-3599
▁understood	-3600
▁motherfucker	-3601
▁neighborhood	-3602
ym	-3603
ato	-3604
can	-3605
hers	-3606
iers	-3607
oard	-3608
▁jap	-3609
▁lam	-3610
▁beau	-3611
▁chem	-3612
▁fake	-3613
▁gray	-3614
▁impl	-3615
▁joey	-3616
▁youn	-3617
iction	-3618
▁barry	-3619
▁blank	-3620
▁brian	-3621
▁aboard	-3622
▁claude	-3623
▁clever	-3624
▁employ	-3625
▁sexual	-3626
▁emperor	-3627
▁marylin	-3628
▁picking	-3629
▁streets	-3630
▁criminal	-3631
▁sometime	-3632
cl	-3633
bley	-3634
▁deb	-3635
▁mos	-3636
ondon	-3637
▁eggs	-3638
▁elev	-3639
▁exam	-3640
▁pair	-3641
▁vide	-3642
▁alice	-3643
▁lemme	-3644
▁rooms	-3645
▁separ	-3646
▁sneak	-3647
▁london	-3648
▁nathan	-3649
▁throat	-3650
▁airport	-3651
▁attempt	-3652
▁product	-3653
▁sixteen	-3654
▁turning	-3655
▁univers	-3656
▁breaking	-3657
▁congratulations	-3658
ddy	-3659
ule	-3660
▁cup	-3661
▁gro	-3662
▁imm	-3663
asion	-3664
ledge	-3665
▁anne	-3666
▁blew	-3667
▁fund	-3668
▁heat	-3669
▁jean	-3670
▁grave	-3671
osition	-3672
▁choose	-3673
▁female	-3674
▁earlier	-3675
▁showing	-3676
▁suicide	-3677
▁experiment	-3678
▁professional	-3679
ica	-3680
bbie	-3681
lock	-3682
▁sue	-3683
ained	-3684
allow	-3685
arant	-3686
under	-3687
▁alvy	-3688
▁anna	-3689
▁cars	-3690
▁jose	-3691
▁rand	-3692
▁trad	-3693
▁brand	-3694
▁doors	-3695
▁marge	-3696
▁plain	-3697
▁stock	-3698
▁sword	-3699
▁usual	-3700
▁closer	-3701
▁drinks	-3702
▁parano	-3703
▁target	-3704
▁guarant	-3705
▁planning	-3706
ipp	-3707
lma	-3708
oyd	-3709
rom	-3710
urt	-3711
rill	-3712
▁dee	-3713
▁fer	-3714
▁ham	-3715
▁tab	-3716
house	-3717
usion	-3718
▁bare	-3719
▁burg	-3720
▁huge	-3721
▁josh	-3722
▁lisa	-3723
▁porn	-3724
▁wolf	-3725
▁brill	-3726
▁chest	-3727
▁lenny	-3728
▁serge	-3729
ruction	-3730
▁access	-3731
▁borrow	-3732
▁burned	-3733
▁camera	-3734
▁dignan	-3735
▁friday	-3736
▁leaves	-3737
▁slight	-3738
▁british	-3739
▁dressed	-3740
▁restaur	-3741
▁fourteen	-3742
▁frightened	-3743
▁opportunity	-3744
ki	-3745
vert	-3746
▁nut	-3747
▁pir	-3748
▁wil	-3749
iling	-3750
▁aunt	-3751
▁lula	-3752
▁milk	-3753
▁ours	-3754
father	-3755
▁negot	-3756
▁occur	-3757
▁smile	-3758
▁sugar	-3759
olution	-3760
ulation	-3761
▁buried	-3762
▁distur	-3763
▁pounds	-3764
▁deliver	-3765
▁freddie	-3766
▁several	-3767
▁soldier	-3768
▁charming	-3769
▁prepared	-3770
▁research	-3771
▁according	-3772
▁x	-3773
dia	-3774
lies	-3775
well	-3776
▁cad	-3777
▁kat	-3778
▁opt	-3779
▁pee	-3780
▁pha	-3781
▁rex	-3782
ender	-3783
ipped	-3784
isted	-3785
▁andy	-3786
▁hire	-3787
▁nail	-3788
▁shan	-3789
▁unus	-3790
ressed	-3791
▁awake	-3792
▁bones	-3793
▁dozen	-3794
▁mixed	-3795
▁paint	-3796
▁solid	-3797
▁nights	-3798
▁policy	-3799
▁comrade	-3800
▁foreign	-3801
▁sending	-3802
▁tickets	-3803
▁murderer	-3804
▁property	-3805
▁excellent	-3806
▁francisco	-3807
▁political	-3808
gen	-3809
cked	-3810
face	-3811
ford	-3812
iest	-3813
ural	-3814
▁cos	-3815
▁doe	-3816
▁inj	-3817
▁led	-3818
▁typ	-3819
izing	-3820
▁deny	-3821
▁disg	-3822
▁euro	-3823
▁horn	-3824
▁ital	-3825
▁meat	-3826
▁rate	-3827
▁whis	-3828
idered	-3829
▁afric	-3830
▁texas	-3831
▁boring	-3832
▁center	-3833
▁joseph	-3834
▁manage	-3835
▁market	-3836
▁monday	-3837
▁obsess	-3838
▁thelma	-3839
▁fortune	-3840
▁heading	-3841
▁terrific	-3842
▁thoughts	-3843
▁thousands	-3844
hy	-3845
itz	-3846
rel	-3847
▁ol	-3848
ades	-3849
ples	-3850
▁beam	-3851
▁diam	-3852
▁disp	-3853
▁scot	-3854
▁stat	-3855
▁sund	-3856
verage	-3857
▁cards	-3858
▁hates	-3859
▁legal	-3860
▁shark	-3861
itchell	-3862
▁eighty	-3863
▁europe	-3864
▁expert	-3865
▁opened	-3866
▁robert	-3867
▁switch	-3868
▁teleph	-3869
▁toward	-3870
▁dancing	-3871
▁freedom	-3872
▁thinkin	-3873
▁approach	-3874
▁carrying	-3875
▁followed	-3876
▁mitchell	-3877
▁sergeant	-3878
▁universe	-3879
▁brilliant	-3880
▁someplace	-3881
▁investigation	-3882
cul	-3883
for	-3884
down	-3885
▁oce	-3886
▁pra	-3887
hamed	-3888
stein	-3889
▁bour	-3890
▁prec	-3891
▁tail	-3892
▁craig	-3893
▁lloyd	-3894
▁negro	-3895
▁novel	-3896
▁susan	-3897
▁austin	-3898
▁babies	-3899
▁execut	-3900
▁likely	-3901
▁ashamed	-3902
▁falling	-3903
▁finding	-3904
▁extremely	-3905
▁downstairs	-3906
▁performance	-3907
lt	-3908
iac	-3909
kee	-3910
▁pi	-3911
ceed	-3912
essa	-3913
ites	-3914
rant	-3915
ship	-3916
▁ram	-3917
▁babe	-3918
▁garb	-3919
▁nons	-3920
▁seal	-3921
▁tall	-3922
▁falls	-3923
▁hired	-3924
▁homer	-3925
▁jones	-3926
▁mater	-3927
▁penny	-3928
▁shift	-3929
▁style	-3930
▁corner	-3931
▁easier	-3932
▁oughta	-3933
▁regret	-3934
▁result	-3935
▁rights	-3936
▁stayed	-3937
▁tellin	-3938
▁covered	-3939
▁develop	-3940
▁diamond	-3941
▁touched	-3942
▁unusual	-3943
▁nonsense	-3944
▁destroyed	-3945
▁attractive	-3946
▁connection	-3947
▁disappeared	-3948
bly	-3949
cle	-3950
ope	-3951
ires	-3952
vior	-3953
▁oil	-3954
▁shr	-3955
▁tat	-3956
anged	-3957
rison	-3958
▁brad	-3959
▁cult	-3960
▁dare	-3961
▁poet	-3962
▁tort	-3963
unders	-3964
▁actor	-3965
▁burns	-3966
▁illeg	-3967
▁japan	-3968
▁karen	-3969
▁stage	-3970
▁agency	-3971
▁busted	-3972
▁faster	-3973
▁yellow	-3974
▁allowed	-3975
▁burning	-3976
▁collect	-3977
▁frankly	-3978
▁ninotch	-3979
▁receive	-3980
▁attacked	-3981
▁confused	-3982
▁mentioned	-3983
cow	-3984
ips	-3985
rem	-3986
▁ep	-3987
▁na	-3988
ores	-3989
over	-3990
▁diz	-3991
▁desp	-3992
▁herr	-3993
▁liqu	-3994
▁mail	-3995
▁scan	-3996
▁stro	-3997
▁tast	-3998
▁tour	-3999
▁unha	-4000
▁banks	-4001
▁clown	-4002
▁fifth	-4003
▁finds	-4004
▁kidna	-4005
▁shame	-4006
▁slept	-4007
▁tapes	-4008
vention	-4009
▁betray	-4010
▁powers	-4011
▁repeat	-4012
▁screen	-4013
▁tunnel	-4014
▁depends	-4015
▁garbage	-4016
▁opening	-4017
▁ordered	-4018
▁eighteen	-4019
▁progress	-4020
▁saunders	-4021
▁confident	-4022
▁ninotchka	-4023
vi	-4024
oil	-4025
sty	-4026
ixon	-4027
othy	-4028
rake	-4029
ssel	-4030
▁fra	-4031
▁lim	-4032
▁pic	-4033
ached	-4034
ining	-4035
▁cele	-4036
▁dust	-4037
▁maid	-4038
▁unit	-4039
▁vick	-4040
▁cance	-4041
▁fella	-4042
▁fixed	-4043
▁grace	-4044
▁sarah	-4045
▁brains	-4046
▁cheese	-4047
▁flying	-4048
▁frozen	-4049
▁player	-4050
▁pocket	-4051
▁reserv	-4052
▁spring	-4053
▁tongue	-4054
▁transp	-4055
▁vessel	-4056
▁waited	-4057
▁letting	-4058
▁numbers	-4059
▁younger	-4060
▁continue	-4061
▁whenever	-4062
▁newspaper	-4063
▁restaurant	-4064
▁intelligence	-4065
pr	-4066
con	-4067
kins	-4068
road	-4069
uses	-4070
vard	-4071
ware	-4072
▁net	-4073
aking	-4074
ograp	-4075
▁dece	-4076
▁mask	-4077
▁grade	-4078
▁repor	-4079
▁roger	-4080
▁bottom	-4081
▁corpor	-4082
▁debbie	-4083
▁monkey	-4084
▁ordell	-4085
▁philos	-4086
▁pieces	-4087
▁recomm	-4088
▁hunting	-4089
▁process	-4090
▁section	-4091
▁distance	-4092
▁alexander	-4093
▁knowledge	-4094
▁considered	-4095
▁practically	-4096
cer	-4097
gie	-4098
▁cia	-4099
▁lun	-4100
▁ron	-4101
▁ears	-4102
▁evan	-4103
▁ment	-4104
▁mile	-4105
ursday	-4106
▁cabin	-4107
▁jesse	-4108
▁nixon	-4109
▁parts	-4110
▁sophi	-4111
▁bullet	-4112
▁invite	-4113
▁marcus	-4114
▁disease	-4115
▁pattern	-4116
▁pretend	-4117
▁uniform	-4118
▁physical	-4119
▁thursday	-4120
▁fantastic	-4121
▁permission	-4122
cil	-4123
sed	-4124
agon	-4125
lect	-4126
rett	-4127
▁jee	-4128
▁jul	-4129
▁wre	-4130
▁bure	-4131
▁conv	-4132
▁deck	-4133
▁duck	-4134
▁gear	-4135
▁junk	-4136
▁mere	-4137
▁odds	-4138
abitch	-4139
overed	-4140
▁gradu	-4141
▁range	-4142
▁theat	-4143
▁negoti	-4144
▁script	-4145
▁signed	-4146
▁sunday	-4147
▁winter	-4148
▁created	-4149
▁federal	-4150
▁offered	-4151
▁officers	-4152
▁painting	-4153
▁philosop	-4154
▁forgotten	-4155
▁statement	-4156
bot	-4157
kin	-4158
rad	-4159
athy	-4160
▁gay	-4161
▁pad	-4162
▁unl	-4163
▁yuh	-4164
stand	-4165
▁chip	-4166
▁eliz	-4167
▁loss	-4168
▁pers	-4169
▁stab	-4170
▁weir	-4171
▁alarm	-4172
▁grown	-4173
▁liber	-4174
▁moves	-4175
▁ninet	-4176
▁prior	-4177
▁stone	-4178
▁surge	-4179
▁swing	-4180
▁terms	-4181
ablanca	-4182
▁agreed	-4183
▁headed	-4184
▁answers	-4185
▁details	-4186
▁dorothy	-4187
▁quarter	-4188
▁sisters	-4189
▁incident	-4190
▁assistant	-4191
▁entertain	-4192
▁casablanca	-4193
▁confidence	-4194
▁appointment	-4195
ox	-4196
oci	-4197
back	-4198
gers	-4199
load	-4200
zing	-4201
▁ahh	-4202
▁bun	-4203
▁fal	-4204
▁chin	-4205
▁fran	-4206
▁hmmm	-4207
▁mole	-4208
▁path	-4209
▁shhh	-4210
▁twom	-4211
▁beast	-4212
▁fashi	-4213
▁genes	-4214
▁ocean	-4215
▁relig	-4216
▁sayin	-4217
▁sheld	-4218
▁storm	-4219
▁trunk	-4220
▁altern	-4221
▁celebr	-4222
▁create	-4223
▁decent	-4224
▁fucker	-4225
▁nightm	-4226
▁regard	-4227
▁stones	-4228
▁tricks	-4229
▁belongs	-4230
▁capable	-4231
▁reality	-4232
▁smoking	-4233
▁twombley	-4234
▁incredible	-4235
▁university	-4236
da	-4237
ga	-4238
bon	-4239
ols	-4240
▁ot	-4241
bbed	-4242
chan	-4243
cker	-4244
eday	-4245
▁unf	-4246
icate	-4247
▁dell	-4248
▁demo	-4249
▁gate	-4250
▁neut	-4251
▁pity	-4252
▁resc	-4253
▁sire	-4254
▁knees	-4255
▁knife	-4256
▁preys	-4257
▁reput	-4258
▁royal	-4259
▁score	-4260
▁sweat	-4261
▁trees	-4262
anation	-4263
▁commit	-4264
▁insult	-4265
▁moscow	-4266
▁clearly	-4267
▁dickson	-4268
▁journal	-4269
▁passing	-4270
▁someday	-4271
▁beaumont	-4272
▁behavior	-4273
▁entirely	-4274
▁powerful	-4275
▁wherever	-4276
▁cigarette	-4277
▁sensitive	-4278
▁cigarettes	-4279
▁eventually	-4280
▁explanation	-4281
ara	-4282
kel	-4283
lar	-4284
ota	-4285
rit	-4286
▁si	-4287
otic	-4288
▁hay	-4289
▁uns	-4290
abeth	-4291
aches	-4292
erved	-4293
▁bang	-4294
▁cart	-4295
▁dool	-4296
▁gosh	-4297
▁nurs	-4298
▁rail	-4299
itions	-4300
▁annie	-4301
▁autom	-4302
▁bound	-4303
▁climb	-4304
▁coinc	-4305
▁liter	-4306
▁model	-4307
▁naked	-4308
▁stake	-4309
▁associ	-4310
▁bureau	-4311
▁casino	-4312
▁studio	-4313
▁whatta	-4314
▁arrived	-4315
▁chances	-4316
▁charles	-4317
▁dealing	-4318
▁attitude	-4319
▁magazine	-4320
▁elizabeth	-4321
▁nightmare	-4322
▁operation	-4323
▁reasonable	-4324
▁particularly	-4325
▁ye	-4326
▁dea	-4327
▁dum	-4328
▁wis	-4329
ashed	-4330
ulate	-4331
▁cand	-4332
▁chap	-4333
▁dana	-4334
▁lies	-4335
▁roof	-4336
▁stol	-4337
▁toil	-4338
▁wick	-4339
▁wide	-4340
▁woke	-4341
ateful	-4342
▁artic	-4343
▁ended	-4344
▁mayor	-4345
▁sacri	-4346
▁sched	-4347
▁shape	-4348
▁sonof	-4349
▁assass	-4350
▁commer	-4351
▁grandm	-4352
▁harder	-4353
▁saving	-4354
▁season	-4355
▁silver	-4356
▁genesis	-4357
▁invited	-4358
▁italian	-4359
▁miracle	-4360
▁grateful	-4361
▁medicine	-4362
▁memories	-4363
▁partners	-4364
▁preysing	-4365
▁soldiers	-4366
▁spending	-4367
iod	-4368
irm	-4369
▁ko	-4370
fred	-4371
iami	-4372
iles	-4373
ints	-4374
llen	-4375
rand	-4376
ucle	-4377
▁joy	-4378
▁wet	-4379
ician	-4380
lling	-4381
▁acqu	-4382
▁dent	-4383
▁reed	-4384
▁slip	-4385
▁tues	-4386
▁vice	-4387
▁armed	-4388
▁bored	-4389
▁cases	-4390
▁image	-4391
▁miami	-4392
▁shirt	-4393
▁talks	-4394
▁title	-4395
▁wayne	-4396
▁castle	-4397
▁creasy	-4398
▁desire	-4399
▁easily	-4400
▁filled	-4401
▁nearly	-4402
▁psycho	-4403
▁smells	-4404
▁strike	-4405
▁willie	-4406
▁selling	-4407
▁skipper	-4408
▁tuesday	-4409
▁honestly	-4410
▁reputation	-4411
▁intelligent	-4412
▁understanding	-4413
ex	-4414
omp	-4415
oul	-4416
bles	-4417
gger	-4418
rove	-4419
▁pit	-4420
▁sed	-4421
▁sid	-4422
▁umm	-4423
worth	-4424
▁alth	-4425
▁cert	-4426
▁dies	-4427
▁dirt	-4428
▁fasc	-4429
▁gary	-4430
▁hust	-4431
▁mant	-4432
▁rare	-4433
▁rush	-4434
▁shad	-4435
▁vers	-4436
▁viet	-4437
▁cream	-4438
▁democ	-4439
▁paine	-4440
▁tooth	-4441
▁amount	-4442
▁demand	-4443
▁france	-4444
▁period	-4445
▁spread	-4446
▁flowers	-4447
▁illegal	-4448
▁pleased	-4449
▁secrets	-4450
▁shoulda	-4451
▁stephen	-4452
▁systems	-4453
▁trusted	-4454
▁although	-4455
▁governor	-4456
▁laughing	-4457
▁psychiat	-4458
▁romantic	-4459
▁salesman	-4460
▁doolittle	-4461
▁guarantee	-4462
▁introduce	-4463
▁compliment	-4464
▁sonofabitch	-4465
po	-4466
ago	-4467
ini	-4468
the	-4469
anie	-4470
eman	-4471
iece	-4472
nold	-4473
pley	-4474
rees	-4475
uced	-4476
▁rig	-4477
ially	-4478
ilies	-4479
▁jobs	-4480
▁punk	-4481
▁apple	-4482
▁avail	-4483
▁avoid	-4484
▁basic	-4485
▁coast	-4486
▁creep	-4487
▁nerve	-4488
▁scrat	-4489
▁spoil	-4490
▁admire	-4491
▁instit	-4492
▁ripley	-4493
▁robber	-4494
▁stolen	-4495
▁funeral	-4496
▁healthy	-4497
▁kissing	-4498
▁passion	-4499
▁vanessa	-4500
▁families	-4501
▁instance	-4502
▁expensive	-4503
▁collection	-4504
mos	-4505
vey	-4506
itty	-4507
oken	-4508
resp	-4509
▁loy	-4510
ching	-4511
▁chic	-4512
▁jury	-4513
▁kurt	-4514
▁mall	-4515
▁meal	-4516
▁pred	-4517
▁race	-4518
▁tits	-4519
atives	-4520
tering	-4521
uclear	-4522
▁based	-4523
▁chase	-4524
▁china	-4525
▁downt	-4526
▁ranch	-4527
▁sharp	-4528
ologist	-4529
▁affect	-4530
▁examin	-4531
▁forced	-4532
▁intend	-4533
▁intern	-4534
▁mirror	-4535
▁nation	-4536
▁vision	-4537
▁wallet	-4538
ological	-4539
▁cutting	-4540
▁glasses	-4541
▁therapy	-4542
▁paranoid	-4543
▁pleasant	-4544
▁shopping	-4545
▁sheldrake	-4546
▁possibility	-4547
▁underground	-4548
ffy	-4549
hew	-4550
ows	-4551
rid	-4552
rop	-4553
ugs	-4554
avik	-4555
ials	-4556
umst	-4557
▁ash	-4558
▁bot	-4559
▁bum	-4560
▁dim	-4561
▁lap	-4562
▁nig	-4563
▁wid	-4564
▁wig	-4565
arily	-4566
asure	-4567
cohol	-4568
▁anth	-4569
▁bail	-4570
▁bren	-4571
▁fart	-4572
▁jerk	-4573
▁rope	-4574
▁skip	-4575
angers	-4576
▁bless	-4577
▁humor	-4578
▁kinds	-4579
▁minds	-4580
▁ricky	-4581
▁signs	-4582
ception	-4583
▁border	-4584
▁junior	-4585
▁riding	-4586
▁saavik	-4587
▁thrill	-4588
▁alcohol	-4589
▁breathe	-4590
▁citizen	-4591
▁engaged	-4592
▁offense	-4593
▁pulling	-4594
▁replace	-4595
▁sweetie	-4596
▁testify	-4597
▁unhappy	-4598
▁downtown	-4599
▁nineteen	-4600
▁realized	-4601
▁available	-4602
▁including	-4603
▁radiation	-4604
▁photograph	-4605
sc	-4606
oma	-4607
▁dw	-4608
▁ou	-4609
aken	-4610
just	-4611
oved	-4612
▁aid	-4613
▁gor	-4614
▁vig	-4615
cient	-4616
istry	-4617
sters	-4618
▁barn	-4619
▁cage	-4620
▁cats	-4621
▁cher	-4622
▁gamb	-4623
▁loan	-4624
▁navy	-4625
▁stan	-4626
▁tank	-4627
▁vote	-4628
ential	-4629
essler	-4630
▁aband	-4631
▁brave	-4632
▁deeds	-4633
▁deter	-4634
▁ignor	-4635
▁loyal	-4636
▁lydia	-4637
▁madam	-4638
▁punch	-4639
▁suits	-4640
▁walls	-4641
▁africa	-4642
▁county	-4643
▁fought	-4644
▁nigger	-4645
▁remain	-4646
▁served	-4647
▁temper	-4648
▁vulcan	-4649
▁counsel	-4650
▁release	-4651
▁bastards	-4652
▁darkness	-4653
▁learning	-4654
▁millions	-4655
▁supplies	-4656
▁virginia	-4657
▁communist	-4658
▁community	-4659
▁desperate	-4660
gy	-4661
esh	-4662
lig	-4663
nat	-4664
zlo	-4665
▁ut	-4666
ulse	-4667
▁asp	-4668
▁gab	-4669
▁hyp	-4670
▁lif	-4671
ising	-4672
▁aven	-4673
▁boom	-4674
▁meth	-4675
▁qual	-4676
▁shaw	-4677
▁virt	-4678
▁blast	-4679
▁curse	-4680
▁demon	-4681
▁engin	-4682
▁indiv	-4683
▁motel	-4684
▁santa	-4685
▁thumb	-4686
▁hidden	-4687
▁invent	-4688
▁proced	-4689
▁promot	-4690
▁recall	-4691
▁remark	-4692
▁toilet	-4693
▁actress	-4694
▁knocked	-4695
▁village	-4696
▁becoming	-4697
▁circumst	-4698
▁friendly	-4699
▁hundreds	-4700
▁instinct	-4701
▁official	-4702
▁original	-4703
▁convinced	-4704
▁telephone	-4705
▁impression	-4706
den	-4707
llo	-4708
nin	-4709
oms	-4710
oud	-4711
▁tu	-4712
ders	-4713
hold	-4714
rael	-4715
vere	-4716
▁alb	-4717
▁dod	-4718
▁mau	-4719
agher	-4720
hered	-4721
itted	-4722
▁bags	-4723
▁ends	-4724
▁eter	-4725
▁fats	-4726
▁grew	-4727
▁guts	-4728
▁jung	-4729
▁serv	-4730
▁sexy	-4731
▁spar	-4732
▁stor	-4733
▁vent	-4734
▁warn	-4735
uments	-4736
▁patri	-4737
▁pussy	-4738
▁recon	-4739
▁steve	-4740
▁tower	-4741
▁warri	-4742
▁cather	-4743
▁kicked	-4744
▁princi	-4745
▁challen	-4746
▁foolish	-4747
▁individ	-4748
▁nuclear	-4749
▁argument	-4750
▁arranged	-4751
▁arrested	-4752
▁exciting	-4753
▁handsome	-4754
▁instruct	-4755
▁recently	-4756
▁emotional	-4757
▁gallagher	-4758
▁screaming	-4759
▁discovered	-4760
▁grandfather	-4761
ij	-4762
ari	-4763
azz	-4764
lan	-4765
book	-4766
case	-4767
iano	-4768
lled	-4769
tery	-4770
ties	-4771
▁arc	-4772
▁fag	-4773
▁lat	-4774
▁rag	-4775
▁ren	-4776
▁tag	-4777
aries	-4778
belik	-4779
ettes	-4780
rated	-4781
▁buff	-4782
▁gods	-4783
▁grav	-4784
▁neat	-4785
▁pent	-4786
▁thin	-4787
▁vien	-4788
▁benef	-4789
▁billy	-4790
▁chain	-4791
▁clark	-4792
▁drown	-4793
▁final	-4794
▁influ	-4795
▁loser	-4796
▁simon	-4797
▁sucks	-4798
▁thief	-4799
▁union	-4800
▁affair	-4801
▁barton	-4802
▁genius	-4803
▁loaded	-4804
▁member	-4805
▁santos	-4806
▁shrink	-4807
▁underw	-4808
▁whales	-4809
▁ancient	-4810
▁anthony	-4811
▁carpent	-4812
▁disgust	-4813
▁harvard	-4814
▁holiday	-4815
▁kubelik	-4816
▁melanie	-4817
▁popular	-4818
▁prepare	-4819
▁audience	-4820
▁baseball	-4821
▁checking	-4822
▁constant	-4823
▁politics	-4824
xy	-4825
arl	-4826
ila	-4827
imp	-4828
lls	-4829
ona	-4830
shi	-4831
etic	-4832
ousy	-4833
▁kim	-4834
▁naz	-4835
▁raw	-4836
▁rot	-4837
▁una	-4838
allas	-4839
ouses	-4840
▁appl	-4841
▁crus	-4842
▁edge	-4843
▁libr	-4844
▁male	-4845
▁outf	-4846
▁pigs	-4847
▁tent	-4848
▁term	-4849
▁assum	-4850
▁blown	-4851
▁bread	-4852
▁ellie	-4853
▁kills	-4854
▁marks	-4855
▁noise	-4856
▁shots	-4857
rington	-4858
▁berlin	-4859
▁dallas	-4860
▁dammit	-4861
▁engage	-4862
▁jackie	-4863
▁jungle	-4864
▁laszlo	-4865
▁rescue	-4866
▁resist	-4867
▁warren	-4868
▁fingers	-4869
▁traffic	-4870
▁warning	-4871
▁wasting	-4872
▁throwing	-4873
▁catherine	-4874
▁intention	-4875
▁convention	-4876
▁protecting	-4877
▁successful	-4878
▁coincidence	-4879
ez	-4880
ada	-4881
aya	-4882
gri	-4883
sch	-4884
hest	-4885
mond	-4886
▁hid	-4887
▁liz	-4888
▁mmm	-4889
▁oak	-4890
▁sem	-4891
▁slo	-4892
holes	-4893
▁core	-4894
▁educ	-4895
▁ganz	-4896
▁jeez	-4897
▁lack	-4898
▁sulu	-4899
▁symb	-4900
▁ward	-4901
▁below	-4902
▁bills	-4903
▁flesh	-4904
▁grady	-4905
▁kring	-4906
▁minor	-4907
▁mustn	-4908
▁nigga	-4909
▁prick	-4910
▁spill	-4911
▁stret	-4912
▁tests	-4913
▁experi	-4914
▁freeze	-4915
▁israel	-4916
▁marvel	-4917
▁miller	-4918
▁ruined	-4919
▁source	-4920
▁bullets	-4921
▁chicago	-4922
▁cleaned	-4923
▁contain	-4924
▁growing	-4925
▁lawyers	-4926
▁student	-4927
▁divorced	-4928
▁garrison	-4929
▁movement	-4930
▁authority	-4931
▁impressed	-4932
▁conference	-4933
▁complicated	-4934
▁confidential	-4935
rib	-4936
thy	-4937
rict	-4938
sion	-4939
tain	-4940
▁inn	-4941
▁pac	-4942
▁rod	-4943
▁ros	-4944
▁saf	-4945
▁sla	-4946
▁tay	-4947
▁tis	-4948
atory	-4949
bered	-4950
▁cuba	-4951
▁dime	-4952
▁diss	-4953
▁exer	-4954
▁init	-4955
▁inna	-4956
▁lake	-4957
▁laws	-4958
▁rabb	-4959
▁repl	-4960
▁sett	-4961
▁unre	-4962
▁badly	-4963
▁colon	-4964
▁edgar	-4965
▁equip	-4966
▁larry	-4967
▁lotta	-4968
▁shake	-4969
▁squee	-4970
▁stiff	-4971
▁tryin	-4972
▁whore	-4973
▁woods	-4974
ability	-4975
▁barely	-4976
▁boston	-4977
▁explos	-4978
▁failed	-4979
▁guests	-4980
▁insist	-4981
▁sector	-4982
▁spoken	-4983
▁average	-4984
▁capital	-4985
▁disturb	-4986
▁merrick	-4987
▁routine	-4988
▁staring	-4989
▁theatre	-4990
▁elevator	-4991
▁mountain	-4992
▁railroad	-4993
▁recommend	-4994
▁possession	-4995
▁protection	-4996
vo	-4997
aid	-4998
erk	-4999
ura	-5000
berg	-5001
burg	-5002
cing	-5003
wald	-5004
▁lip	-5005
▁zoo	-5006
elein	-5007
endid	-5008
inese	-5009
iving	-5010
mares	-5011
▁drum	-5012
▁iron	-5013
▁lila	-5014
▁mast	-5015
▁mmmm	-5016
▁nast	-5017
▁nest	-5018
▁pays	-5019
▁ruth	-5020
▁sore	-5021
▁vamp	-5022
▁warp	-5023
ashing	-5024
inting	-5025
▁argue	-5026
▁bache	-5027
▁bible	-5028
▁depos	-5029
▁eaten	-5030
▁finan	-5031
▁fruit	-5032
▁fully	-5033
▁glory	-5034
▁holes	-5035
▁lousy	-5036
▁panic	-5037
▁relie	-5038
▁scale	-5039
▁ships	-5040
▁value	-5041
▁video	-5042
▁walks	-5043
▁advant	-5044
▁batman	-5045
▁caused	-5046
▁conven	-5047
▁editor	-5048
▁farmer	-5049
▁freddy	-5050
▁jumped	-5051
▁mantan	-5052
▁points	-5053
▁reward	-5054
▁woulda	-5055
▁channel	-5056
▁courage	-5057
▁example	-5058
▁reports	-5059
▁shields	-5060
▁sounded	-5061
▁misunder	-5062
▁standard	-5063
▁terribly	-5064
▁wondered	-5065
▁worrying	-5066
▁bothering	-5067
▁continued	-5068
▁creatures	-5069
▁existence	-5070
▁seventeen	-5071
▁kringelein	-5072
▁nightmares	-5073
▁revolution	-5074
bby	-5075
ern	-5076
mar	-5077
mes	-5078
▁ii	-5079
ador	-5080
ares	-5081
omin	-5082
ping	-5083
quis	-5084
umbo	-5085
yard	-5086
▁alp	-5087
▁ast	-5088
▁cuz	-5089
▁eff	-5090
▁row	-5091
▁smo	-5092
▁unp	-5093
apers	-5094
iable	-5095
olate	-5096
ounce	-5097
ymour	-5098
▁appe	-5099
▁blah	-5100
▁coke	-5101
▁duke	-5102
▁link	-5103
▁narc	-5104
▁scen	-5105
▁symp	-5106
▁tied	-5107
▁tiny	-5108
▁wing	-5109
▁worm	-5110
uction	-5111
▁cents	-5112
▁cheer	-5113
▁chuck	-5114
▁false	-5115
▁flash	-5116
▁media	-5117
▁piano	-5118
▁tripp	-5119
▁adjust	-5120
▁button	-5121
▁buying	-5122
▁easter	-5123
▁fascin	-5124
▁grandp	-5125
▁intent	-5126
▁jersey	-5127
▁refuse	-5128
▁taylor	-5129
▁treves	-5130
▁depress	-5131
▁fishing	-5132
▁planned	-5133
▁precise	-5134
▁seymour	-5135
▁surface	-5136
▁swallow	-5137
▁victims	-5138
▁wanting	-5139
▁bleeding	-5140
▁changing	-5141
▁dreaming	-5142
▁pathetic	-5143
▁marvelous	-5144
com	-5145
har	-5146
oln	-5147
agne	-5148
ital	-5149
moon	-5150
omic	-5151
pson	-5152
race	-5153
sequ	-5154
town	-5155
▁bul	-5156
▁clo	-5157
▁env	-5158
▁nik	-5159
anoff	-5160
ansky	-5161
guard	-5162
imony	-5163
ittin	-5164
ublic	-5165
▁anti	-5166
▁bark	-5167
▁bars	-5168
▁bury	-5169
▁cake	-5170
▁fate	-5171
▁gain	-5172
▁kend	-5173
▁ruiz	-5174
▁salv	-5175
▁sink	-5176
▁tend	-5177
▁wade	-5178
▁boots	-5179
▁bride	-5180
▁conce	-5181
▁helen	-5182
▁jerry	-5183
▁kurtz	-5184
▁musta	-5185
▁nasty	-5186
▁spark	-5187
ication	-5188
▁alfred	-5189
▁brings	-5190
▁butter	-5191
▁cooper	-5192
▁exchan	-5193
▁graham	-5194
▁remote	-5195
▁resign	-5196
▁vienna	-5197
▁worker	-5198
▁chinese	-5199
▁current	-5200
▁degrees	-5201
▁failure	-5202
▁options	-5203
▁parties	-5204
▁privile	-5205
▁psychic	-5206
▁respond	-5207
▁screwed	-5208
▁electric	-5209
▁function	-5210
▁occurred	-5211
▁reaction	-5212
▁republic	-5213
▁schedule	-5214
▁waitress	-5215
▁equipment	-5216
▁honeymoon	-5217
▁mountains	-5218
▁suspicious	-5219
▁grandmother	-5220
oe	-5221
lle	-5222
zzo	-5223
ella	-5224
etch	-5225
gent	-5226
▁anx	-5227
▁mum	-5228
▁reb	-5229
▁tub	-5230
aring	-5231
uable	-5232
▁anal	-5233
▁clin	-5234
▁june	-5235
▁linc	-5236
▁lind	-5237
▁lucy	-5238
▁owns	-5239
▁papa	-5240
▁shel	-5241
▁soup	-5242
▁toss	-5243
▁trib	-5244
▁yard	-5245
ension	-5246
▁admin	-5247
▁dough	-5248
▁fancy	-5249
▁frequ	-5250
▁gabri	-5251
▁hurts	-5252
▁noble	-5253
▁occup	-5254
▁quote	-5255
▁refer	-5256
▁rifle	-5257
▁sandw	-5258
▁scary	-5259
▁surre	-5260
▁swana	-5261
▁wally	-5262
▁whist	-5263
▁ambass	-5264
▁artist	-5265
▁daniel	-5266
▁defend	-5267
▁garage	-5268
▁league	-5269
▁liquor	-5270
▁messed	-5271
▁palace	-5272
▁parker	-5273
▁safety	-5274
▁scotty	-5275
▁carried	-5276
▁charges	-5277
▁chasing	-5278
▁convict	-5279
▁destiny	-5280
▁lincoln	-5281
▁species	-5282
▁chemical	-5283
▁cleaning	-5284
▁location	-5285
▁precious	-5286
▁received	-5287
▁solution	-5288
▁stopping	-5289
▁carpenter	-5290
▁champagne	-5291
▁considering	-5292
▁unfortunate	-5293
ns	-5294
col	-5295
lus	-5296
mon	-5297
off	-5298
uva	-5299
elly	-5300
jack	-5301
kman	-5302
mate	-5303
mosp	-5304
nard	-5305
oret	-5306
outs	-5307
rial	-5308
wire	-5309
zech	-5310
▁emb	-5311
▁nam	-5312
▁que	-5313
▁sac	-5314
▁vag	-5315
▁vic	-5316
agger	-5317
anger	-5318
field	-5319
▁choc	-5320
▁cris	-5321
▁crit	-5322
▁epis	-5323
▁exit	-5324
▁firm	-5325
▁hung	-5326
▁pean	-5327
▁sack	-5328
erable	-5329
▁analy	-5330
▁cloud	-5331
▁deton	-5332
▁makin	-5333
▁motor	-5334
▁route	-5335
▁shhhh	-5336
▁squad	-5337
▁wreck	-5338
▁wrest	-5339
▁assure	-5340
▁atmosp	-5341
▁humili	-5342
▁lesson	-5343
▁marsha	-5344
▁retire	-5345
▁senior	-5346
▁unlike	-5347
▁counter	-5348
▁enemies	-5349
▁escaped	-5350
▁inspect	-5351
▁trigger	-5352
▁venkman	-5353
▁assigned	-5354
▁bachelor	-5355
▁directly	-5356
▁occasion	-5357
▁thorwald	-5358
▁threaten	-5359
▁direction	-5360
▁ambassador	-5361
▁reservation	-5362
oh	-5363
dra	-5364
gun	-5365
hia	-5366
ryl	-5367
aign	-5368
bird	-5369
ilar	-5370
otes	-5371
▁lyn	-5372
▁yup	-5373
idate	-5374
iring	-5375
stone	-5376
▁dope	-5377
▁flag	-5378
▁glor	-5379
▁juno	-5380
▁maya	-5381
▁milo	-5382
▁pier	-5383
▁pupp	-5384
▁teen	-5385
▁wand	-5386
▁adult	-5387
▁aside	-5388
▁brief	-5389
▁cheek	-5390
▁czech	-5391
▁drank	-5392
▁facts	-5393
▁lilly	-5394
▁maxie	-5395
▁mercy	-5396
▁stood	-5397
▁thick	-5398
▁compet	-5399
▁coulda	-5400
▁exists	-5401
▁fortun	-5402
▁golden	-5403
▁issues	-5404
▁nerves	-5405
▁prince	-5406
▁steady	-5407
▁struct	-5408
▁angeles	-5409
▁concept	-5410
▁daniels	-5411
▁helluva	-5412
▁mothers	-5413
▁mystery	-5414
▁storage	-5415
▁torture	-5416
▁channing	-5417
▁convince	-5418
▁material	-5419
▁patients	-5420
▁reporter	-5421
▁stealing	-5422
▁goddamnit	-5423
▁interests	-5424
▁tradition	-5425
▁excellency	-5426
▁newspapers	-5427
ena	-5428
irt	-5429
pes	-5430
aint	-5431
lers	-5432
pedo	-5433
play	-5434
rell	-5435
ysis	-5436
▁gig	-5437
▁mig	-5438
▁pud	-5439
▁tig	-5440
▁ult	-5441
eller	-5442
leton	-5443
▁bobo	-5444
▁cind	-5445
▁clue	-5446
▁dame	-5447
▁dawn	-5448
▁digg	-5449
▁golf	-5450
▁jane	-5451
▁lips	-5452
▁otis	-5453
▁pops	-5454
▁rage	-5455
▁rape	-5456
▁tatt	-5457
▁taxi	-5458
▁vern	-5459
omfort	-5460
▁alert	-5461
▁angel	-5462
▁brook	-5463
▁consp	-5464
▁crash	-5465
▁cruel	-5466
▁dealer	-5467
▁delive	-5468
▁depend	-5469
▁effort	-5470
▁escort	-5471
▁ghosts	-5472
▁joking	-5473
▁knight	-5474
▁leader	-5475
▁orange	-5476
▁series	-5477
▁spider	-5478
▁symbol	-5479
▁vernon	-5480
▁addison	-5481
▁awfully	-5482
▁journey	-5483
▁manners	-5484
▁porters	-5485
▁prevent	-5486
▁proceed	-5487
▁reminds	-5488
▁similar	-5489
▁torpedo	-5490
▁trained	-5491
▁windows	-5492
▁winning	-5493
▁campaign	-5494
▁delivery	-5495
▁football	-5496
▁goodness	-5497
▁splendid	-5498
▁americans	-5499
▁conscious	-5500
▁financial	-5501
▁influence	-5502
▁satisfied	-5503
▁technical	-5504
▁individual	-5505
▁disappointed	-5506
▁embarrassing	-5507
▁circumstances	-5508
eu	-5509
yl	-5510
aws	-5511
nis	-5512
adem	-5513
bble	-5514
ompl	-5515
plex	-5516
seum	-5517
▁aug	-5518
▁lit	-5519
▁pas	-5520
▁ped	-5521
▁sew	-5522
acher	-5523
riate	-5524
while	-5525
▁bein	-5526
▁conk	-5527
▁dism	-5528
▁mong	-5529
▁nort	-5530
▁soap	-5531
nesday	-5532
▁belly	-5533
▁candy	-5534
▁cliff	-5535
▁couch	-5536
▁disco	-5537
▁grail	-5538
▁hills	-5539
▁horiz	-5540
▁march	-5541
▁metal	-5542
▁oppos	-5543
▁spect	-5544
chester	-5545
itation	-5546
▁agents	-5547
▁arnold	-5548
▁avenue	-5549
▁bloody	-5550
▁degree	-5551
▁demons	-5552
▁highly	-5553
▁method	-5554
▁smooth	-5555
▁warned	-5556
▁comprom	-5557
▁delight	-5558
▁explore	-5559
▁hurting	-5560
▁neutral	-5561
▁provide	-5562
▁trapped	-5563
▁treated	-5564
▁victory	-5565
▁wallace	-5566
▁assholes	-5567
▁describe	-5568
▁ordinary	-5569
▁response	-5570
▁valuable	-5571
▁christian	-5572
▁customers	-5573
▁procedure	-5574
▁transport	-5575
▁wednesday	-5576
▁personality	-5577
▁unfortunately	-5578
kn	-5579
cra	-5580
edy	-5581
reg	-5582
ssa	-5583
▁ss	-5584
aroo	-5585
arte	-5586
elle	-5587
ghed	-5588
leaf	-5589
▁agg	-5590
▁eag	-5591
▁ess	-5592
▁ivy	-5593
▁les	-5594
▁oxy	-5595
hical	-5596
oting	-5597
▁achi	-5598
▁arth	-5599
▁asks	-5600
▁borg	-5601
▁budd	-5602
▁ease	-5603
▁gest	-5604
▁hald	-5605
▁joel	-5606
▁lion	-5607
▁mank	-5608
▁mayo	-5609
▁nano	-5610
▁pike	-5611
▁tons	-5612
▁wave	-5613
anzano	-5614
▁chess	-5615
▁films	-5616
▁frame	-5617
▁helps	-5618
▁jamie	-5619
▁kling	-5620
▁lover	-5621
▁photo	-5622
▁romul	-5623
▁sloan	-5624
▁tears	-5625
▁toler	-5626
▁bandit	-5627
▁commod	-5628
▁dating	-5629
▁events	-5630
▁fettes	-5631
▁forest	-5632
▁fourth	-5633
▁houses	-5634
▁legend	-5635
▁ninety	-5636
▁oxygen	-5637
▁singer	-5638
▁thrown	-5639
▁troops	-5640
▁waitin	-5641
▁becomes	-5642
▁central	-5643
▁chamber	-5644
▁colored	-5645
▁conduct	-5646
▁council	-5647
▁drawing	-5648
▁engines	-5649
▁fantasy	-5650
▁highway	-5651
▁retired	-5652
▁squeeze	-5653
▁believes	-5654
▁graduate	-5655
▁mistakes	-5656
▁separate	-5657
▁students	-5658
▁transfer	-5659
▁carefully	-5660
▁committed	-5661
▁corporate	-5662
▁maranzano	-5663
▁practical	-5664
▁testimony	-5665
▁threatened	-5666
▁concentrate	-5667
gr	-5668
ket	-5669
rif	-5670
urd	-5671
▁ni	-5672
away	-5673
fice	-5674
icks	-5675
imum	-5676
phan	-5677
▁dug	-5678
▁gut	-5679
▁spy	-5680
asing	-5681
ected	-5682
nthia	-5683
ously	-5684
▁anni	-5685
▁hits	-5686
▁knee	-5687
▁mont	-5688
▁outl	-5689
▁poem	-5690
▁pour	-5691
▁snap	-5692
▁yess	-5693
▁asses	-5694
▁bever	-5695
▁costs	-5696
▁helms	-5697
▁janet	-5698
▁labor	-5699
▁poker	-5700
▁sonny	-5701
▁stalk	-5702
▁stark	-5703
▁wives	-5704
▁anyhow	-5705
▁device	-5706
▁jewels	-5707
▁laughs	-5708
▁launch	-5709
▁outfit	-5710
▁secure	-5711
▁strict	-5712
▁sucker	-5713
▁consequ	-5714
▁cynthia	-5715
▁effects	-5716
▁granted	-5717
▁kendall	-5718
▁library	-5719
▁parking	-5720
▁plastic	-5721
▁pudding	-5722
▁setting	-5723
▁singing	-5724
▁surgeon	-5725
▁yelling	-5726
▁headache	-5727
▁surround	-5728
▁taransky	-5729
▁touching	-5730
omfortable	-5731
▁chocolate	-5732
▁slightest	-5733
▁suffering	-5734
▁embarrassed	-5735
▁uncomfortable	-5736
bid	-5737
dom	-5738
mat	-5739
uri	-5740
▁au	-5741
▁vo	-5742
farl	-5743
iere	-5744
oted	-5745
▁fry	-5746
▁kal	-5747
▁lew	-5748
▁poo	-5749
▁sup	-5750
▁tha	-5751
anced	-5752
belie	-5753
otted	-5754
▁bald	-5755
▁belt	-5756
▁carr	-5757
▁chew	-5758
▁cobb	-5759
▁cure	-5760
▁dean	-5761
▁dish	-5762
▁doub	-5763
▁furn	-5764
▁goof	-5765
▁kidd	-5766
▁lect	-5767
▁neil	-5768
▁prem	-5769
▁puff	-5770
▁seek	-5771
nesota	-5772
▁abort	-5773
▁anger	-5774
▁began	-5775
▁burgl	-5776
▁disci	-5777
▁doyle	-5778
▁forth	-5779
▁lifet	-5780
▁needn	-5781
▁notes	-5782
▁pride	-5783
▁reven	-5784
▁skill	-5785
▁trace	-5786
farlane	-5787
▁academ	-5788
▁belief	-5789
▁cancel	-5790
▁cowboy	-5791
▁fellas	-5792
▁height	-5793
▁loving	-5794
▁meters	-5795
▁pirate	-5796
▁priest	-5797
▁serial	-5798
▁sheets	-5799
▁treaty	-5800
▁wigand	-5801
▁ability	-5802
▁beverly	-5803
▁complex	-5804
▁conspir	-5805
▁robbery	-5806
▁scratch	-5807
▁basement	-5808
▁champion	-5809
▁designed	-5810
▁freezing	-5811
▁koessler	-5812
▁specific	-5813
▁stronger	-5814
▁interrupt	-5815
▁minnesota	-5816
▁miserable	-5817
▁policeman	-5818
▁macfarlane	-5819
▁imagination	-5820
▁psychiatrist	-5821
adel	-5822
erie	-5823
rier	-5824
sive	-5825
ucky	-5826
viet	-5827
▁cru	-5828
▁flu	-5829
▁jet	-5830
▁lut	-5831
▁mey	-5832
▁shu	-5833
▁spr	-5834
▁suc	-5835
▁wad	-5836
acity	-5837
force	-5838
▁beef	-5839
▁bend	-5840
▁bene	-5841
▁clar	-5842
▁fuel	-5843
▁haul	-5844
▁hers	-5845
▁jess	-5846
▁leak	-5847
▁lets	-5848
▁lily	-5849
▁plat	-5850
▁rise	-5851
▁sale	-5852
▁spin	-5853
▁zack	-5854
▁alien	-5855
▁alpha	-5856
▁argon	-5857
▁charm	-5858
▁dylan	-5859
▁giant	-5860
▁hitch	-5861
▁krist	-5862
▁sandy	-5863
▁satan	-5864
▁steak	-5865
▁teleg	-5866
▁tempt	-5867
▁approp	-5868
▁arthur	-5869
▁barbar	-5870
▁cherry	-5871
▁chicks	-5872
▁compan	-5873
▁coward	-5874
▁firing	-5875
▁maniac	-5876
▁mighty	-5877
▁peanut	-5878
▁produc	-5879
▁restra	-5880
▁soviet	-5881
▁strugg	-5882
▁tempor	-5883
ications	-5884
▁accompl	-5885
▁crossed	-5886
▁fashion	-5887
▁horizon	-5888
▁impulse	-5889
▁johnnie	-5890
▁killers	-5891
▁leading	-5892
▁liberty	-5893
▁related	-5894
▁slipped	-5895
▁vietnam	-5896
▁violent	-5897
istration	-5898
▁distract	-5899
▁expenses	-5900
▁japanese	-5901
▁listened	-5902
▁preacher	-5903
▁prisoner	-5904
▁breathing	-5905
▁surrender	-5906
▁witnesses	-5907
▁profession	-5908
▁remembered	-5909
▁complaining	-5910
hr	-5911
ays	-5912
xim	-5913
▁kr	-5914
aker	-5915
colm	-5916
esar	-5917
gate	-5918
ival	-5919
llie	-5920
quar	-5921
rary	-5922
sect	-5923
▁atl	-5924
▁ded	-5925
▁fog	-5926
▁hou	-5927
▁mam	-5928
▁web	-5929
aming	-5930
ansas	-5931
eless	-5932
iator	-5933
icorn	-5934
oleon	-5935
osity	-5936
ucker	-5937
▁atta	-5938
▁bate	-5939
▁bone	-5940
▁boot	-5941
▁entr	-5942
▁fink	-5943
▁folk	-5944
▁gene	-5945
▁hump	-5946
▁luke	-5947
▁pist	-5948
▁puke	-5949
▁purs	-5950
▁barra	-5951
▁beats	-5952
▁coupl	-5953
▁danny	-5954
▁holds	-5955
▁ideal	-5956
▁impro	-5957
▁irish	-5958
▁jewel	-5959
▁jokes	-5960
▁kevin	-5961
▁suite	-5962
▁teddy	-5963
▁widow	-5964
▁witch	-5965
▁begins	-5966
▁bourne	-5967
▁caesar	-5968
▁conway	-5969
▁darryl	-5970
▁donnie	-5971
▁hearts	-5972
▁locate	-5973
▁lowell	-5974
▁merely	-5975
▁slowly	-5976
▁struck	-5977
▁turkey	-5978
▁urgent	-5979
▁bateman	-5980
▁buddies	-5981
▁highest	-5982
▁lunatic	-5983
▁malcolm	-5984
▁marquis	-5985
▁members	-5986
▁settled	-5987
▁shangri	-5988
▁shotgun	-5989
▁shuttle	-5990
▁version	-5991
▁bertrand	-5992
▁buckaroo	-5993
▁crawling	-5994
▁exchange	-5995
▁haldeman	-5996
▁magnific	-5997
▁napoleon	-5998
▁quarters	-5999
▁readings	-6000
▁sentence	-6001
▁treasure	-6002
▁advantage	-6003
▁attracted	-6004
▁precisely	-6005
▁therefore	-6006
▁afterwards	-6007
▁appearance	-6008
▁manchester	-6009
▁communications	-6010
bac	-6011
hel	-6012
iar	-6013
kov	-6014
uum	-6015
anky	-6016
hern	-6017
itar	-6018
resa	-6019
walk	-6020
▁mug	-6021
▁nun	-6022
▁rip	-6023
ordin	-6024
ppers	-6025
ronic	-6026
vable	-6027
▁ford	-6028
▁noon	-6029
▁owen	-6030
▁reck	-6031
▁tony	-6032
▁visa	-6033
iments	-6034
isible	-6035
▁anest	-6036
▁askin	-6037
▁eagle	-6038
▁faced	-6039
▁grass	-6040
▁jenny	-6041
▁leads	-6042
▁lower	-6043
▁rapid	-6044
▁rings	-6045
▁rocks	-6046
▁scout	-6047
▁tiger	-6048
▁vehic	-6049
natural	-6050
▁advent	-6051
▁advise	-6052
▁august	-6053
▁circus	-6054
▁collar	-6055
▁cubans	-6056
▁gamble	-6057
▁ignore	-6058
▁limits	-6059
▁picard	-6060
▁rotten	-6061
▁rubber	-6062
▁sacred	-6063
▁teresa	-6064
▁article	-6065
▁beating	-6066
▁closing	-6067
▁concert	-6068
▁conklin	-6069
▁dreamed	-6070
▁episode	-6071
▁heavens	-6072
▁hostage	-6073
▁managed	-6074
▁reached	-6075
▁twisted	-6076
▁highness	-6077
▁meantime	-6078
▁obsessed	-6079
▁shoulder	-6080
▁delivered	-6081
▁generally	-6082
▁goddammit	-6083
▁promotion	-6084
▁sacrifice	-6085
▁signature	-6086
▁atmosphere	-6087
▁disgusting	-6088
▁friendship	-6089
▁technology	-6090
▁photographs	-6091
▁arrangements	-6092
▁instructions	-6093
▁transmission	-6094
old	-6095
sit	-6096
anda	-6097
ivin	-6098
phia	-6099
roit	-6100
roll	-6101
▁cem	-6102
▁cly	-6103
▁glo	-6104
▁hug	-6105
▁laz	-6106
▁mud	-6107
▁scr	-6108
▁sym	-6109
elope	-6110
haust	-6111
▁adop	-6112
▁bugs	-6113
▁bump	-6114
▁buzz	-6115
▁defe	-6116
▁dull	-6117
▁fare	-6118
▁gram	-6119
▁hamb	-6120
▁kent	-6121
▁merc	-6122
▁oooo	-6123
▁prim	-6124
▁puts	-6125
▁schu	-6126
▁synd	-6127
▁ther	-6128
▁wore	-6129
▁drill	-6130
▁encou	-6131
▁faces	-6132
▁fever	-6133
▁givin	-6134
▁guide	-6135
▁hoped	-6136
▁juice	-6137
▁oblig	-6138
▁plumb	-6139
▁saint	-6140
▁sides	-6141
▁sorta	-6142
▁stays	-6143
▁absurd	-6144
▁active	-6145
▁bitter	-6146
▁castro	-6147
▁cookie	-6148
▁earned	-6149
▁fantas	-6150
▁feelin	-6151
▁hallow	-6152
▁levels	-6153
▁locker	-6154
▁mechan	-6155
▁neighb	-6156
▁precog	-6157
▁rabbit	-6158
▁remove	-6159
▁review	-6160
▁ripped	-6161
▁satell	-6162
▁shadow	-6163
▁stinks	-6164
▁supply	-6165
▁termin	-6166
▁wilder	-6167
▁yessir	-6168
adelphia	-6169
▁classes	-6170
▁detroit	-6171
▁exhaust	-6172
▁figures	-6173
▁heather	-6174
▁indians	-6175
▁instant	-6176
▁lessons	-6177
▁logical	-6178
▁mueller	-6179
▁revenge	-6180
▁trailer	-6181
▁whatcha	-6182
▁worries	-6183
▁brooklyn	-6184
▁exercise	-6185
▁fabulous	-6186
▁internal	-6187
▁machines	-6188
▁starving	-6189
▁suitcase	-6190
▁survived	-6191
▁teaching	-6192
▁thirteen	-6193
▁weakness	-6194
▁goddamned	-6195
▁invisible	-6196
▁personnel	-6197
▁structure	-6198
▁watergate	-6199
▁background	-6200
▁harrington	-6201
▁introduced	-6202
▁philadelphia	-6203
cho	-6204
don	-6205
eve	-6206
gir	-6207
ita	-6208
zer	-6209
▁aa	-6210
▁oz	-6211
ello	-6212
iety	-6213
llor	-6214
stic	-6215
uary	-6216
yler	-6217
▁ape	-6218
▁gum	-6219
▁sav	-6220
angle	-6221
bacco	-6222
birds	-6223
ckets	-6224
enced	-6225
icing	-6226
leans	-6227
lines	-6228
stern	-6229
umber	-6230
▁decl	-6231
▁deer	-6232
▁gree	-6233
▁hack	-6234
▁hank	-6235
▁jord	-6236
▁mate	-6237
▁plug	-6238
▁rear	-6239
▁redi	-6240
▁role	-6241
▁rude	-6242
▁span	-6243
▁subs	-6244
▁swed	-6245
▁uses	-6246
▁walt	-6247
▁wars	-6248
▁writ	-6249
endent	-6250
ifying	-6251
keeper	-6252
▁chang	-6253
▁clyde	-6254
▁deput	-6255
▁diary	-6256
▁ellen	-6257
▁envir	-6258
▁parad	-6259
▁penis	-6260
▁snuff	-6261
▁strip	-6262
▁chekov	-6263
▁compos	-6264
▁crisis	-6265
▁finest	-6266
▁former	-6267
▁indust	-6268
▁joined	-6269
▁laying	-6270
▁profit	-6271
▁repair	-6272
▁severe	-6273
▁stroke	-6274
▁unique	-6275
▁useful	-6276
▁violin	-6277
▁waiter	-6278
▁anytime	-6279
▁cleaner	-6280
▁closest	-6281
▁deposit	-6282
▁digging	-6283
▁orleans	-6284
▁pacific	-6285
▁pushing	-6286
▁stretch	-6287
▁tobacco	-6288
▁analysis	-6289
▁bothered	-6290
▁informed	-6291
▁invented	-6292
▁marrying	-6293
▁minister	-6294
▁opposite	-6295
▁patience	-6296
▁penelope	-6297
▁presence	-6298
▁schuyler	-6299
▁telegram	-6300
▁buildings	-6301
▁cooperate	-6302
▁discussed	-6303
▁executive	-6304
▁treatment	-6305
▁destruction	-6306
▁proposition	-6307
gic	-6308
got	-6309
ids	-6310
isy	-6311
▁ja	-6312
bing	-6313
chie	-6314
gery	-6315
nett	-6316
odes	-6317
rats	-6318
wall	-6319
▁bio	-6320
▁fri	-6321
▁kit	-6322
▁raz	-6323
▁rey	-6324
▁seg	-6325
▁wes	-6326
aging	-6327
isher	-6328
▁bron	-6329
▁brut	-6330
▁cott	-6331
▁dipl	-6332
▁fits	-6333
▁flew	-6334
▁greg	-6335
▁hull	-6336
▁indy	-6337
▁pige	-6338
▁tale	-6339
▁tram	-6340
orable	-6341
▁angle	-6342
▁cable	-6343
▁cheat	-6344
▁colum	-6345
▁crawl	-6346
▁fleet	-6347
▁flood	-6348
▁fried	-6349
▁habit	-6350
▁hairy	-6351
▁incre	-6352
▁moral	-6353
▁orbit	-6354
▁schul	-6355
▁steel	-6356
▁straw	-6357
▁telly	-6358
▁toddy	-6359
▁blocks	-6360
▁childs	-6361
▁closet	-6362
▁combat	-6363
▁confir	-6364
▁coupla	-6365
▁creeps	-6366
▁damone	-6367
▁deputy	-6368
▁ending	-6369
▁forces	-6370
▁guards	-6371
▁higher	-6372
▁hoover	-6373
▁infect	-6374
▁marvin	-6375
▁massey	-6376
▁mental	-6377
▁mollie	-6378
▁museum	-6379
▁parole	-6380
▁passen	-6381
▁perman	-6382
▁permit	-6383
▁poetry	-6384
▁propos	-6385
▁reject	-6386
▁sealed	-6387
▁speaks	-6388
▁stands	-6389
▁thrust	-6390
▁venice	-6391
ographer	-6392
onscious	-6393
standing	-6394
▁appears	-6395
▁balance	-6396
▁benefit	-6397
▁brenner	-6398
▁charged	-6399
▁demonst	-6400
▁grandpa	-6401
▁gravity	-6402
▁package	-6403
▁profile	-6404
▁steward	-6405
▁wounded	-6406
▁contrary	-6407
▁document	-6408
▁lifetime	-6409
▁bodyguard	-6410
▁happiness	-6411
▁neighbors	-6412
▁potential	-6413
▁compromise	-6414
▁scientists	-6415
▁magnificent	-6416
omy	-6417
put	-6418
zed	-6419
▁ax	-6420
▁nu	-6421
avis	-6422
hips	-6423
mark	-6424
nity	-6425
oked	-6426
rian	-6427
▁aim	-6428
▁der	-6429
▁gag	-6430
▁gib	-6431
▁jon	-6432
▁lon	-6433
▁pip	-6434
bbing	-6435
geous	-6436
uries	-6437
▁bund	-6438
▁dict	-6439
▁exec	-6440
▁fond	-6441
▁lame	-6442
▁noir	-6443
▁ruby	-6444
▁sout	-6445
▁sway	-6446
▁weal	-6447
▁zone	-6448
prints	-6449
▁annoy	-6450
▁badge	-6451
▁boxes	-6452
▁carol	-6453
▁chris	-6454
▁cigar	-6455
▁clubs	-6456
▁dodge	-6457
▁flies	-6458
▁focus	-6459
▁gross	-6460
▁havin	-6461
▁lewis	-6462
▁limit	-6463
▁marie	-6464
▁orson	-6465
▁outer	-6466
▁quaid	-6467
▁raped	-6468
▁solve	-6469
▁stall	-6470
▁steps	-6471
▁sting	-6472
▁werew	-6473
▁youth	-6474
▁appeal	-6475
▁attend	-6476
▁becker	-6477
▁birdie	-6478
▁budget	-6479
▁clinic	-6480
▁darlin	-6481
▁estate	-6482
▁flower	-6483
▁gather	-6484
▁hammer	-6485
▁jordan	-6486
▁lauren	-6487
▁marion	-6488
▁option	-6489
▁pushed	-6490
▁robbed	-6491
▁scotch	-6492
▁stairs	-6493
▁sympat	-6494
▁workin	-6495
quarters	-6496
▁academy	-6497
▁amusing	-6498
▁clients	-6499
▁contest	-6500
▁grandma	-6501
▁lynette	-6502
▁nanobot	-6503
▁remains	-6504
▁spirits	-6505
▁unbelie	-6506
▁unicorn	-6507
▁useless	-6508
▁warrior	-6509
▁audition	-6510
▁betrayed	-6511
▁determin	-6512
▁diamonds	-6513
▁enjoying	-6514
▁fortress	-6515
▁gorgeous	-6516
▁hopeless	-6517
▁identify	-6518
▁meetings	-6519
▁panthers	-6520
▁religion	-6521
▁counselor	-6522
▁exception	-6523
▁halloween	-6524
▁prisoners	-6525
▁privilege	-6526
▁sentiment	-6527
▁traveling	-6528
▁underwear	-6529
▁commercial	-6530
▁detectives	-6531
▁programmed	-6532
▁fascinating	-6533
▁threatening	-6534
▁civilization	-6535
▁construction	-6536
▁headquarters	-6537
ev	-6538
iro	-6539
nah	-6540
phy	-6541
ril	-6542
udy	-6543
ases	-6544
iddy	-6545
ippi	-6546
orms	-6547
stit	-6548
▁dew	-6549
▁kil	-6550
▁kra	-6551
▁oct	-6552
▁pup	-6553
▁suz	-6554
eered	-6555
iance	-6556
iding	-6557
ishop	-6558
▁beth	-6559
▁coup	-6560
▁emma	-6561
▁hawk	-6562
▁hint	-6563
▁inch	-6564
▁judy	-6565
▁mace	-6566
▁mack	-6567
▁melt	-6568
▁oath	-6569
▁palm	-6570
▁phas	-6571
▁tops	-6572
▁trem	-6573
▁worf	-6574
ulated	-6575
▁begun	-6576
▁bleed	-6577
▁cripp	-6578
▁daily	-6579
▁delay	-6580
▁fence	-6581
▁intim	-6582
▁kings	-6583
▁label	-6584
▁plate	-6585
▁prosp	-6586
▁spook	-6587
ography	-6588
versary	-6589
▁beside	-6590
▁callin	-6591
▁cotton	-6592
▁daught	-6593
▁donald	-6594
▁doubts	-6595
▁dumped	-6596
▁filthy	-6597
▁hannah	-6598
▁length	-6599
▁manual	-6600
▁schulz	-6601
▁stream	-6602
▁stress	-6603
▁suffer	-6604
▁tables	-6605
▁winner	-6606
▁worlds	-6607
ordinary	-6608
▁advance	-6609
▁apology	-6610
▁begging	-6611
▁busting	-6612
▁contrib	-6613
▁costume	-6614
▁enforce	-6615
▁entered	-6616
▁environ	-6617
▁germans	-6618
▁hostile	-6619
▁houston	-6620
▁jumping	-6621
▁landing	-6622
▁leaders	-6623
▁refused	-6624
▁warrant	-6625
▁winston	-6626
ification	-6627
▁dropping	-6628
▁vampires	-6629
▁violence	-6630
▁abandoned	-6631
▁adventure	-6632
▁agreement	-6633
▁challenge	-6634
▁daughters	-6635
▁inspector	-6636
▁institute	-6637
▁kidnapped	-6638
▁religious	-6639
▁worthless	-6640
▁chancellor	-6641
▁impressive	-6642
▁stewardess	-6643
▁suggestion	-6644
▁understudy	-6645
▁alternative	-6646
▁organization	-6647
▁extraordinary	-6648
▁possibilities	-6649
lv	-6650
bag	-6651
fly	-6652
fun	-6653
tan	-6654
win	-6655
▁fu	-6656
▁il	-6657
born	-6658
ckey	-6659
gage	-6660
icip	-6661
oise	-6662
olic	-6663
ower	-6664
tail	-6665
udes	-6666
uous	-6667
vell	-6668
▁bee	-6669
▁cbs	-6670
▁ced	-6671
▁toy	-6672
▁vou	-6673
ament	-6674
illac	-6675
iture	-6676
mouth	-6677
neath	-6678
▁barg	-6679
▁brun	-6680
▁choo	-6681
▁fame	-6682
▁helm	-6683
▁nove	-6684
▁ouch	-6685
▁owes	-6686
▁perp	-6687
▁pole	-6688
▁rehe	-6689
▁reve	-6690
▁rudy	-6691
▁scal	-6692
▁sche	-6693
▁scra	-6694
▁sequ	-6695
▁toug	-6696
antine	-6697
encies	-6698
ensive	-6699
hitect	-6700
▁adele	-6701
▁album	-6702
▁armor	-6703
▁bluff	-6704
▁bunny	-6705
▁cells	-6706
▁cerem	-6707
▁fucks	-6708
▁hears	-6709
▁indep	-6710
▁instr	-6711
▁nicky	-6712
▁owner	-6713
▁seats	-6714
▁shout	-6715
▁slave	-6716
▁traum	-6717
▁twist	-6718
▁vicki	-6719
issippi	-6720
▁apples	-6721
▁audrey	-6722
▁cancer	-6723
▁checks	-6724
▁claire	-6725
▁corrid	-6726
▁covers	-6727
▁deeper	-6728
▁empire	-6729
▁fallen	-6730
▁horror	-6731
▁hustle	-6732
▁justin	-6733
▁luther	-6734
▁nurses	-6735
▁parked	-6736
▁photos	-6737
▁placed	-6738
▁raised	-6739
▁shakes	-6740
▁sheila	-6741
▁shitty	-6742
▁signor	-6743
▁strate	-6744
▁transl	-6745
▁travis	-6746
▁trucks	-6747
▁waters	-6748
cription	-6749
▁affairs	-6750
▁assault	-6751
▁beneath	-6752
▁cemeter	-6753
▁compass	-6754
▁factory	-6755
▁happier	-6756
▁helpful	-6757
▁honored	-6758
▁laughed	-6759
▁murders	-6760
▁results	-6761
▁seventh	-6762
▁cadillac	-6763
▁capacity	-6764
▁citizens	-6765
▁deserves	-6766
▁dressing	-6767
▁maintain	-6768
▁missiles	-6769
▁mistaken	-6770
▁november	-6771
▁visiting	-6772
▁architect	-6773
▁basically	-6774
▁publicity	-6775
▁reception	-6776
▁activities	-6777
▁confession	-6778
▁conspiracy	-6779
▁mysterious	-6780
▁underneath	-6781
▁williamson	-6782
▁appropriate	-6783
▁mississippi	-6784
▁understands	-6785
▁consequences	-6786
uf	-6787
ado	-6788
gel	-6789
lah	-6790
oni	-6791
ora	-6792
pot	-6793
rol	-6794
sec	-6795
tim	-6796
ulf	-6797
agen	-6798
chen	-6799
idal	-6800
iled	-6801
insk	-6802
phin	-6803
riss	-6804
rome	-6805
what	-6806
▁abd	-6807
▁ath	-6808
▁daw	-6809
▁eld	-6810
▁pau	-6811
▁rek	-6812
▁tee	-6813
▁wra	-6814
asant	-6815
grove	-6816
iency	-6817
ovich	-6818
ratic	-6819
▁bent	-6820
▁cave	-6821
▁diet	-6822
▁dill	-6823
▁echo	-6824
▁econ	-6825
▁erik	-6826
▁guin	-6827
▁huey	-6828
▁pals	-6829
▁quad	-6830
▁salt	-6831
▁sara	-6832
▁sess	-6833
▁silk	-6834
▁tact	-6835
▁thou	-6836
▁tips	-6837
action	-6838
culiar	-6839
ulsive	-6840
▁alley	-6841
▁apply	-6842
▁booze	-6843
▁hound	-6844
▁italy	-6845
▁jacob	-6846
▁laund	-6847
▁lemon	-6848
▁locks	-6849
▁pengu	-6850
▁phony	-6851
▁prize	-6852
▁radar	-6853
▁smash	-6854
▁snake	-6855
▁uhura	-6856
▁upper	-6857
▁yield	-6858
rection	-6859
▁andrew	-6860
▁basket	-6861
▁beings	-6862
▁breaks	-6863
▁chriss	-6864
▁condem	-6865
▁gotham	-6866
▁hambur	-6867
▁humans	-6868
▁mortal	-6869
▁owners	-6870
▁pistol	-6871
▁powder	-6872
▁powell	-6873
▁ronnie	-6874
▁rumors	-6875
▁terrif	-6876
▁terror	-6877
▁unfair	-6878
▁accused	-6879
▁aggress	-6880
▁choices	-6881
▁compens	-6882
▁coordin	-6883
▁discipl	-6884
▁exagger	-6885
▁halfway	-6886
▁insight	-6887
▁kicking	-6888
▁kristen	-6889
▁passage	-6890
▁privacy	-6891
▁propose	-6892
▁reflect	-6893
▁selfish	-6894
▁serving	-6895
▁strikes	-6896
▁thirsty	-6897
▁vehicle	-6898
▁western	-6899
▁whisper	-6900
▁withdra	-6901
▁workers	-6902
▁chairman	-6903
▁chickens	-6904
▁crossing	-6905
▁emotions	-6906
▁entrance	-6907
▁everyday	-6908
▁examined	-6909
▁normally	-6910
▁peculiar	-6911
▁poisoned	-6912
▁promises	-6913
▁returned	-6914
▁russians	-6915
▁slightly	-6916
▁studying	-6917
▁swimming	-6918
▁backwards	-6919
▁candidate	-6920
▁furniture	-6921
▁physician	-6922
▁published	-6923
▁searching	-6924
▁convenient	-6925
▁expression	-6926
▁philosophy	-6927
▁yourselves	-6928
▁businessman	-6929
▁environment	-6930
▁questioning	-6931
▁assassination	-6932
sm	-6933
ann	-6934
arn	-6935
ask	-6936
bey	-6937
eau	-6938
esc	-6939
haw	-6940
ipt	-6941
isc	-6942
now	-6943
onn	-6944
rum	-6945
sis	-6946
ski	-6947
▁eg	-6948
▁lt	-6949
alie	-6950
beat	-6951
cour	-6952
eton	-6953
gues	-6954
onym	-6955
ovan	-6956
roth	-6957
semb	-6958
▁biz	-6959
▁gus	-6960
▁ral	-6961
▁rug	-6962
▁sig	-6963
▁wee	-6964
▁yah	-6965
aning	-6966
eters	-6967
inger	-6968
uches	-6969
▁acid	-6970
▁auto	-6971
▁cath	-6972
▁dept	-6973
▁eddy	-6974
▁flip	-6975
▁gran	-6976
▁grat	-6977
▁grun	-6978
▁jill	-6979
▁limb	-6980
▁lung	-6981
▁mand	-6982
▁pipe	-6983
▁rank	-6984
▁reco	-6985
▁spit	-6986
▁tune	-6987
▁turk	-6988
▁wend	-6989
ctions	-6990
hattan	-6991
lahoma	-6992
ormous	-6993
wright	-6994
▁acted	-6995
▁amber	-6996
▁arrog	-6997
▁basis	-6998
▁clerk	-6999
▁creek	-7000
▁crown	-7001
▁ditch	-7002
▁dread	-7003
▁fools	-7004
▁goofy	-7005
▁goose	-7006
▁julie	-7007
▁lovey	-7008
▁lyssa	-7009
▁messy	-7010
▁metap	-7011
▁mouse	-7012
▁pages	-7013
▁reads	-7014
▁salad	-7015
▁scrap	-7016
▁sends	-7017
▁sheet	-7018
▁shown	-7019
▁sixth	-7020
▁spear	-7021
▁stops	-7022
▁surve	-7023
▁swore	-7024
▁takin	-7025
▁utter	-7026
▁bianca	-7027
▁casual	-7028
▁delmar	-7029
▁destro	-7030
▁dishes	-7031
▁driven	-7032
▁edward	-7033
▁fabric	-7034
▁kansas	-7035
▁martha	-7036
▁mickey	-7037
▁palmer	-7038
▁peters	-7039
▁salary	-7040
▁samuel	-7041
▁sticks	-7042
▁sucked	-7043
▁tastes	-7044
▁territ	-7045
▁timing	-7046
▁tracks	-7047
▁wicked	-7048
▁wilson	-7049
▁worthy	-7050
▁causing	-7051
▁content	-7052
▁culture	-7053
▁donovan	-7054
▁enjoyed	-7055
▁feeding	-7056
▁fellows	-7057
▁gabriel	-7058
▁jewelry	-7059
▁klingon	-7060
▁negroes	-7061
▁operate	-7062
▁produce	-7063
▁removed	-7064
▁sources	-7065
▁spoiled	-7066
▁succeed	-7067
▁activity	-7068
▁concerns	-7069
▁cosgrove	-7070
▁counting	-7071
▁distinct	-7072
▁dragging	-7073
▁enormous	-7074
▁franklin	-7075
▁homework	-7076
▁insulted	-7077
▁oklahoma	-7078
▁properly	-7079
▁prospect	-7080
▁released	-7081
▁sandwich	-7082
▁screwing	-7083
▁stranger	-7084
▁treating	-7085
▁certified	-7086
▁christine	-7087
▁computers	-7088
▁curiosity	-7089
▁literally	-7090
▁manhattan	-7091
▁meanwhile	-7092
▁relatives	-7093
▁scientist	-7094
▁violation	-7095
▁assignment	-7096
▁conditions	-7097
▁forgetting	-7098
▁physically	-7099
▁remarkable	-7100
▁engineering	-7101
▁investigating	-7102
cky	-7103
fta	-7104
gus	-7105
lim	-7106
ssi	-7107
acon	-7108
bled	-7109
cast	-7110
dale	-7111
eria	-7112
iggy	-7113
illa	-7114
izes	-7115
onda	-7116
▁bou	-7117
▁fla	-7118
▁nay	-7119
▁nex	-7120
▁rae	-7121
▁shy	-7122
▁sic	-7123
▁sof	-7124
▁sty	-7125
▁wiz	-7126
ables	-7127
arter	-7128
berry	-7129
elled	-7130
eries	-7131
ilton	-7132
keley	-7133
known	-7134
oring	-7135
▁acts	-7136
▁barb	-7137
▁bran	-7138
▁brew	-7139
▁clau	-7140
▁coin	-7141
▁cran	-7142
▁dowd	-7143
▁earn	-7144
▁enid	-7145
▁fork	-7146
▁grus	-7147
▁herb	-7148
▁isol	-7149
▁lugg	-7150
▁pale	-7151
▁perm	-7152
▁slut	-7153
▁summ	-7154
▁toby	-7155
▁tone	-7156
▁wald	-7157
ablish	-7158
imeter	-7159
kelway	-7160
▁advis	-7161
▁burst	-7162
▁comic	-7163
▁cried	-7164
▁dates	-7165
▁gifts	-7166
▁greet	-7167
▁hafta	-7168
▁handy	-7169
▁horny	-7170
▁incon	-7171
▁lamar	-7172
▁lance	-7173
▁linda	-7174
▁logic	-7175
▁marsh	-7176
▁meets	-7177
▁micro	-7178
▁paras	-7179
▁penit	-7180
▁persu	-7181
▁purse	-7182
▁rumor	-7183
▁scent	-7184
▁scram	-7185
▁sympt	-7186
▁tense	-7187
▁trash	-7188
▁tread	-7189
▁veget	-7190
▁wagon	-7191
▁wells	-7192
▁wrist	-7193
ificant	-7194
inskaya	-7195
istered	-7196
▁actual	-7197
▁ballet	-7198
▁carter	-7199
▁cattle	-7200
▁dawson	-7201
▁ferrie	-7202
▁hyster	-7203
▁infant	-7204
▁insect	-7205
▁perpet	-7206
▁primit	-7207
▁random	-7208
▁resent	-7209
▁sandro	-7210
▁sittin	-7211
▁stella	-7212
▁supper	-7213
▁uptown	-7214
▁vacuum	-7215
▁wasted	-7216
▁actions	-7217
▁airline	-7218
▁anxious	-7219
▁beloved	-7220
▁blanket	-7221
▁eastern	-7222
▁fighter	-7223
▁gesture	-7224
▁happily	-7225
▁hitting	-7226
▁luggage	-7227
▁mankind	-7228
▁monitor	-7229
▁narciss	-7230
▁predict	-7231
▁rexroth	-7232
▁shaking	-7233
▁sincere	-7234
▁smarter	-7235
▁stanley	-7236
▁typical	-7237
▁advanced	-7238
▁berkeley	-7239
▁borrowed	-7240
▁ceremony	-7241
▁clothing	-7242
▁comrades	-7243
▁district	-7244
▁facility	-7245
▁floating	-7246
▁hamilton	-7247
▁kindness	-7248
▁register	-7249
▁reported	-7250
▁sticking	-7251
▁superior	-7252
▁surveill	-7253
▁civilized	-7254
▁continent	-7255
▁documents	-7256
▁education	-7257
▁establish	-7258
▁jefferson	-7259
▁mackelway	-7260
▁reference	-7261
▁shoulders	-7262
▁suspected	-7263
▁assistance	-7264
▁determined	-7265
▁enforcement	-7266
▁grusinskaya	-7267
aze	-7268
lsa	-7269
pin	-7270
qui	-7271
ria	-7272
zak	-7273
zon	-7274
▁ga	-7275
▁os	-7276
atch	-7277
ctic	-7278
ddya	-7279
etor	-7280
lewe	-7281
oons	-7282
orse	-7283
oses	-7284
rish	-7285
step	-7286
uals	-7287
umps	-7288
user	-7289
vant	-7290
▁coc	-7291
▁dom	-7292
▁ian	-7293
▁lac	-7294
▁nav	-7295
▁pam	-7296
▁sie	-7297
▁suf	-7298
▁tum	-7299
▁vit	-7300
▁yan	-7301
▁zor	-7302
cript	-7303
retti	-7304
▁bait	-7305
▁bean	-7306
▁bold	-7307
▁bulj	-7308
▁caps	-7309
▁cycl	-7310
▁ding	-7311
▁dock	-7312
▁eric	-7313
▁fade	-7314
▁hart	-7315
▁hobb	-7316
▁ilsa	-7317
▁obst	-7318
▁penc	-7319
▁poly	-7320
▁rode	-7321
▁rust	-7322
▁shoe	-7323
▁surf	-7324
▁tack	-7325
▁tube	-7326
▁wins	-7327
aparte	-7328
uchess	-7329
unning	-7330
wallis	-7331
▁allen	-7332
▁blond	-7333
▁cathy	-7334
▁claws	-7335
▁coron	-7336
▁deals	-7337
▁depth	-7338
▁diego	-7339
▁drawn	-7340
▁duffy	-7341
▁excit	-7342
▁forms	-7343
▁hawai	-7344
▁homes	-7345
▁indul	-7346
▁llewe	-7347
▁mason	-7348
▁maude	-7349
▁mikey	-7350
▁nancy	-7351
▁patch	-7352
▁ralph	-7353
▁roach	-7354
▁roman	-7355
▁safer	-7356
▁sanct	-7357
▁skull	-7358
▁sniff	-7359
▁spray	-7360
▁sweep	-7361
▁talby	-7362
▁toast	-7363
▁tries	-7364
▁waves	-7365
▁whadd	-7366
▁albert	-7367
▁angels	-7368
▁assemb	-7369
▁atomic	-7370
▁beavis	-7371
▁beware	-7372
▁calvin	-7373
▁carpet	-7374
▁counts	-7375
▁dancer	-7376
▁diplom	-7377
▁dwight	-7378
▁felson	-7379
▁formal	-7380
▁handed	-7381
▁inject	-7382
▁integr	-7383
▁medium	-7384
▁narrow	-7385
▁plates	-7386
▁polite	-7387
▁purple	-7388
▁rekall	-7389
▁reveal	-7390
▁slaves	-7391
▁sports	-7392
▁starks	-7393
▁thumbs	-7394
▁washed	-7395
▁assumed	-7396
▁butcher	-7397
▁chapter	-7398
▁constit	-7399
▁customs	-7400
▁deliber	-7401
▁despite	-7402
▁emotion	-7403
▁leather	-7404
▁loyalty	-7405
▁madison	-7406
▁moments	-7407
▁musical	-7408
▁natalie	-7409
▁pirates	-7410
▁rangers	-7411
▁shocked	-7412
▁swayzak	-7413
▁travels	-7414
▁unknown	-7415
▁whaddya	-7416
▁attached	-7417
▁captured	-7418
▁catching	-7419
▁catholic	-7420
▁entering	-7421
▁fingerna	-7422
▁gambling	-7423
▁homicide	-7424
▁intended	-7425
▁invasion	-7426
▁llewelyn	-7427
▁messages	-7428
▁passport	-7429
▁peaceful	-7430
▁services	-7431
▁transmit	-7432
▁werewolf	-7433
▁automatic	-7434
▁bonaparte	-7435
▁disturbed	-7436
▁greenleaf	-7437
▁narcissus	-7438
▁negotiate	-7439
▁operating	-7440
▁satellite	-7441
▁strangers	-7442
▁therapist	-7443
▁classified	-7444
▁cornwallis	-7445
▁discussion	-7446
▁pretending	-7447
▁surveillance	-7448
▁unbelievable	-7449
aa	-7450
rs	-7451
uj	-7452
wr	-7453
yn	-7454
bow	-7455
car	-7456
emm	-7457
nov	-7458
ener	-7459
fton	-7460
iana	-7461
ieth	-7462
rane	-7463
uddy	-7464
▁ack	-7465
▁bid	-7466
▁bru	-7467
▁dub	-7468
▁hip	-7469
▁moo	-7470
▁nup	-7471
▁ole	-7472
▁oth	-7473
▁rac	-7474
▁rhe	-7475
▁rit	-7476
▁thy	-7477
▁ups	-7478
▁woo	-7479
agers	-7480
atoes	-7481
encer	-7482
erton	-7483
guing	-7484
hanie	-7485
onder	-7486
rella	-7487
store	-7488
▁clip	-7489
▁corb	-7490
▁craz	-7491
▁crop	-7492
▁dome	-7493
▁flor	-7494
▁gill	-7495
▁gren	-7496
▁gump	-7497
▁hood	-7498
▁jazz	-7499
▁kore	-7500
▁meas	-7501
▁mult	-7502
▁myth	-7503
▁penn	-7504
▁pimp	-7505
▁pros	-7506
▁sets	-7507
▁sits	-7508
▁skye	-7509
▁vigo	-7510
▁worn	-7511
lusive	-7512
rating	-7513
rences	-7514
timore	-7515
▁alike	-7516
▁ambul	-7517
▁beard	-7518
▁blows	-7519
▁boats	-7520
▁capit	-7521
▁cared	-7522
▁cedar	-7523
▁chaos	-7524
▁cindy	-7525
▁corle	-7526
▁crumb	-7527
▁crush	-7528
▁dynam	-7529
▁equal	-7530
▁horns	-7531
▁imper	-7532
▁indic	-7533
▁kitty	-7534
▁latin	-7535
▁nazis	-7536
▁nexus	-7537
▁nicol	-7538
▁opens	-7539
▁picks	-7540
▁plead	-7541
▁salvy	-7542
▁solar	-7543
▁songs	-7544
▁speck	-7545
▁sunny	-7546
nerable	-7547
▁anonym	-7548
▁column	-7549
▁contra	-7550
▁cowgir	-7551
▁dragon	-7552
▁fiance	-7553
▁flaemm	-7554
▁fooled	-7555
▁gibson	-7556
▁gruner	-7557
▁latest	-7558
▁mccord	-7559
▁morgue	-7560
▁packed	-7561
▁punish	-7562
▁puttin	-7563
▁safely	-7564
▁select	-7565
▁shovel	-7566
▁sleepy	-7567
▁tattoo	-7568
▁triump	-7569
▁worshi	-7570
▁anticip	-7571
▁breaker	-7572
▁bugging	-7573
▁cameras	-7574
▁cleared	-7575
▁cookies	-7576
▁damaged	-7577
▁dismiss	-7578
▁eternal	-7579
▁grabbed	-7580
▁include	-7581
▁jessica	-7582
▁methods	-7583
▁mexican	-7584
▁network	-7585
▁niggers	-7586
▁precogs	-7587
▁quality	-7588
▁rehears	-7589
▁silence	-7590
▁slaught	-7591
▁spanish	-7592
▁sparrow	-7593
▁spotted	-7594
▁worship	-7595
▁burglary	-7596
▁cemetery	-7597
▁cheating	-7598
▁civilian	-7599
▁compound	-7600
▁deserved	-7601
▁generous	-7602
▁humanity	-7603
▁monsters	-7604
▁offering	-7605
▁penitent	-7606
▁pentagon	-7607
▁pointing	-7608
▁relative	-7609
▁scotland	-7610
▁segretti	-7611
▁suffered	-7612
▁troubles	-7613
▁baltimore	-7614
▁buljanoff	-7615
▁childhood	-7616
▁connected	-7617
▁criminals	-7618
▁depressed	-7619
▁instincts	-7620
▁lovebirds	-7621
▁primitive	-7622
▁probation	-7623
▁spiritual	-7624
▁stephanie	-7625
▁territory	-7626
▁anniversary	-7627
▁differently	-7628
▁slaughtered	-7629
▁deliberately	-7630
▁administration	-7631
zo	-7632
bre	-7633
elf	-7634
jou	-7635
mel	-7636
ois	-7637
oot	-7638
rav	-7639
utt	-7640
bone	-7641
chev	-7642
daya	-7643
hero	-7644
ijah	-7645
lsen	-7646
post	-7647
rous	-7648
sted	-7649
uted	-7650
▁hem	-7651
▁nag	-7652
▁nan	-7653
▁nep	-7654
▁ohh	-7655
▁ras	-7656
▁rhy	-7657
▁rib	-7658
▁sut	-7659
▁tam	-7660
▁yak	-7661
amins	-7662
celer	-7663
endar	-7664
ietta	-7665
itled	-7666
itors	-7667
ivity	-7668
olves	-7669
▁cafe	-7670
▁cape	-7671
▁corp	-7672
▁evac	-7673
▁flea	-7674
▁grip	-7675
▁intu	-7676
▁kane	-7677
▁lamb	-7678
▁lawn	-7679
▁lick	-7680
▁mave	-7681
▁maze	-7682
▁mild	-7683
▁muff	-7684
▁otho	-7685
▁outa	-7686
▁perf	-7687
▁scam	-7688
▁scum	-7689
▁shin	-7690
▁soil	-7691
▁tore	-7692
active	-7693
ipping	-7694
oretta	-7695
verted	-7696
▁amend	-7697
▁andro	-7698
▁award	-7699
▁basil	-7700
▁bijou	-7701
▁bombs	-7702
▁brick	-7703
▁burke	-7704
▁concl	-7705
▁conqu	-7706
▁corps	-7707
▁cough	-7708
▁exped	-7709
▁fraud	-7710
▁guilt	-7711
▁initi	-7712
▁lands	-7713
▁lobby	-7714
▁logan	-7715
▁naive	-7716
▁neare	-7717
▁niece	-7718
▁olsen	-7719
▁paula	-7720
▁piggy	-7721
▁puppy	-7722
▁sabot	-7723
▁shore	-7724
▁socks	-7725
▁stubb	-7726
▁subst	-7727
▁terry	-7728
▁wears	-7729
▁weigh	-7730
▁whack	-7731
▁worms	-7732
▁chased	-7733
▁copper	-7734
▁crimes	-7735
▁elijah	-7736
▁expand	-7737
▁fields	-7738
▁fights	-7739
▁francs	-7740
▁greedy	-7741
▁hauser	-7742
▁hawaii	-7743
▁histor	-7744
▁listed	-7745
▁modern	-7746
▁needle	-7747
▁plants	-7748
▁playin	-7749
▁prints	-7750
▁relief	-7751
▁rented	-7752
▁sefton	-7753
▁senses	-7754
▁sophie	-7755
▁suspic	-7756
▁wheels	-7757
▁abandon	-7758
▁acceler	-7759
▁bearing	-7760
▁clement	-7761
▁confirm	-7762
▁consult	-7763
▁desmond	-7764
▁display	-7765
▁duchess	-7766
▁electro	-7767
▁element	-7768
▁elephan	-7769
▁jackson	-7770
▁loretta	-7771
▁patriot	-7772
▁pockets	-7773
▁praetor	-7774
▁receipt	-7775
▁recover	-7776
▁reliant	-7777
▁returns	-7778
▁romulan	-7779
▁shermin	-7780
▁shortly	-7781
▁smaller	-7782
▁stewart	-7783
▁surgery	-7784
▁sweater	-7785
▁visitor	-7786
▁accepted	-7787
▁answered	-7788
▁appleton	-7789
▁approxim	-7790
▁composer	-7791
▁corleone	-7792
▁corridor	-7793
▁covering	-7794
▁daylight	-7795
▁entitled	-7796
▁gracious	-7797
▁ignorant	-7798
▁marietta	-7799
▁maverick	-7800
▁priority	-7801
▁sacrific	-7802
▁syndrome	-7803
▁victoria	-7804
▁withdraw	-7805
▁decisions	-7806
▁exhausted	-7807
▁fantasies	-7808
▁fashioned	-7809
▁judgement	-7810
▁magazines	-7811
▁reporters	-7812
▁superhero	-7813
▁constantly	-7814
▁directions	-7815
▁importance	-7816
▁recognized	-7817
▁retirement	-7818
▁scientific	-7819
▁vulnerable	-7820
▁containment	-7821
▁girlfriends	-7822
▁institution	-7823
▁temperature	-7824
▁unconscious	-7825
▁expectations	-7826
▁psychologist	-7827
▁international	-7828
▁motherfuckers	-7829
gs	-7830
apt	-7831
aza	-7832
gia	-7833
ked	-7834
lsh	-7835
nik	-7836
orf	-7837
sia	-7838
▁gy	-7839
▁rd	-7840
ader	-7841
gins	-7842
hand	-7843
inky	-7844
itts	-7845
obal	-7846
odka	-7847
osen	-7848
ppin	-7849
pret	-7850
risd	-7851
udge	-7852
ulty	-7853
umes	-7854
will	-7855
▁eug	-7856
▁fee	-7857
▁fox	-7858
▁lib	-7859
▁lux	-7860
▁oui	-7861
▁rap	-7862
▁seb	-7863
▁smy	-7864
▁tin	-7865
▁tod	-7866
▁vin	-7867
▁von	-7868
ashes	-7869
chair	-7870
esome	-7871
hound	-7872
orter	-7873
uster	-7874
▁ahhh	-7875
▁ants	-7876
▁beds	-7877
▁bing	-7878
▁boil	-7879
▁buys	-7880
▁cruc	-7881
▁dash	-7882
▁dela	-7883
▁dwar	-7884
▁envy	-7885
▁fans	-7886
▁flav	-7887
▁hind	-7888
▁kate	-7889
▁knox	-7890
▁rats	-7891
▁root	-7892
▁site	-7893
▁slim	-7894
▁tool	-7895
▁unex	-7896
▁unne	-7897
▁wrap	-7898
encing	-7899
icient	-7900
inated	-7901
itated	-7902
▁amate	-7903
▁aspir	-7904
▁bravo	-7905
▁brush	-7906
▁chili	-7907
▁chill	-7908
▁conor	-7909
▁dealt	-7910
▁decor	-7911
▁donna	-7912
▁eject	-7913
▁farra	-7914
▁fires	-7915
▁frust	-7916
▁hopes	-7917
▁landl	-7918
▁legit	-7919
▁liddy	-7920
▁lions	-7921
▁mccoy	-7922
▁mcint	-7923
▁moron	-7924
▁owned	-7925
▁recru	-7926
▁simpl	-7927
▁slice	-7928
▁sorts	-7929
▁stare	-7930
▁tanks	-7931
▁veins	-7932
▁vodka	-7933
▁yards	-7934
▁affirm	-7935
▁burden	-7936
▁cheers	-7937
▁chosen	-7938
▁circle	-7939
▁collap	-7940
▁colony	-7941
▁compre	-7942
▁danced	-7943
▁detect	-7944
▁dispos	-7945
▁forbid	-7946
▁halluc	-7947
▁harbor	-7948
▁hooked	-7949
▁impact	-7950
▁jammed	-7951
▁jurisd	-7952
▁lovers	-7953
▁madman	-7954
▁malfun	-7955
▁midget	-7956
▁morgan	-7957
▁observ	-7958
▁ravell	-7959
▁reform	-7960
▁sharks	-7961
▁string	-7962
▁willet	-7963
▁wishes	-7964
▁	-7965
e	-7966
t	-7967
o	-7968
a	-7969
i	-7970
n	-7971
h	-7972
s	-7973
r	-7974
l	-7975
u	-7976
.	-7977
d	-7978
y	-7979
w	-7980
m	-7981
g	-7982
c	-7983
f	-7984
b	-7985
p	-7986
k	-7987
,	-7988
v	-7989
?	-7990
!	-7991
j	-7992
x	-7993
z	-7994
q	-7995
