<pad>	0
<s>	0
</s>	0
<unk>	0
▁	-2.73342
가	-4.22131
을	-4.27586
이	-4.37644
도	-4.52497
요	-4.56239
는	-4.60211
지	-4.69889
게	-4.7945
은	-4.86451
고	-4.88185
▁거예요	-4.95009
를	-4.9947
▁수	-5.27214
세요	-5.29367
의	-5.29931
보세요	-5.30738
▁너무	-5.39451
죠	-5.41532
에	-5.41692
한	-5.42219
▁나	-5.42834
▁거	-5.43656
서	-5.44897
▁사람	-5.47424
▁잘	-5.49834
▁것	-5.50761
▁좋아하는	-5.51043
▁안	-5.5536
▁더	-5.5554
면	-5.59016
만	-5.61663
▁사랑	-5.74191
어	-5.75757
다	-5.82921
네	-5.84904
나	-5.85447
해	-5.85607
▁좋은	-5.85699
▁많이	-5.87174
히	-5.91595
로	-5.92478
기	-5.93957
▁이별	-5.97609
▁싶어	-5.97725
▁그	-5.98077
랑	-6.022
하세요	-6.03093
▁같아요	-6.03238
▁좀	-6.03855
▁마음	-6.03916
네요	-6.0529
▁말	-6.06259
하고	-6.06478
▁사람이	-6.06656
니다	-6.06955
할	-6.07107
▁생각	-6.08904
▁있어요	-6.10142
▁내	-6.10165
▁있을	-6.11525
으로	-6.11665
▁때	-6.11859
▁썸	-6.17465
야	-6.19043
▁다	-6.19047
▁같아	-6.19664
하는	-6.20463
길	-6.21267
주세요	-6.25393
▁게	-6.25616
▁있	-6.27988
일	-6.29964
▁좋	-6.31169
해보세요	-6.3118
거	-6.32101
▁마세요	-6.34054
▁연락	-6.37868
▁건	-6.38452
에서	-6.39017
▁가	-6.40855
겠네요	-6.41316
▁해	-6.41373
▁이제	-6.41503
▁오늘	-6.42802
인	-6.42932
나봐요	-6.43126
겠어요	-6.46645
▁있는	-6.46983
운	-6.49664
으면	-6.4971
는데	-6.50044
▁연애	-6.50961
▁내가	-6.51014
▁왜	-6.51365
▁마음이	-6.51385
▁일	-6.51556
▁뭐	-6.51651
▁다른	-6.52981
하지	-6.53062
▁못	-6.53847
▁해보세요	-6.55515
라	-6.55913
▁어떻게	-6.57714
▁사	-6.57791
▁싶다	-6.58816
▁남자친구	-6.59376
▁여자친구	-6.59768
이에요	-6.59811
려	-6.6054
▁저	-6.62244
▁시간이	-6.64099
▁없어	-6.64946
▁한	-6.65889
▁걸	-6.66998
▁친구	-6.67143
▁힘들	-6.6803
주	-6.68229
▁다시	-6.68899
▁정말	-6.69328
▁또	-6.6959
습니다	-6.69987
▁좋아	-6.70155
▁하는	-6.70767
▁있어	-6.71183
▁좋을	-6.72849
까	-6.73059
과	-6.74898
▁수도	-6.75335
년	-6.77861
아	-6.78146
인데	-6.78159
리	-6.79201
▁될	-6.79312
▁바	-6.79334
▁할	-6.79985
▁자신	-6.80906
겠죠	-6.83439
▁지금	-6.83748
▁살	-6.84459
▁같이	-6.84554
시	-6.85081
자	-6.8518
▁여자	-6.85198
▁시간	-6.86216
▁당신	-6.87698
▁하고	-6.87832
▁혼자	-6.88895
▁조금	-6.88984
하게	-6.89359
한테	-6.90057
▁자꾸	-6.91258
▁이	-6.92414
하면	-6.92429
▁정리	-6.93925
상	-6.9416
▁보	-6.9505
▁진짜	-6.9516
▁그런	-6.95912
▁없어요	-6.96631
니	-6.97111
▁않	-6.97648
▁만나	-6.98336
▁애	-6.98522
든	-6.99166
것도	-7.00114
▁없는	-7.01171
▁드	-7.02253
▁참	-7.02728
▁일이	-7.03437
▁먼저	-7.03462
보다	-7.03939
▁제가	-7.05384
▁될까	-7.05417
▁술	-7.05466
▁결혼	-7.0581
▁돼요	-7.05811
▁있을까	-7.0671
▁아무	-7.07002
▁헤어진지	-7.07652
▁바랄게요	-7.07887
▁남자	-7.079
▁좋겠어	-7.08521
가봐요	-7.09084
데	-7.0933
▁선물	-7.0943
▁그럴	-7.09587
▁전	-7.09698
▁저도	-7.11333
▁계속	-7.12518
와	-7.12529
▁하나	-7.13416
봅니다	-7.14125
▁짝사랑	-7.14128
▁중	-7.14544
거예요	-7.14764
래	-7.14906
▁하	-7.16053
▁힘든	-7.16181
▁준비	-7.16238
질	-7.17059
수	-7.17246
에게	-7.17268
▁날	-7.17995
▁좋아요	-7.18087
▁짝녀	-7.1827
▁이야기	-7.19529
심	-7.19691
여	-7.20237
합	-7.20345
▁방법	-7.20457
▁먹고	-7.20564
대	-7.20867
▁않아요	-7.21075
▁고백	-7.21151
▁서로	-7.21476
▁아	-7.22675
대로	-7.22908
할까	-7.22992
라고	-7.23848
▁아니	-7.24232
하	-7.2435
▁사랑이	-7.24645
진	-7.24972
다고	-7.25104
랍	-7.25668
▁그렇	-7.25919
이네요	-7.25926
▁오	-7.27147
했어	-7.27262
던	-7.2762
들	-7.28714
보	-7.29064
▁공부	-7.29064
▁남	-7.29382
는게	-7.29668
▁아직	-7.30126
해도	-7.30352
▁많은	-7.31068
▁데이트	-7.32648
▁싫어	-7.33511
씩	-7.33537
▁보고	-7.33744
▁눈	-7.34499
▁찾아	-7.34579
▁고민	-7.35157
입니다	-7.35984
▁비	-7.36034
▁하지	-7.36627
▁충분	-7.37109
▁감정	-7.37156
까지	-7.37875
걸	-7.38034
▁없	-7.38078
겠지	-7.38211
▁줄	-7.3829
지도	-7.39656
▁어떤	-7.40813
▁생각해요	-7.41709
▁기억	-7.41889
▁카톡	-7.42079
▁함께	-7.4208
▁대화	-7.42089
▁짝남이	-7.42656
▁제	-7.42956
▁말해보세요	-7.42982
▁너	-7.4323
▁오래	-7.43457
▁들어	-7.44183
▁같	-7.44244
▁알	-7.44245
▁해야	-7.44456
▁무슨	-7.44659
▁새로	-7.44789
▁돈	-7.44911
니까요	-7.4527
하기	-7.45375
건	-7.45529
봐요	-7.45754
▁이렇게	-7.45975
▁머리	-7.45981
▁그냥	-7.45984
▁3	-7.46291
▁1	-7.46376
▁친구가	-7.46574
▁내일	-7.46699
▁할까	-7.47361
지만	-7.47377
▁몰라요	-7.47473
▁안돼	-7.47579
▁바라	-7.47594
해요	-7.47816
▁자	-7.48696
▁힘드네	-7.48705
정	-7.48713
▁해요	-7.48875
▁반	-7.49193
음	-7.49509
▁되	-7.49558
▁2	-7.49609
▁사랑하는	-7.49727
인지	-7.51361
군	-7.51401
게요	-7.51442
되	-7.51473
▁사람은	-7.51812
간	-7.51877
어요	-7.51931
▁힘들어	-7.52137
▁관심	-7.52394
예요	-7.52479
하네	-7.52629
▁들	-7.52786
▁하루	-7.52824
러	-7.53593
이야	-7.54003
▁시작	-7.54147
▁운동	-7.54258
▁이유	-7.54288
장	-7.5483
▁무	-7.55806
▁열	-7.56052
▁헤어진	-7.56095
▁올	-7.56411
점	-7.56669
른	-7.56947
▁알아	-7.5725
▁어떨까요	-7.57278
인가	-7.57455
구	-7.5792
적	-7.5824
▁생각해보세요	-7.58351
▁나만	-7.5894
▁후	-7.59207
▁누구	-7.59214
▁피	-7.60164
▁전화	-7.60203
▁보세요	-7.60383
▁나한테	-7.61121
치	-7.6118
▁듯	-7.62248
었	-7.62376
사	-7.62559
긴	-7.63135
▁많아	-7.63332
이라	-7.63343
져	-7.63443
▁여행	-7.63775
▁짝남	-7.64049
▁있는데	-7.6415
▁그래	-7.64206
▁맘	-7.65738
▁꿈	-7.65764
▁만큼	-7.65908
통	-7.66014
신	-7.6613
▁후회	-7.6652
▁하면	-7.66549
▁돼	-7.67404
▁그녀	-7.67528
▁싶은	-7.68038
▁대	-7.68243
▁연락이	-7.6844
▁집	-7.68504
▁않아	-7.68957
▁따라	-7.69016
▁마음에	-7.69256
해야	-7.69332
해서	-7.69365
항	-7.6979
▁보내	-7.69936
▁끝	-7.70678
볼까	-7.7072
▁마	-7.70748
▁도움	-7.71505
▁아니에요	-7.71524
▁같은데	-7.7156
다면	-7.71603
니까	-7.71733
▁말고	-7.71952
▁타는	-7.72316
▁생각이	-7.72709
려고	-7.72726
▁않는	-7.7298
▁스트레스	-7.73209
▁만날	-7.7323
▁우리	-7.73314
▁않았	-7.73352
차	-7.736
였	-7.74047
▁어디	-7.74539
거라	-7.74559
임	-7.74685
▁쉬	-7.75007
줄	-7.75096
▁곳	-7.75113
애	-7.75492
▁좋겠다	-7.76834
자고	-7.77453
부터	-7.7757
▁모르겠어	-7.7758
▁잠	-7.77744
▁이별을	-7.77989
▁입	-7.7851
▁얼	-7.78594
▁기대	-7.78885
▁부	-7.78892
▁점	-7.789
▁한달	-7.79297
했	-7.79376
하죠	-7.79563
방	-7.79636
▁언제	-7.80242
하는데	-7.80358
▁어때	-7.80464
달	-7.80981
이죠	-7.81212
적인	-7.81266
면서	-7.81668
▁가고	-7.81701
마	-7.81893
▁화	-7.82136
▁아파	-7.82291
▁쉽지	-7.82306
▁이젠	-7.82312
▁꼭	-7.82378
▁괜찮아요	-7.82698
▁먹	-7.82817
▁물어보	-7.82906
돼	-7.83126
내	-7.8326
해볼까	-7.83503
제	-7.83504
▁정	-7.83616
▁해도	-7.84362
함	-7.84512
▁타	-7.84629
▁되는	-7.84794
▁주	-7.85257
▁아니라	-7.85279
▁같은	-7.85312
날	-7.85507
일까	-7.85623
처럼	-7.86077
▁기분	-7.8618
▁문제	-7.86273
▁조심	-7.86809
▁없다	-7.86877
▁생각해	-7.87181
▁기	-7.87733
었어	-7.87841
▁걱정	-7.88083
▁변화	-7.88188
▁맞는	-7.8819
▁현실	-7.8819
▁귀	-7.88326
▁물	-7.88552
▁않을	-7.89531
때	-7.89759
▁직접	-7.89759
▁나이	-7.89817
▁약	-7.8987
▁요즘	-7.90234
걸까	-7.90341
▁볼	-7.90549
▁좋을까	-7.90773
거나	-7.91658
것	-7.918
▁맛있	-7.91978
▁않은	-7.92223
▁결국	-7.92315
오세요	-7.92436
▁있죠	-7.92541
▁차	-7.92564
▁밥	-7.93647
▁있나	-7.93679
▁중요한	-7.94464
개월	-7.95044
인가봐요	-7.95078
▁필요해	-7.95378
▁필요	-7.95427
▁그러	-7.95494
▁가는	-7.96071
▁아직도	-7.96573
▁이런	-7.96697
스	-7.9703
▁노래	-7.97246
이나	-7.97317
대한	-7.9868
하다	-7.98775
▁회사	-7.98789
▁나쁜	-7.98796
▁마지막	-7.98838
▁큰	-7.98874
하면서	-7.99202
천	-7.99264
▁깨	-7.9954
냐	-7.99864
▁와	-8.004
▁미련	-8.00535
텐데	-8.00734
▁기다려	-8.01112
▁늦	-8.01211
▁나는	-8.0127
▁집에	-8.013
▁처음	-8.014
▁손	-8.01486
▁헤어지고	-8.0167
▁난	-8.0233
▁받아	-8.02433
▁상처	-8.02724
▁가지	-8.02825
▁잘못	-8.02944
▁고민이	-8.03097
전	-8.03285
▁헤어짐	-8.03451
▁진심	-8.0349
▁여친	-8.03494
▁어제	-8.03496
▁딱	-8.03526
▁말아요	-8.03552
▁싶은데	-8.03558
▁썸남	-8.03564
에는	-8.03719
▁가져	-8.0395
기도	-8.0408
▁관계	-8.04317
만큼	-8.04326
▁있나봐요	-8.04447
했는데	-8.04516
▁연락해보세요	-8.04675
▁몸	-8.05139
▁천	-8.05326
▁많았	-8.05817
▁매일	-8.05943
수록	-8.05997
울	-8.06087
▁당	-8.0609
▁때문에	-8.06229
▁만들어	-8.06632
▁거라	-8.06834
갈	-8.06851
▁결정	-8.06962
해봐요	-8.07171
▁마음의	-8.07227
▁속	-8.07453
야지	-8.07942
지는	-8.08033
트	-8.08172
▁완전	-8.08257
▁재회	-8.08261
▁용기	-8.0832
▁모르는	-8.08356
▁남자애	-8.08375
▁살고	-8.0847
▁가장	-8.08712
된	-8.08895
▁두	-8.09006
▁달	-8.09107
▁필요한	-8.09522
▁자기	-8.09663
다는	-8.10176
▁놀	-8.10366
▁인생	-8.10543
▁그만	-8.10653
▁바람	-8.10756
▁뭘까	-8.10756
▁핸드폰	-8.10756
▁중요해요	-8.10775
▁합	-8.10892
봐	-8.11283
▁아닌	-8.11506
▁막	-8.1161
안	-8.11992
실	-8.12024
비	-8.12097
린	-8.12147
없이	-8.12226
워	-8.12586
▁잘할	-8.13064
▁모두	-8.13321
▁연습	-8.13321
▁구	-8.1333
▁예의	-8.1334
▁가끔	-8.13345
더니	-8.13348
▁얼마	-8.13377
▁남친	-8.13421
▁한번	-8.13465
▁동	-8.13573
▁추억	-8.13842
▁감	-8.14059
제일	-8.14069
▁사이	-8.1421
▁만나는	-8.14266
▁기다리	-8.14375
우	-8.14487
중	-8.14538
▁필요하	-8.14563
▁행복	-8.14756
▁선택	-8.14815
졌어	-8.14824
금	-8.14828
나요	-8.15203
▁표현	-8.15306
했던	-8.15333
▁없네	-8.15495
▁되었	-8.15551
▁시간을	-8.15848
▁엄청	-8.15952
▁소개팅	-8.15959
▁쉬운	-8.16183
▁잘하는	-8.16187
을까	-8.16206
듯	-8.1664
▁갈	-8.16715
다니	-8.16773
▁오늘도	-8.16906
▁보는	-8.16943
부	-8.16966
▁사람한테	-8.17464
▁상대	-8.17552
소	-8.17643
▁남자가	-8.17677
달라고	-8.17822
▁사랑에	-8.18102
▁신	-8.18172
▁모든	-8.18655
▁확신	-8.18655
▁얼굴	-8.1866
▁신경	-8.18661
▁어느	-8.18666
▁날씨	-8.18674
▁기분이	-8.18707
▁알았는데	-8.18709
▁다가가	-8.18914
▁있다면	-8.18964
▁번	-8.19092
▁없을	-8.19736
▁새	-8.2003
드려	-8.20406
▁덜	-8.20477
용	-8.20539
▁불	-8.2078
▁어	-8.20842
▁사람들이	-8.20894
▁적	-8.20905
▁사람들	-8.21352
겠지만	-8.21355
▁갑자기	-8.21433
▁스스로	-8.21433
▁예뻐	-8.21433
▁의미	-8.21447
▁꽃	-8.21539
▁했	-8.21611
▁자주	-8.21729
만에	-8.21762
▁사진	-8.21809
▁인연이	-8.22274
▁사는	-8.22402
오	-8.22458
▁왔어	-8.22598
▁상대방	-8.22615
겠어	-8.22724
두	-8.22912
문	-8.23137
▁모르겠어요	-8.23253
▁재미	-8.23278
번	-8.23443
▁습관	-8.23799
▁된	-8.238
▁추천	-8.24086
▁넘	-8.24215
▁앞에	-8.2429
▁어떡해	-8.2429
▁빨리	-8.24292
▁정신	-8.24314
▁길	-8.24926
있	-8.2567
▁날이	-8.25889
▁아침	-8.26152
▁했는데	-8.26237
▁나와	-8.26329
▁당신이	-8.26462
▁갖	-8.26518
보는	-8.26661
했다	-8.2689
드릴	-8.26938
릴	-8.2696
겨	-8.27134
▁예쁘	-8.27231
▁짝남한테	-8.27423
▁괜찮은	-8.27727
▁되나	-8.27768
▁끝나	-8.27885
▁5	-8.27945
▁세	-8.28201
▁느낌	-8.28345
▁봐	-8.28454
▁좋아해	-8.28512
감	-8.28538
▁강	-8.28587
다가	-8.28686
▁티	-8.28718
▁떠나	-8.29303
으세요	-8.29309
르	-8.29654
거야	-8.29678
▁걸까	-8.30079
▁싶네	-8.30261
▁아픔	-8.30261
▁후폭풍	-8.30261
▁상관	-8.30267
▁순간	-8.30287
▁직장	-8.30291
▁6	-8.30581
▁감기	-8.30588
▁분	-8.3068
야겠다	-8.30791
▁욕	-8.31132
▁신경쓰지	-8.31163
▁4	-8.31418
▁파	-8.31437
▁만들	-8.31686
▁헤어지	-8.31721
당	-8.31955
▁정도	-8.32221
드	-8.3255
▁선	-8.32894
▁건강	-8.32959
▁생각나	-8.33222
발	-8.33352
▁엄마	-8.33386
료	-8.33386
▁모습	-8.33386
▁첫사랑	-8.33386
▁학교	-8.33395
▁바쁘	-8.33417
그	-8.33547
마세요	-8.33725
▁믿어요	-8.33918
건가	-8.33957
▁잘하고	-8.3419
▁생겼	-8.34518
▁가슴	-8.34855
▁보이	-8.34856
▁언젠	-8.35089
▁설	-8.35219
줘	-8.35557
▁누	-8.35575
▁영화	-8.35894
▁만나고	-8.36401
▁잔	-8.36422
▁커피	-8.36617
▁아픈	-8.36622
▁알바	-8.36647
▁눈물	-8.36661
▁실수	-8.36667
일째	-8.36673
▁소	-8.36703
▁잠시	-8.36805
▁아는	-8.36932
▁힘내세요	-8.36946
선	-8.37045
▁궁금해	-8.37255
이랑	-8.37269
▁재밌	-8.37557
▁먹어야	-8.37633
▁좋아할	-8.37703
▁모르	-8.38693
▁말해	-8.39116
▁가능	-8.3921
▁자신이	-8.39381
말	-8.39562
럽	-8.3991
국	-8.39944
▁편하	-8.39945
▁힘이	-8.39945
혀	-8.39945
▁지켜	-8.39954
▁만난	-8.39972
▁화장	-8.40012
디	-8.40203
▁소리	-8.40315
찍	-8.40348
▁안해	-8.40452
▁되길	-8.40489
▁부모님	-8.40498
약	-8.40523
들이	-8.40688
마다	-8.40848
▁끝이	-8.40944
▁행복해	-8.41411
▁아프	-8.41418
▁이상	-8.41489
났	-8.41498
▁위	-8.4176
▁호감	-8.41848
▁탈	-8.42609
▁마시	-8.42783
보면	-8.43309
▁안녕	-8.43394
▁즐거	-8.43396
▁살펴	-8.43407
▁도전	-8.43497
▁가야	-8.43639
▁만남	-8.43667
▁이해	-8.43804
▁되지	-8.43944
있는	-8.4419
준	-8.44243
▁확인해	-8.44988
었는데	-8.45073
째	-8.45596
▁이별이	-8.45819
해야지	-8.45948
▁그분	-8.46325
▁줘	-8.46355
▁힘들다	-8.46386
동안	-8.46743
▁보여	-8.46748
▁위해	-8.46801
림	-8.46965
▁받았	-8.46965
▁벌써	-8.46965
▁슬픈	-8.46967
▁차단	-8.46998
▁아닌데	-8.47088
▁원하는	-8.47149
▁있었나봐요	-8.47233
란	-8.47368
▁식	-8.47507
후	-8.47798
▁다음에	-8.48593
▁별로	-8.48693
▁되어	-8.48803
▁척	-8.4886
▁전에	-8.48952
▁하는데	-8.49144
▁알게	-8.49352
▁신경쓰	-8.49573
▁간	-8.50099
▁답	-8.50173
▁긴	-8.50344
줄까	-8.50362
▁안되	-8.50476
▁축하	-8.50552
▁여친이	-8.50588
력	-8.50638
▁카페	-8.50669
▁나중에	-8.50672
▁비싸	-8.50673
▁여유	-8.50677
▁어려워	-8.5068
▁주무	-8.50707
▁다행	-8.50752
▁연인	-8.50757
▁됐어	-8.51025
▁벌	-8.51062
식	-8.513
▁나가	-8.51326
▁사귀고	-8.51405
▁가기	-8.51411
▁챙겨	-8.51701
▁힘들지	-8.51731
사람	-8.51743
난	-8.51751
▁사귀는	-8.51756
집	-8.51914
▁뭐야	-8.52218
했으면	-8.52257
▁매	-8.52402
▁먹을	-8.52551
▁코	-8.52838
▁연락하고	-8.52906
았	-8.53213
▁유	-8.53405
▁보면	-8.53406
▁생각할	-8.53572
에요	-8.5367
▁사귀	-8.53757
▁못해	-8.53837
으	-8.53926
▁옷	-8.54089
오네	-8.54336
▁발	-8.5443
▁썸남이	-8.54439
▁받고	-8.54514
▁귀찮아	-8.54515
▁남편이	-8.54515
▁일어나	-8.54525
▁뿐이에요	-8.54529
▁위로	-8.54531
▁괜찮을까	-8.54618
▁차이	-8.54627
▁곧	-8.54665
겠다	-8.54704
▁확실한	-8.54872
▁세상	-8.54991
▁게임	-8.55087
▁관리	-8.55393
▁꿈에	-8.55453
▁책	-8.55629
▁만나지	-8.55808
▁금	-8.56036
▁놀아	-8.56117
▁학	-8.56134
살	-8.56177
매	-8.56399
▁물어	-8.56751
며	-8.56759
▁사랑해	-8.56929
▁여자애	-8.57244
▁법	-8.57357
▁글	-8.57662
▁인정	-8.57693
분	-8.58054
증	-8.58145
▁먹어	-8.58242
▁별	-8.58325
▁복	-8.58423
▁좋아하면	-8.58431
▁맨날	-8.58515
▁받을	-8.58515
▁잠깐	-8.58515
▁최고	-8.58515
▁행동	-8.58515
▁우산	-8.58519
▁얘기	-8.58521
▁약속	-8.58526
▁작은	-8.58551
▁소중	-8.58555
▁자체	-8.58565
▁만났어	-8.58765
▁자신감	-8.58886
▁사랑했던	-8.59016
▁친구한테	-8.59218
▁좋아하게	-8.59964
절	-8.59995
▁힘들게	-8.60114
하려고	-8.60225
답	-8.60233
▁단	-8.60358
나봐	-8.60383
▁많아요	-8.6132
▁운명	-8.61373
▁이별의	-8.61417
▁물어보는	-8.61526
예	-8.61543
▁잡	-8.6159
▁진	-8.61601
▁못하는	-8.61615
이라면	-8.61858
는거	-8.61951
▁살아	-8.62067
▁말이	-8.62361
▁미	-8.62377
▁시	-8.62479
▁곳이	-8.62534
쳐	-8.62539
었나봐요	-8.62581
▁환승	-8.62672
▁맞춰	-8.62682
▁받는	-8.62682
▁생길	-8.62682
▁죽을	-8.62682
▁거짓말	-8.62682
▁설레	-8.62697
▁바쁜	-8.62709
▁같네	-8.62723
▁기회	-8.62731
▁따뜻	-8.6277
▁미리	-8.62803
▁이번	-8.62959
▁뒤	-8.63257
▁망	-8.63314
▁목	-8.63357
▁연락해	-8.63448
▁중요하지	-8.63596
▁온	-8.63842
▁원	-8.63999
▁그녀를	-8.64494
▁없이	-8.64506
물	-8.64756
▁맛	-8.64785
▁안되는	-8.64882
단	-8.64897
는건	-8.64982
▁치	-8.64983
학	-8.65101
▁맛있는	-8.65334
시간	-8.65408
▁놓	-8.65431
리는	-8.65995
▁데	-8.66468
▁상황	-8.66665
▁나오	-8.66782
▁극복	-8.66788
낼	-8.66807
▁편이	-8.67029
▁분위기	-8.67029
▁시험	-8.67036
▁종교	-8.67037
▁알려줘	-8.67042
▁꾸준	-8.67046
더라	-8.67102
▁헤어졌습니다	-8.67103
▁진정	-8.67105
▁못하겠어	-8.67109
▁돌아	-8.67248
▁간다	-8.67292
▁이별후	-8.6734
▁밤	-8.67376
▁짝녀한테	-8.67487
▁장	-8.67819
▁먹으면	-8.68112
▁힘들겠지	-8.6827
▁따	-8.68339
▁양	-8.68356
먹	-8.68443
세	-8.68582
▁바보	-8.68779
▁건지	-8.68837
▁다녀	-8.69075
▁안나	-8.69201
▁돈이	-8.69343
원	-8.69561
▁조	-8.69612
저	-8.69633
▁없네요	-8.6974
반	-8.69833
▁느낌이	-8.69864
▁나서	-8.69958
▁잠이	-8.70226
▁다르	-8.70987
▁것이	-8.71161
▁개	-8.71223
셔	-8.71296
▁않고	-8.71356
▁일을	-8.71409
▁남친이	-8.71448
▁잊지	-8.71565
▁쇼핑	-8.71575
▁싫다	-8.71575
▁잊혀지	-8.71575
▁두려워	-8.71575
▁끝내	-8.71686
▁다를	-8.71842
▁아닐까요	-8.71904
▁봐요	-8.71947
하시	-8.71957
▁시기	-8.72001
▁같습니다	-8.72026
▁받아들이는	-8.7203
▁웃	-8.72032
▁절대	-8.72137
▁인연	-8.72161
▁되네	-8.72208
왔어	-8.72524
▁스타일	-8.72698
▁잊어	-8.72739
하려	-8.72841
▁뭐라고	-8.72849
▁시켜	-8.73024
▁노력하	-8.73116
▁실	-8.73324
▁배	-8.73335
▁영	-8.73764
▁정리하는	-8.73801
▁주는	-8.73818
▁괜찮	-8.73831
건지	-8.73919
온	-8.74444
▁중에	-8.74496
무	-8.74614
▁사랑할	-8.74636
▁즐기	-8.74869
▁확실	-8.75103
졌	-8.75277
▁좋아하	-8.75383
▁능력이	-8.75661
이네	-8.75689
▁오는	-8.75739
들을	-8.75817
름	-8.76111
셨	-8.76135
추	-8.76149
팅	-8.76323
▁뭔지	-8.76337
▁상처받	-8.76337
▁자책하지	-8.76337
▁편지	-8.76337
▁헷갈리	-8.76337
▁고생	-8.76337
▁후련하	-8.76337
▁멋진	-8.76338
▁장난	-8.76364
▁하늘	-8.76377
▁떨려	-8.7643
▁졸	-8.76526
▁서로에	-8.76615
▁대해	-8.77061
▁이제는	-8.77372
▁둘	-8.77511
는지	-8.77757
▁커	-8.77832
▁좋은데	-8.77942
▁아닌지	-8.78133
겠	-8.78317
▁연락해도	-8.78413
▁있지	-8.78514
▁중요하	-8.78612
▁좋아하는데	-8.79104
▁지내	-8.79153
타	-8.79286
▁알고	-8.793
같아	-8.79321
올	-8.79384
망	-8.79475
▁사랑하면	-8.79549
성	-8.79702
크	-8.79998
동	-8.80005
▁이야기해	-8.80682
▁초	-8.80815
▁힘내	-8.80816
런	-8.80892
근	-8.80917
회	-8.81208
칠	-8.81254
▁잊는	-8.81283
짝	-8.81335
케	-8.81336
▁풀어	-8.81337
▁전여친	-8.81337
▁어떡하	-8.8134
했어요	-8.81347
▁경우	-8.81368
▁자연스러	-8.81383
▁문자	-8.81403
▁어려운	-8.81412
▁그리고	-8.81472
▁좋지	-8.81519
이면	-8.81547
▁싸	-8.81588
대요	-8.81598
▁인기	-8.81772
어도	-8.82123
지지	-8.8225
▁좋다	-8.82292
▁숨	-8.82509
▁그대로	-8.82622
▁했어	-8.82901
▁힘들었	-8.8307
▁내려	-8.83194
각	-8.83264
아요	-8.83507
한데	-8.83547
▁괜찮아	-8.83651
▁보지	-8.83708
▁물어봐	-8.83818
보고	-8.83882
왔	-8.84397
▁사랑한다	-8.8446
▁되고	-8.84537
▁말하는	-8.84598
까봐	-8.84689
하나	-8.84704
▁남자들	-8.84821
▁지나	-8.84905
▁그래요	-8.84996
짐	-8.85179
▁후회할	-8.85378
양	-8.85434
겠습니다	-8.8549
▁힘들어요	-8.8586
체	-8.86031
뿐	-8.86434
갑	-8.8645
출	-8.86513
카	-8.86572
락	-8.86588
▁주변	-8.86589
메	-8.86592
병	-8.86595
▁10	-8.866
▁잊을	-8.866
▁자존감	-8.866
덧	-8.866
엔	-8.866
▁기다릴	-8.866
▁무서워	-8.866
▁월급	-8.866
▁어쩔	-8.86601
▁동거	-8.86606
▁썸녀	-8.86734
▁돌	-8.86759
▁해결	-8.86771
▁일주일	-8.8678
▁휴	-8.87069
▁이사	-8.87259
▁하기	-8.87296
▁이상한	-8.87313
▁이러	-8.87325
▁드는	-8.87412
▁좋겠죠	-8.88026
▁미련이	-8.88059
한다	-8.88435
될	-8.88647
▁주면	-8.88889
▁방법이	-8.89394
▁두달	-8.89529
▁가족	-8.89775
▁먹는	-8.89795
바	-8.90022
▁느껴	-8.90253
▁있네요	-8.9033
▁아이	-8.90352
▁변하	-8.90612
▁걸어	-8.9086
할때	-8.90926
▁종	-8.91269
담	-8.91368
하니까	-8.91479
피	-8.91543
▁친구들이	-8.91625
▁질	-8.91717
하니	-8.92062
작	-8.9207
머	-8.9208
박	-8.92089
▁사랑하고	-8.9209
끼	-8.92155
▁로맨틱	-8.92155
▁뭔가	-8.92155
▁있잖아	-8.92155
▁존중	-8.92155
▁스킨십	-8.92156
▁예쁜	-8.92156
▁드디어	-8.92156
▁출근	-8.92157
▁병원	-8.92157
▁프사	-8.92158
▁담배	-8.92161
▁조언	-8.92166
▁취직	-8.92168
▁상담	-8.92175
▁군대	-8.92175
▁오빠	-8.92196
고싶어	-8.92212
▁인사	-8.92229
▁여러	-8.92232
▁원래	-8.9227
▁안들어	-8.92312
▁않는다면	-8.92313
▁짜증나	-8.92315
▁배려	-8.92331
▁소개	-8.92386
▁듣	-8.92429
붙	-8.92492
▁싫은	-8.9253
버리세요	-8.92592
▁노력해	-8.92838
▁직	-8.92876
▁놓아	-8.93046
▁자신에게	-8.93276
▁사랑한	-8.93363
▁어렵	-8.93396
▁성	-8.93525
▁기다리는	-8.93652
▁쉬어	-8.93718
▁울	-8.93909
▁전남친	-8.94205
▁여자애가	-8.94313
▁공	-8.94492
▁것보다	-8.9502
▁여	-8.95418
▁번호	-8.95549
▁이해해	-8.95739
▁친구들	-8.9577
▁본	-8.9578
▁우울	-8.9594
별	-8.96092
▁부담	-8.96158
연	-8.9639
야할	-8.96454
▁사랑해주	-8.96491
▁꾸	-8.96698
직	-8.9692
친	-8.97097
드리	-8.97245
남	-8.97343
이라는	-8.97372
▁좋겠지	-8.9744
급	-8.97501
▁세상에	-8.97515
▁말씀해	-8.97528
미	-8.97601
꺼	-8.97749
결	-8.97818
▁여자들	-8.97907
▁칭찬	-8.97909
▁감정이	-8.97936
움	-8.97942
션	-8.98037
▁싶지	-8.98038
▁옆에	-8.98038
▁최선	-8.98038
김	-8.98038
놈	-8.98038
론	-8.98038
▁적극적	-8.98039
▁발표	-8.98041
▁지났네	-8.98048
▁화장실	-8.98092
▁대학	-8.9811
▁착각	-8.98129
▁보고싶어	-8.98146
▁본인	-8.98213
▁취	-8.98425
▁그사람	-8.98452
▁해보는	-8.98458
하던	-8.9846
▁않을까요	-8.98469
▁보러	-8.98471
해줘	-8.98936
▁뭐라	-8.98977
▁사람이네요	-8.99014
▁커플	-8.99104
▁허	-8.99126
▁후회하지	-8.99167
▁복잡하	-8.99197
▁일상	-8.99298
▁노력	-8.99557
▁괜찮을	-8.99767
▁달라지는	-8.99856
▁사람에	-9.00185
▁타고	-9.0056
▁성공	-9.00645
▁않으	-9.0076
▁나랑	-9.01163
▁속이	-9.01242
▁하셨	-9.01339
▁폰	-9.01641
▁사람에게	-9.01699
▁연락하는	-9.02163
▁다음	-9.02491
▁잊고	-9.02493
▁상황이	-9.02753
▁키	-9.02904
▁연락하면	-9.02913
줬	-9.03027
▁네	-9.03117
▁믿어	-9.03217
▁재미있	-9.03257
▁끝을	-9.03365
▁그녀가	-9.03756
▁만났	-9.038
감이	-9.04055
▁만나자	-9.04099
▁짝사랑하는	-9.041
쳤	-9.04226
▁주말	-9.0423
재	-9.04231
▁자연스	-9.04253
▁SNS	-9.04288
▁귀엽	-9.04288
▁무섭	-9.04288
▁버텨	-9.04288
▁생기	-9.04288
▁저녁	-9.04288
▁존재	-9.04288
됨	-9.04288
땐	-9.04288
▁부담스럽	-9.04296
화	-9.043
▁비밀	-9.04302
복	-9.04319
▁어플	-9.04322
기는	-9.04324
너	-9.04345
▁발전	-9.04347
▁바빠	-9.0436
▁상사	-9.04368
▁괜찮아질	-9.04385
▁축하해요	-9.04392
▁감사	-9.04418
짓	-9.0442
잔	-9.0444
년째	-9.04494
▁심해	-9.04498
▁올려	-9.04533
▁있으니까	-9.04538
▁키우	-9.04548
▁헤어졌어	-9.0458
▁성격이	-9.04602
▁버	-9.04724
▁지우	-9.04749
▁크	-9.04867
▁상	-9.04896
▁그런가봐요	-9.04988
▁이어	-9.0511
▁꿈이	-9.05287
▁좋아할까	-9.05293
▁하다보	-9.05348
▁아는데	-9.05548
▁시작이	-9.05622
▁안하고	-9.05641
▁사랑하는데	-9.0583
▁있었	-9.05943
▁계	-9.06038
말고	-9.06052
▁만나면	-9.06222
▁등	-9.06307
▁상황을	-9.06392
▁봅니다	-9.06473
았어	-9.06652
▁버려	-9.0672
▁생각만	-9.06862
거리	-9.07314
▁생겼어	-9.07477
▁확인	-9.07674
버리	-9.07718
▁쉬는	-9.08152
▁생각하는	-9.08284
을지도	-9.08288
▁생일	-9.08513
▁준	-9.09072
▁생각나네	-9.093
▁스	-9.09315
▁떠	-9.09331
시다	-9.09459
지요	-9.09556
▁붙잡	-9.09752
▁순	-9.09773
었던	-9.09905
구나	-9.10241
▁행복하	-9.10449
▁쓰레기	-9.10475
▁부분	-9.10588
능	-9.1068
침	-9.108
▁미워	-9.10846
▁적응	-9.10899
레	-9.10929
▁모아	-9.10954
▁바뀔	-9.10954
▁쓰는	-9.10954
▁오랜만에	-9.10954
▁헤아리	-9.10954
▁현상이에요	-9.10954
▁냄새	-9.10955
▁도서관	-9.10955
▁부족한	-9.10955
▁적당히	-9.10955
▁마주치	-9.10955
▁채워	-9.10956
▁취미	-9.10961
▁질투	-9.10965
▁새벽	-9.10976
▁장거리	-9.10977
▁청소	-9.1098
▁휴식	-9.10982
▁학원	-9.10986
▁지쳐	-9.11051
▁답장	-9.1106
▁용기내	-9.11067
▁미래	-9.11094
▁눈치	-9.11255
놓고	-9.1128
▁사실	-9.11343
▁위로해	-9.1142
초	-9.11439
위	-9.11446
▁어쩌지	-9.11447
▁답답	-9.11451
▁해줘	-9.11484
고싶다	-9.11514
명	-9.11519
▁지나갈	-9.11523
▁이상형	-9.11538
▁이상해	-9.11554
▁돌아오	-9.11661
▁빼	-9.11685
▁뿌	-9.11685
됐어	-9.11787
▁없으면	-9.11824
▁저에게	-9.11967
▁여자친구와	-9.11972
▁괜찮아졌	-9.12192
▁시작해보세요	-9.1223
▁여기	-9.12248
▁잘해주	-9.12284
▁헤어져야	-9.12319
▁행복한	-9.12349
▁배워	-9.1259
▁비가	-9.12994
라면	-9.13013
▁되면	-9.13087
▁쓸	-9.13126
▁방	-9.13267
▁모르겠네	-9.13357
하자	-9.13361
▁나을	-9.13536
▁슬	-9.13592
했나봐	-9.13614
▁심하	-9.13678
▁고치	-9.13796
▁필요할	-9.139
▁호감이	-9.14088
▁못하고	-9.14104
▁보기	-9.14125
▁언젠가	-9.14235
▁눈에	-9.14335
▁혼자만	-9.14452
▁선택일	-9.14729
가슴이	-9.14752
이라고	-9.1481
하길	-9.15036
▁남았	-9.15223
▁시원	-9.15672
▁우	-9.15772
▁갈까	-9.15841
▁전해	-9.16147
▁밖에	-9.16435
▁떨	-9.16723
먹기	-9.17015
버렸	-9.17372
▁가능하	-9.17444
인가봐	-9.17651
프	-9.17968
▁아닐	-9.17968
▁집중	-9.17972
필	-9.18004
▁졸업	-9.18075
품	-9.18085
월	-9.18091
충	-9.18093
숙	-9.18094
▁데려다	-9.18095
창	-9.18095
극	-9.18096
특	-9.18097
▁나눠보	-9.18097
▁편할	-9.18097
▁다이어트	-9.18097
▁받지	-9.18097
▁빌려	-9.18097
▁완벽	-9.18097
▁퇴근	-9.18097
▁무서운	-9.18101
▁슬퍼	-9.18103
▁결심	-9.18103
▁음식	-9.18104
▁멋있	-9.18106
▁결과	-9.18107
▁당당하	-9.18109
▁꿨어	-9.18116
▁소화	-9.18127
▁가능성	-9.18132
▁차별	-9.18148
▁만드	-9.18152
▁불러	-9.18247
▁친구들과	-9.1825
▁의사	-9.18252
▁지워	-9.18269
▁결혼식	-9.18273
▁만났는데	-9.18278
▁한잔	-9.18282
▁돌려	-9.18294
▁안경	-9.18324
▁쐬	-9.18385
▁크리스마스	-9.18385
▁좋을텐데	-9.18507
▁연	-9.18525
▁따로	-9.18566
난다	-9.18628
▁말씀해보세요	-9.18724
▁건가	-9.18736
▁피해	-9.18797
해줄	-9.18889
조	-9.18945
▁붙잡고	-9.18958
▁기운	-9.18983
키	-9.19107
글	-9.19123
▁생각나는	-9.19185
종	-9.19245
순	-9.1928
렸	-9.19291
▁무엇이	-9.19318
▁용	-9.19335
▁들어가	-9.19424
보여	-9.19723
▁꿈에서	-9.1976
▁어디서	-9.20001
▁베	-9.20005
▁없지	-9.20717
▁않으면	-9.20721
▁헤어졌	-9.20768
▁착	-9.20882
▁톡	-9.20962
▁되기	-9.21122
▁했던	-9.21265
왔네	-9.2137
기만	-9.2142
▁생각하지	-9.2146
▁이거	-9.21466
▁충전	-9.21669
▁곳에	-9.2206
▁보냈	-9.22235
으니까	-9.22568
하러	-9.22721
▁모르겠	-9.22808
▁슬프	-9.23012
▁달라	-9.23014
▁응원	-9.23661
▁그렇지	-9.2395
▁못했	-9.23994
▁추억이	-9.24201
▁도와	-9.24219
▁떨어	-9.24292
▁썸타는	-9.24428
▁놀러	-9.24428
▁무엇	-9.24488
▁매력	-9.24587
▁흐르	-9.24975
▁명	-9.25024
▁마셔	-9.25036
▁있고	-9.25044
▁뜻	-9.25382
었다	-9.25514
립	-9.25517
▁표현해	-9.25541
교	-9.25585
하거나	-9.25632
웠	-9.25706
▁자격	-9.25769
색	-9.25778
찬	-9.25788
▁기념일	-9.2579
▁마스크	-9.2579
▁많죠	-9.2579
▁맞았	-9.2579
▁면접	-9.2579
▁문득	-9.2579
▁미세먼지	-9.2579
▁앞으로	-9.2579
▁연예인	-9.2579
▁평소	-9.2579
옴	-9.2579
▁많을	-9.2579
▁벗어나	-9.2579
▁심호흡	-9.2579
▁목소리	-9.2579
▁그리워	-9.25791
▁인형	-9.25806
▁우연	-9.25807
▁잊어버리세요	-9.25813
▁외로워	-9.25815
▁분명	-9.2582
▁떨어졌어	-9.2582
▁원망	-9.25821
▁언제쯤	-9.25822
▁버스	-9.25836
▁동물	-9.25847
▁은근	-9.25869
▁연락처	-9.25882
▁지쳤나봐요	-9.2589
▁인간	-9.25906
▁그랬	-9.25907
▁헤어졌는데	-9.25957
▁걱정되	-9.26007
▁치과	-9.26048
▁없애	-9.26076
▁잤	-9.26102
▁한동안	-9.26157
▁친구로	-9.26165
▁떨리	-9.26214
▁어울리	-9.26309
▁추천해	-9.26358
▁잘해줘	-9.26364
▁그동안	-9.26374
▁걱정하지	-9.26389
했네	-9.26455
▁웃어	-9.2653
▁힘든가	-9.26681
리기	-9.26699
▁드시	-9.26833
▁못할	-9.26883
▁흘렀네	-9.26904
▁듣고	-9.26916
▁크게	-9.26954
▁다르겠지	-9.27037
▁있겠지	-9.27071
거같아	-9.2709
▁방학이	-9.27166
▁틀	-9.27202
▁살까	-9.27212
하다가	-9.27222
유	-9.27237
불	-9.27255
▁과정	-9.27317
▁거울	-9.27335
꾸	-9.27374
터	-9.2738
▁나온	-9.27406
▁사과	-9.27448
탈	-9.27563
파	-9.27624
좀	-9.27641
▁없는데	-9.27645
▁집착	-9.2768
▁없나	-9.27734
▁선물이	-9.27972
▁집에서	-9.2826
▁울어	-9.28272
▁짝사랑이	-9.28575
봤어	-9.28685
났어	-9.28706
먹고	-9.28826
▁싸우	-9.28838
이별	-9.29564
▁살아야	-9.29654
▁주고	-9.29805
▁왔는데	-9.29841
▁까먹었	-9.29932
▁산	-9.30037
▁다니	-9.30201
▁독	-9.30218
으니	-9.30543
달째	-9.30787
이란	-9.30823
들에게	-9.3116
▁솔직하	-9.3144
▁해서	-9.31468
▁청	-9.31557
▁사야	-9.31561
▁것들	-9.31586
▁알려	-9.31612
▁소식이	-9.31646
▁받으	-9.31981
년이	-9.32268
▁주지	-9.3247
▁부모님이	-9.3272
▁끝났	-9.32851
뻔	-9.32858
▁좋았	-9.32888
▁썸이	-9.33019
▁몰라	-9.33062
녀	-9.33221
▁만남이	-9.33483
▁배우	-9.33607
▁성격	-9.33701
▁아프네	-9.33768
▁돌아가	-9.33776
▁삭제	-9.33905
님	-9.34033
▁불편	-9.34058
▁잊으	-9.34073
되는	-9.34083
패	-9.34101
덕	-9.34115
염	-9.34122
▁계획	-9.34123
▁긍정적	-9.34123
▁똑같은	-9.34123
▁지나갔	-9.34123
▁짧은	-9.34123
▁취업	-9.34123
▁편한	-9.34123
곰	-9.34123
둬	-9.34123
링	-9.34123
쪽	-9.34123
토	-9.34123
▁마무리	-9.34123
▁판단	-9.34124
▁클럽	-9.34124
▁음악	-9.34125
고싶은데	-9.34125
▁역시	-9.34129
▁느려	-9.3413
▁시계	-9.34135
▁귀여워	-9.3414
▁주변에	-9.34143
▁미친	-9.34152
▁사귄	-9.34155
▁진급	-9.34157
▁떠난	-9.34184
▁자유	-9.3419
▁통보	-9.34221
▁보고싶다	-9.34253
▁지난	-9.3426
▁회사에	-9.34317
▁인상	-9.34348
▁의심	-9.34405
▁전부	-9.34407
▁차분	-9.34586
▁참아	-9.34659
▁결정이었을	-9.34699
▁것을	-9.34711
차근	-9.34715
▁않네	-9.34736
느라	-9.34777
▁증거	-9.34838
▁인생이	-9.3486
▁궁금하네	-9.34947
▁나올	-9.34948
▁부러워요	-9.35042
▁철	-9.35053
▁거절	-9.35093
할텐데	-9.35095
▁왔다	-9.35242
▁나왔어	-9.35263
▁타는데	-9.35292
▁이건	-9.35407
▁이별에	-9.35547
▁되는데	-9.35609
▁자리	-9.3562
▁저한테	-9.35747
▁깊	-9.3582
못	-9.35912
더	-9.35914
▁만들어보세요	-9.3598
밖에	-9.36098
▁있지만	-9.36175
버	-9.36255
▁솔직	-9.36454
▁오해	-9.36554
▁찾아가	-9.36563
법	-9.3658
볼	-9.36601
▁휴가	-9.36651
배	-9.36665
새	-9.36668
청	-9.36669
▁팔	-9.36672
돈	-9.36704
▁소식	-9.36727
2	-9.36814
한다면	-9.36847
▁사랑해서	-9.36856
▁놀고	-9.36905
▁좋아한다	-9.36933
▁거야	-9.36939
준비	-9.37038
▁연락하지	-9.37114
지네	-9.37497
인듯	-9.37632
▁안와	-9.37863
▁중요	-9.3791
▁가까	-9.38011
인거	-9.38056
▁포기	-9.38224
었길	-9.38253
▁넘었	-9.38283
잡고	-9.38352
전에	-9.38388
▁내리	-9.38433
▁성공하	-9.3883
▁말할	-9.3891
▁해주는	-9.38919
야하나	-9.39281
하나봐	-9.39586
▁외	-9.39683
▁생활	-9.40036
▁몰랐	-9.40141
록	-9.40631
▁기본	-9.40786
▁입어	-9.40787
▁잊어야	-9.4081
▁터	-9.40904
▁고민하	-9.41095
▁드네	-9.41136
될까	-9.41268
▁자세	-9.41381
▁방학	-9.41631
▁다리	-9.41719
▁사람이에요	-9.41944
테	-9.42001
▁놓아주	-9.4202
▁처음에	-9.4203
▁됐	-9.42035
▁공부하	-9.42401
플	-9.42898
더라고요	-9.43033
역	-9.43096
졌으면	-9.43112
골	-9.43174
▁아름다	-9.43182
벽	-9.43185
언	-9.43186
께	-9.43204
▁재	-9.43209
▁괴롭	-9.43214
▁냉장고	-9.43214
▁됩니다	-9.43214
▁많지	-9.43214
▁봄이	-9.43214
▁시어머니	-9.43214
▁잊혀질	-9.43214
▁흔적	-9.43214
▁희망	-9.43214
▁이겨내	-9.43214
▁이겨낼	-9.43214
▁집안일	-9.43214
▁현재	-9.43214
▁근처	-9.43215
▁축구	-9.43217
▁추워	-9.43218
▁취향	-9.4322
▁알면서도	-9.43222
▁선톡	-9.43229
▁비교하	-9.4323
▁스키	-9.43232
▁환승이별	-9.43235
▁왔	-9.43247
▁조절	-9.43256
▁친한	-9.4326
▁소원	-9.43269
▁자고	-9.43283
▁온전	-9.43294
▁소문	-9.43301
▁진실	-9.43301
▁막말	-9.43302
▁예민한	-9.43328
▁끝난	-9.43332
▁라면	-9.43333
▁찾아올	-9.43341
▁긴장	-9.43377
▁됐으면	-9.43384
▁피부	-9.434
▁제발	-9.43408
해졌	-9.43416
▁반대	-9.4343
▁상상	-9.43451
▁늘어	-9.43459
▁복잡한	-9.43464
▁외로	-9.4348
▁고통	-9.43511
▁적어보세요	-9.43528
렸어	-9.43541
▁관심사	-9.43557
▁개인	-9.43564
▁챙겨드	-9.43565
▁안됐는데	-9.43576
▁쓴	-9.43588
▁걸릴	-9.43656
▁내려놓	-9.43723
▁가능할	-9.43765
▁중간	-9.43785
▁안하는	-9.43808
▁인	-9.43902
냐고	-9.43946
▁많은데	-9.43955
▁마련	-9.44071
조차	-9.44094
대체	-9.44104
▁태도	-9.4416
▁생겼네	-9.44255
▁놓고	-9.44354
▁담	-9.44367
봤는데	-9.44391
조건	-9.44621
하고싶어	-9.44722
▁통해	-9.44748
▁행복하게	-9.44839
▁안전	-9.44847
▁짐	-9.44896
▁괜찮아지	-9.44964
▁저도요	-9.45104
▁믿음이	-9.45145
▁피곤해	-9.45237
▁알아보	-9.45259
▁답답한	-9.45569
▁쉬어가	-9.45796
▁힘들었을	-9.45884
▁향	-9.45889
▁미치겠	-9.45973
영	-9.46057
▁있다는	-9.46145
▁사귀어	-9.46181
생활	-9.46328
갈까	-9.46407
외	-9.4647
본	-9.46517
▁찍	-9.46593
친구	-9.46608
버려	-9.46733
밥	-9.46812
▁분이	-9.46823
▁살기	-9.46924
▁놔	-9.46947
▁죄	-9.46947
▁말해주	-9.4708
▁사고	-9.47641
▁썸타	-9.48289
▁놀이	-9.4829
▁남들	-9.48333
▁주말이	-9.48997
지면	-9.49115
▁보니	-9.49146
▁궁금	-9.49575
▁봤	-9.49642
▁견디	-9.49697
▁그러게	-9.50048
▁맘에	-9.50145
리가	-9.50237
형	-9.5027
▁먹었	-9.50582
▁없어서	-9.50916
봐도	-9.50944
▁끝인	-9.51474
▁알았	-9.51565
▁흘렀	-9.51767
▁어서	-9.51918
▁마련이	-9.52106
▁부러워	-9.52159
▁반복	-9.5248
빠	-9.52558
늘	-9.52658
▁걱정이	-9.5269
▁후회하	-9.52705
▁변	-9.52706
행	-9.52787
▁짜증	-9.5288
▁여행가	-9.52908
노	-9.52923
러워	-9.52928
포	-9.52946
▁짓	-9.52998
관	-9.5314
량	-9.53159
쯤	-9.53171
짜	-9.5319
턴	-9.53193
스러운	-9.53195
떡	-9.53206
석	-9.53209
채	-9.53212
끌	-9.53213
페	-9.53213
효	-9.53214
▁갔다	-9.53214
▁기분전환	-9.53214
▁딸기	-9.53214
▁벚꽃	-9.53214
▁쓰고	-9.53214
▁아무렇지	-9.53214
▁잊기	-9.53214
▁청첩장	-9.53214
▁페북	-9.53214
▁편해	-9.53214
▁하루하루	-9.53214
▁휴대폰	-9.53214
껏	-9.53214
닉	-9.53214
▁멈추	-9.53214
▁배고파	-9.53214
▁억지로	-9.53214
▁아까워	-9.53214
▁밀당	-9.53215
▁이별통보	-9.53215
▁교회	-9.53215
▁누군가	-9.53217
▁맥주	-9.53217
▁산책	-9.53219
▁목표	-9.53219
▁만나기로	-9.53223
▁행운	-9.53224
▁변명	-9.53225
▁고마워	-9.53225
▁찾기	-9.53226
▁부탁해	-9.53229
▁가벼	-9.5323
▁야근	-9.53242
▁부럽네	-9.53243
▁불행	-9.53243
▁단단	-9.53263
▁맛난	-9.53266
▁보험	-9.53274
스럽	-9.53279
▁여전	-9.533
▁아빠	-9.53301
▁다녀오세요	-9.53301
▁향수	-9.53303
▁실망	-9.53325
▁있으니	-9.53339
▁바꾸	-9.53366
▁집들이	-9.53374
▁빠지	-9.53406
▁필요하다면	-9.53406
▁달달	-9.53409
▁공시	-9.53419
▁노래방	-9.5342
▁이성으로	-9.53423
▁어린	-9.53423
▁이불	-9.53469
▁잡아	-9.53504
셨나봐	-9.53566
▁봐도	-9.53598
▁과거	-9.536
▁과일	-9.5361
▁궁금하	-9.53612
▁넌	-9.5363
▁잠수	-9.53672
▁없겠지	-9.53773
▁사소	-9.53785
▁지금처럼	-9.53817
▁부분이	-9.53888
▁글로	-9.53974
▁어려	-9.53988
▁헤어지자고	-9.54084
▁무시하	-9.54085
년간	-9.54105
▁깊은	-9.54188
▁느끼는	-9.54235
▁올라	-9.5431
이라니	-9.54353
▁사정	-9.54362
▁문	-9.54365
▁놀러가	-9.54419
▁신나	-9.54472
▁사랑한다면	-9.54481
▁호	-9.54505
냈어	-9.54557
▁신고하	-9.54564
▁드릴	-9.54664
▁없겠네요	-9.54688
▁사귀기	-9.54712
▁무리	-9.5488
▁더워	-9.54893
▁습관이	-9.55014
▁함	-9.55039
▁꿀	-9.55097
됐는데	-9.55226
▁남을	-9.55233
▁아프네요	-9.55354
▁고백하는	-9.55406
▁때문이	-9.55457
▁한다	-9.5554
▁있을거예요	-9.55788
▁됐네	-9.55874
▁했나	-9.5603
▁둘이	-9.56137
▁지나가	-9.56293
▁들어와	-9.56354
▁배우는	-9.56434
▁알면	-9.56457
▁상처를	-9.56475
건데	-9.56479
▁그것	-9.56531
기적	-9.56633
▁이름이	-9.56802
▁힘들어서	-9.56836
▁도와주	-9.56904
▁헤어지면	-9.57093
▁살아가	-9.57137
입	-9.57383
▁건강에	-9.57453
설	-9.57497
▁중인	-9.57621
폰	-9.57686
번호	-9.57704
코	-9.57749
곳	-9.57794
린다	-9.57831
방법	-9.57924
어서	-9.57932
▁생각이에요	-9.57953
남자	-9.58007
▁입을	-9.58256
▁좋으면	-9.58699
와서	-9.59066
두고	-9.59099
▁자신만	-9.59161
▁남기	-9.59234
▁상대에	-9.59323
헤어졌네	-9.59343
▁답답해	-9.59377
리고	-9.5939
▁거니	-9.59501
▁자신에	-9.59684
▁한달이	-9.59685
▁타다	-9.5973
진다	-9.59832
▁부담스러워	-9.5998
▁선생님	-9.59986
▁무시	-9.6011
▁몸에	-9.60347
▁행복할	-9.60718
▁기다리면	-9.60965
▁했으면	-9.61088
▁타이밍	-9.62056
▁과	-9.62064
▁찾아오	-9.62102
▁바꿔	-9.6225
▁과정이	-9.62252
▁나왔	-9.62865
▁심심	-9.6297
▁선택이	-9.63058
느	-9.63344
▁이상형이	-9.63379
▁두고	-9.6348
▁간절	-9.63852
▁헤어지자	-9.63928
쁘	-9.64203
환	-9.64216
씨	-9.64244
례	-9.64261
민	-9.64275
겁	-9.64304
얘	-9.64308
빨	-9.64312
축	-9.64314
판	-9.64324
▁권태기	-9.64325
▁무덤덤해	-9.64325
룩	-9.64325
콩	-9.64325
▁sns	-9.64325
▁곁에	-9.64325
▁공무원	-9.64325
▁맞나	-9.64325
▁맞아	-9.64325
▁맞추	-9.64325
▁빌어	-9.64325
▁빼빼로	-9.64325
▁스트레칭	-9.64325
▁외모	-9.64325
▁최악	-9.64325
▁콩깍지	-9.64325
▁프로포즈	-9.64325
▁힘듭니다	-9.64325
값	-9.64325
깜	-9.64325
널	-9.64325
둔	-9.64325
릿	-9.64325
빛	-9.64325
액	-9.64325
짠	-9.64325
탕	-9.64325
툰	-9.64325
▁읽어보	-9.64325
▁고맙다	-9.64325
▁혹시	-9.64326
▁그리움	-9.64326
▁드라마	-9.64326
▁차라리	-9.64326
▁위로봇	-9.64326
▁회원	-9.64327
▁허전하	-9.64328
▁심경	-9.6433
▁어색해	-9.6433
▁나쁘지	-9.64331
▁투자	-9.64331
▁깨끗	-9.64331
▁겨울	-9.64333
▁골라	-9.64337
▁개강	-9.6434
▁각자	-9.64341
▁만족	-9.64341
▁일어났	-9.64354
▁명절	-9.64356
▁의외	-9.64365
▁계절이	-9.6437
▁과식	-9.64374
았는데	-9.64397
▁헤어질	-9.64398
▁기다렸	-9.64405
▁다음부터	-9.64409
▁전공	-9.64409
▁배울	-9.64411
▁전환	-9.64415
▁태	-9.64416
▁달라진	-9.64439
▁성적	-9.64442
▁소비	-9.64447
▁두번	-9.64464
▁지칠	-9.64465
▁초대	-9.64513
▁이성	-9.64546
줘야	-9.64614
▁꼬	-9.6468
▁들었어	-9.6469
▁공감	-9.64841
▁별거	-9.64896
▁그녀에게	-9.64934
▁극복할	-9.64966
▁정상	-9.65002
▁아니니까요	-9.65009
▁줄여	-9.65117
▁나타	-9.65124
▁고백해도	-9.65158
▁주말에	-9.65184
▁표현하는	-9.65255
▁연락하	-9.65288
▁가능해요	-9.65398
만으로	-9.65443
▁끝났어	-9.65644
맥이	-9.65753
▁그럴까	-9.65961
▁가능한	-9.65969
▁능력	-9.65976
▁생각한	-9.6601
▁썸인가	-9.66174
▁받으면	-9.66209
▁집착하	-9.66244
하긴	-9.66265
▁결혼할	-9.66409
▁지치	-9.66436
▁싸움	-9.66473
▁연애에	-9.66555
▁타이밍이	-9.66647
▁맘이	-9.66655
▁나을까	-9.66809
▁영화보	-9.66942
▁남사친이	-9.67007
▁좋지만	-9.67047
▁직접적	-9.67056
▁미안해	-9.67092
▁않는데	-9.67272
▁푸	-9.67289
▁차리	-9.67353
▁응원해	-9.67539
▁남자랑	-9.67752
오면	-9.67795
▁생각에	-9.67868
▁애들	-9.67947
줬으면	-9.68158
봐야	-9.68163
▁아프지	-9.68261
▁떨어지	-9.68273
거려	-9.68291
됐	-9.68538
▁일하는	-9.68654
줬는데	-9.6867
해주는	-9.68935
▁먹으	-9.68955
▁절	-9.68983
▁말까	-9.68992
▁가족이	-9.69184
▁표현이	-9.69261
▁없었	-9.69324
경	-9.69468
▁이해가	-9.69708
독	-9.69709
▁안되겠지	-9.69772
취	-9.69842
▁상태	-9.69869
잡	-9.69954
▁취해	-9.6999
▁좋아해요	-9.70018
▁달라고	-9.70056
공	-9.70098
산	-9.70099
척	-9.70178
둘	-9.70216
맛	-9.70234
티	-9.70255
끝	-9.7029
만해도	-9.70298
▁사이에	-9.70306
덜	-9.70392
따라	-9.70439
▁생긴	-9.70463
▁깔끔	-9.70517
져요	-9.70654
▁길어	-9.70668
▁까먹	-9.70685
치고	-9.70848
▁내보세요	-9.70968
▁좋아하나	-9.71052
▁맛있어	-9.71097
▁우선	-9.7129
▁같다	-9.71322
지내고	-9.71395
▁상대방에	-9.71611
각이	-9.71778
▁혼자서	-9.7181
▁으	-9.7183
었나봐	-9.71847
▁인정해	-9.72011
▁싸우면	-9.7243
▁챙겨주	-9.72793
셨나	-9.72828
▁째	-9.73022
▁당황	-9.73038
개월이	-9.73052
▁마음으로	-9.73358
▁없을까	-9.73765
려나	-9.73943
▁생각하면	-9.73977
▁준비하는	-9.74024
년의	-9.74054
해줬	-9.74166
▁믿음	-9.74184
▁헤어	-9.74766
▁디	-9.7504
▁서운	-9.7517
속에서	-9.75206
이었으면	-9.75332
▁반지	-9.75486
▁속에	-9.75511
리를	-9.75558
▁오면	-9.75567
▁어쩌	-9.7589
▁같지	-9.75948
▁달라지	-9.7607
▁피곤한	-9.76158
▁흔들리지	-9.762
▁영원	-9.76398
뜨	-9.76456
▁신청	-9.76459
투	-9.76542
▁따뜻하	-9.7655
봅	-9.7659
흘	-9.76684
먼	-9.76763
▁지쳤	-9.76784
탁	-9.76804
콜	-9.76816
궁	-9.76823
클	-9.76824
찰	-9.76824
▁싱숭생숭	-9.76825
꼼	-9.76825
땅	-9.76825
탔	-9.76825
▁낫겠	-9.76825
▁맞을까	-9.76825
▁머릿속	-9.76825
▁메모	-9.76825
▁샤워	-9.76825
▁앞머리	-9.76825
▁우선순위	-9.76825
▁자괴감	-9.76825
▁죽겠	-9.76825
▁택배	-9.76825
듬	-9.76825
뚝	-9.76825
빵	-9.76825
왤	-9.76825
킁	-9.76825
푼	-9.76825
햇	-9.76825
▁의미부여	-9.76825
▁태어난	-9.76825
▁핑계	-9.76825
▁나아졌	-9.76826
▁특별	-9.76827
▁중국어	-9.76827
▁노후	-9.76827
▁센스	-9.76827
▁빠르	-9.76827
▁흘러	-9.76829
▁경쟁	-9.7683
▁가치관	-9.76831
▁나아질	-9.76832
▁언니	-9.76834
▁솔로	-9.76836
▁잠수이별	-9.76837
▁단계	-9.76838
▁점심시간	-9.76838
▁애매하	-9.76841
▁작아	-9.76842
▁외로움	-9.76844
▁에휴	-9.76848
▁두근거리	-9.76849
▁싸웠	-9.76851
▁놀랐	-9.76853
▁프로	-9.76857
▁성별	-9.76859
▁거기까지였	-9.7686
▁기술	-9.76863
▁선배	-9.76866
▁이기적인	-9.76872
▁돌아올	-9.76872
▁매너	-9.76872
▁멋지	-9.76879
▁다양하	-9.76881
▁친해지는	-9.76881
▁버릴	-9.76885
▁먼지	-9.76886
▁헤어지는	-9.7689
▁물리적	-9.76903
▁싸워	-9.76907
▁힘드시	-9.76907
교통	-9.76909
▁떨어져	-9.76912
처리	-9.76929
▁공통	-9.76944
▁어머	-9.76946
▁아플	-9.76948
꼬박	-9.76953
▁잊는다는	-9.76966
▁이루어	-9.76983
▁고쳐	-9.76986
▁좋아해주는	-9.76994
▁기원	-9.77004
▁주식	-9.77005
▁잘못된	-9.7701
▁심리	-9.77021
▁마련이에요	-9.77059
▁왔으면	-9.77086
▁있더라고요	-9.77105
▁싫어하는	-9.77116
▁화내	-9.77124
▁이용해	-9.77126
▁보낼	-9.77143
▁뿐이	-9.77189
▁가족들	-9.77269
▁이직	-9.77277
▁그립	-9.7728
▁성공할	-9.77341
▁있었으면	-9.77347
▁꺼	-9.77353
▁9	-9.77359
▁이용	-9.7746
▁생각했나봐	-9.77487
▁생겼으면	-9.77494
▁바다	-9.7753
▁지진	-9.77587
▁유지하	-9.77609
▁누구에게	-9.77609
▁들여	-9.77625
▁아니지만	-9.77641
▁부자	-9.7767
▁허리	-9.77702
▁마다	-9.77715
▁찍어	-9.77717
▁너에게	-9.77724
▁사랑했나봐	-9.77815
▁하던	-9.77843
▁예민해	-9.77861
▁후회해	-9.77882
▁여사친이	-9.77898
▁위기	-9.7793
▁급	-9.77953
▁잘했어요	-9.78013
▁생각했는데	-9.78158
래요	-9.78202
▁마셔야	-9.78269
▁새해	-9.78302
다가도	-9.78303
▁당연	-9.7859
▁어찌	-9.78858
▁안부	-9.78877
▁여자친구에게	-9.78881
▁서운하	-9.78965
▁알았어	-9.79095
왔는데	-9.79115
영상	-9.79207
▁찌	-9.79245
▁가사	-9.79266
었으면	-9.79494
▁정확	-9.79753
▁경험이	-9.79805
▁포기하	-9.79994
▁잘못인	-9.80099
▁시키	-9.80257
했지만	-9.80372
▁기본이	-9.80408
▁모르게	-9.80431
▁사라	-9.80537
▁많아서	-9.80793
▁노력하는	-9.80945
▁있었나	-9.81022
당했	-9.81026
▁운명이	-9.81052
▁카드	-9.81197
▁시원하	-9.81421
간다	-9.81618
▁슬프네	-9.81651
▁우울해	-9.8167
▁늦은	-9.81734
▁면도	-9.81761
▁아침이	-9.81953
▁선생님이	-9.8198
▁파도	-9.82054
▁괜찮다	-9.82111
▁해야할지	-9.82142
▁살았	-9.82395
▁뭐하는	-9.82484
▁시작해	-9.82761
▁어장	-9.82856
▁이해해주	-9.83005
▁해야할까	-9.83154
였나	-9.83163
봤	-9.83273
▁속도	-9.83276
강	-9.83819
▁경	-9.83853
어보고	-9.83854
▁나에게	-9.83927
따	-9.84364
착	-9.84375
속	-9.84443
넘	-9.84527
연애	-9.84544
맘	-9.8459
또	-9.84623
▁답답할	-9.84655
▁무너	-9.84714
▁올해	-9.84788
▁위험	-9.84892
▁사귀면	-9.84995
▁가는데	-9.85199
하셨	-9.8534
이니	-9.85394
▁당연하	-9.85456
▁장소	-9.85542
▁답이	-9.85689
▁있네	-9.8613
함이	-9.86195
해보고	-9.86433
해줬으면	-9.86695
▁야경	-9.86716
▁재밌는	-9.868
▁하는건	-9.86865
되겠지	-9.86932
▁피곤	-9.86958
▁남은	-9.87139
▁어렵네	-9.87891
▁이별했	-9.88366
바이	-9.88928
▁끝일	-9.88933
▁기간	-9.89074
▁받아들여	-9.90049
▁어떨까	-9.90138
▁아닐까	-9.90299
▁지내는	-9.90427
▁좋아하지	-9.9053
처	-9.90791
들어	-9.90794
▁여기까지	-9.90802
견	-9.90953
▁익숙	-9.90957
찾	-9.91016
멋	-9.91022
낸	-9.91045
곤	-9.91054
▁견뎌	-9.91068
랐	-9.91077
활	-9.91081
폭	-9.91086
퍼	-9.91099
롭	-9.91101
쟁	-9.91104
브	-9.91107
냉	-9.9111
렀	-9.9111
왕	-9.9111
▁간접적	-9.91111
▁느낄	-9.91111
▁동호회	-9.91111
▁멀리	-9.91111
▁밝혀	-9.91111
▁봉사활동	-9.91111
▁생겨	-9.91111
▁악몽	-9.91111
▁업무	-9.91111
▁움직이	-9.91111
▁웬수	-9.91111
▁유효기간	-9.91111
▁인스타	-9.91111
▁자존심	-9.91111
▁접어두	-9.91111
▁조급해	-9.91111
▁최근	-9.91111
▁풀렸	-9.91111
꽤	-9.91111
나갔어	-9.91111
납	-9.91111
딩	-9.91111
쩍	-9.91111
▁검색	-9.91111
▁두려움	-9.91111
▁사회생활	-9.91111
닥	-9.91111
▁정류장	-9.91111
▁무기력	-9.91111
▁이어나가는	-9.91111
▁에너지	-9.91111
▁정신차리	-9.91111
▁흥미	-9.91111
▁축복	-9.91112
케이스	-9.91112
▁제자리	-9.91112
▁표정	-9.91112
▁보일러	-9.91113
▁회복	-9.91113
▁차가워	-9.91114
▁회식	-9.91115
▁빠져	-9.91116
▁포장	-9.91116
▁통화	-9.91118
▁아깝	-9.91118
센터	-9.91119
▁발목	-9.9112
▁외롭	-9.9112
▁침대	-9.91122
▁성향	-9.91122
▁연속	-9.91123
▁공개	-9.91124
▁아이돌	-9.91125
▁제주도	-9.91129
▁취미생활	-9.91129
▁의욕	-9.91136
▁인턴	-9.91142
▁거기까지인가봐요	-9.91143
▁공부해야	-9.91143
▁15	-9.91146
▁절약	-9.91147
▁자격증	-9.9115
▁어필해	-9.91151
▁반응	-9.91153
▁결혼해야	-9.91156
▁심장	-9.91164
▁힘드신가	-9.91165
▁하루에도	-9.91167
▁여름	-9.91174
▁빠를	-9.91178
▁찾는	-9.91179
▁쳐다	-9.91182
▁예감	-9.91185
▁유학	-9.91186
▁맛집	-9.91188
▁문신	-9.91206
▁참견	-9.91207
▁두셨	-9.91218
▁여우	-9.91226
▁때문일	-9.9123
▁시선	-9.91239
우면	-9.91257
▁코스	-9.9126
▁실내	-9.91266
▁대출	-9.91268
개월째	-9.91268
▁마셨	-9.91269
▁인내	-9.91278
▁세워	-9.91281
▁지갑	-9.91287
▁신중	-9.91299
더라구	-9.913
▁애교	-9.91308
▁배우자	-9.91309
▁노는	-9.91323
▁받아들이기	-9.9135
▁고르	-9.91371
▁가능해	-9.91375
▁기준	-9.91376
하며	-9.91386
▁비난	-9.91395
▁정리될	-9.91398
▁말투	-9.91401
▁남겨	-9.91491
▁삭제하는	-9.91497
▁지울	-9.91502
▁소심	-9.91523
▁길러	-9.9158
▁않을까	-9.91596
▁이미	-9.9161
▁좋았는데	-9.91658
▁심어	-9.91666
▁끝났네	-9.91668
▁가능할까	-9.91673
▁귀여	-9.91681
하셔야	-9.9171
▁바르	-9.91723
▁반장	-9.91752
▁흔들리	-9.91836
▁솔직한	-9.91848
▁호의	-9.91906
▁좋아하시	-9.91917
▁일들이	-9.91923
▁좋아했는데	-9.91947
있어	-9.91955
▁착한	-9.92103
▁사내	-9.92313
▁의지해	-9.92316
아주	-9.92412
▁큰일	-9.9246
▁아프다	-9.92522
▁들리	-9.92533
▁놓치	-9.92656
▁결정할	-9.92661
▁흐르고	-9.92693
우는	-9.92697
▁걸음	-9.92701
▁도와줘	-9.92875
▁결혼하면	-9.92929
▁피곤하	-9.92963
▁생각날	-9.92997
▁지금보다	-9.93183
▁상의	-9.93188
은연	-9.9328
버렸어	-9.93325
▁말해볼까	-9.93361
▁뭐할까	-9.93426
▁봐서	-9.93688
치기	-9.93697
▁기간이	-9.93882
▁받아야	-9.93887
▁했나봐	-9.93958
▁포기하는	-9.93966
▁지냈	-9.94422
▁알기	-9.94455
▁바라는	-9.94516
▁무시하는	-9.94721
이란게	-9.94763
▁나가기	-9.94859
▁말라고	-9.94875
▁적어	-9.95116
▁있었을	-9.95263
▁돌리	-9.95818
▁후에	-9.96262
▁옷이	-9.96607
▁생일이	-9.96772
▁한거	-9.97097
▁나가야	-9.97669
▁미안	-9.97861
▁성장	-9.97953
▁대단하	-9.97964
하냐	-9.98413
▁찍었	-9.98528
▁말하지	-9.98718
▁있었어	-9.98777
▁생긴다	-9.98988
▁재미있어	-9.99313
▁끝에	-9.99432
했나	-9.99569
해야할까	-9.99577
▁미안하	-10.0018
▁좋으	-10.0023
로부터	-10.003
수있	-10.0085
죄	-10.0103
놔	-10.0103
톡	-10.0106
돌	-10.0108
슬	-10.0111
휴	-10.0111
개	-10.0112
4	-10.0122
몸	-10.0124
관계	-10.0125
▁기다리지	-10.0125
막	-10.0137
잠	-10.0142
눈	-10.0147
▁중독	-10.0148
▁전남친이	-10.0154
▁잡으	-10.0166
▁알려주	-10.0218
▁늦어	-10.0244
▁이름	-10.026
▁미치	-10.027
▁덜할	-10.0272
해야할지	-10.0272
렸나봐	-10.0361
▁복잡	-10.0371
해주지	-10.0508
밖	-10.0617
▁시간이었	-10.0669
▁힘드	-10.0699
▁차분하	-10.0699
쁜	-10.072
족	-10.0747
랬	-10.0751
▁안타깝	-10.0752
험	-10.0762
▁거기까지	-10.0771
확	-10.0772
백	-10.0772
렵	-10.0773
꿨	-10.0773
즐	-10.0773
탄	-10.0776
센	-10.0777
육	-10.0777
악	-10.0777
▁받아들이	-10.0778
농	-10.0778
흥	-10.0778
잼	-10.0778
▁메뉴	-10.0778
칼	-10.0778
▁모으	-10.0778
▁잃어버	-10.0778
류	-10.0778
▁모른척	-10.0778
범	-10.0778
▁결혼적령기	-10.0778
▁고쳐쓰는	-10.0778
▁그럼요	-10.0778
▁노트북	-10.0778
▁느낀	-10.0778
▁동생이	-10.0778
▁떠오르	-10.0778
▁멍청	-10.0778
▁모자라	-10.0778
▁무뎌지	-10.0778
▁발렌타인데이	-10.0778
▁보이스피싱	-10.0778
▁부딪혔	-10.0778
▁불공평해	-10.0778
▁삼겹살	-10.0778
▁셀카	-10.0778
▁슈퍼	-10.0778
▁스터디	-10.0778
▁쓸데없	-10.0778
▁아쉬움	-10.0778
▁어젯밤	-10.0778
▁여드름	-10.0778
▁이벤트	-10.0778
▁잠재력	-10.0778
▁짜장면	-10.0778
▁찜질방	-10.0778
▁창업	-10.0778
▁출퇴근	-10.0778
▁택시비	-10.0778
▁헬스장에	-10.0778
▁현금영수증	-10.0778
▁혼란스	-10.0778
▁혼술	-10.0778
▁화이트데이	-10.0778
▁후유증이	-10.0778
뒀	-10.0778
뻑	-10.0778
쑥	-10.0778
즈	-10.0778
쪄	-10.0778
팩	-10.0778
s	-10.0778
▁괴로워	-10.0778
▁믿으	-10.0778
▁아름답	-10.0778
▁잇몸	-10.0778
▁지겨워	-10.0778
앗	-10.0778
춰	-10.0778
▁관련	-10.0778
▁깨달음	-10.0778
▁기울여	-10.0778
▁월요일	-10.0778
▁익숙해질	-10.0778
▁단둘이	-10.0778
▁즐겁	-10.0778
▁태어났	-10.0778
▁현금	-10.0778
▁염색	-10.0778
▁태어나	-10.0778
▁로봇	-10.0778
▁교양	-10.0778
▁속상해	-10.0778
▁불안해	-10.0778
▁필름	-10.0778
▁표시	-10.0778
▁순간이었	-10.0778
▁일어날	-10.0778
▁기울이	-10.0778
▁반가워	-10.0778
▁허무하	-10.0778
▁증오	-10.0779
▁데려가	-10.0779
▁소개시켜	-10.0779
▁흘려	-10.0779
▁치열	-10.0779
▁변덕	-10.0779
▁못하겠	-10.0779
▁밀어	-10.078
▁버티	-10.078
▁누굴	-10.078
▁안경테	-10.078
▁걱정된다	-10.078
▁간사하	-10.0781
▁추운	-10.0782
▁영화관	-10.0782
▁해주고	-10.0782
▁분노	-10.0783
▁치유	-10.0783
스러워	-10.0783
▁시간표	-10.0783
▁행복해보여	-10.0784
▁소유	-10.0784
▁아름다워	-10.0784
▁차례	-10.0784
▁꺼내	-10.0785
▁금연	-10.0785
▁일요일	-10.0786
▁건들	-10.0786
▁우린	-10.0788
▁부담스러운	-10.0788
지긋	-10.0788
으신가	-10.0789
▁화가나	-10.0789
▁말아야	-10.0789
▁있으신	-10.0789
▁동성	-10.079
▁좋으시	-10.079
▁조용	-10.079
▁연락해보는	-10.0791
▁답답하네	-10.0793
▁나아지	-10.0793
▁성공적	-10.0794
▁빠졌	-10.0796
▁우정	-10.0796
▁아님	-10.0796
▁뭐하냐	-10.0797
▁책임	-10.08
▁한강	-10.0801
테리	-10.0801
▁대답	-10.0802
▁안타깝네요	-10.0804
▁부드	-10.0805
▁축하해주	-10.0805
▁장점	-10.0806
▁해주면	-10.0807
▁부부	-10.0809
공원	-10.081
구경	-10.081
▁끝났으면	-10.0813
▁아물	-10.0814
▁지르	-10.0815
▁대우	-10.0816
▁칭찬해주	-10.0817
▁행복해질	-10.0822
▁끝날	-10.0823
▁알아차	-10.0823
▁건조	-10.0823
▁보답	-10.0825
▁먹었는데	-10.0829
▁자야	-10.0832
졌는데	-10.0839
▁집중하세요	-10.0842
▁들어줄	-10.0842
▁웃으면	-10.0842
▁고장	-10.0843
▁바디	-10.0843
▁영원한	-10.0843
▁언제까지	-10.0846
▁괜찮다면	-10.085
▁멋져요	-10.0852
▁뒤에서	-10.0857
▁소주	-10.086
▁익숙해지지	-10.086
▁점심	-10.0864
▁말해줘	-10.0865
▁듣기	-10.0876
▁언제든	-10.0876
▁수영	-10.0881
하셨어요	-10.0881
▁그저	-10.0886
▁달라져	-10.0889
▁안되는데	-10.0897
▁이해할	-10.0909
▁아닌거	-10.0916
▁애정	-10.0916
▁떠났	-10.0919
▁먹었어	-10.0921
▁놀러가고	-10.0923
▁걸리겠	-10.0929
짐에	-10.093
▁힘든데	-10.0949
▁다가오	-10.095
▁돌아가고	-10.096
▁남아	-10.0964
▁친해	-10.0965
▁그만하고	-10.0965
▁질리	-10.0966
라는게	-10.0979
일차	-10.0979
▁떠보	-10.099
▁여자와	-10.0998
▁포기해야	-10.1001
야돼	-10.1007
타기	-10.1008
▁덜어	-10.1009
▁될거예요	-10.101
▁괜찮지	-10.1015
▁생각해봐요	-10.1021
▁그때	-10.1023
▁그만두	-10.1033
▁위해서	-10.1044
▁뻔했	-10.1047
▁위험해	-10.1051
▁사수	-10.1059
▁물어보면	-10.1065
▁고기	-10.1104
▁바꿔야	-10.1112
▁가치	-10.1124
▁하지마	-10.1145
▁요리	-10.1204
▁밤에	-10.1204
▁아닌가봐	-10.1205
▁관심있	-10.128
▁연락오	-10.1284
형이	-10.1293
▁가리	-10.1313
▁야경이	-10.1325
▁변해	-10.1335
▁느껴지	-10.1353
▁몰랐어	-10.1391
보며	-10.1431
오니까	-10.1492
망했어	-10.164
지마요	-10.1653
▁식었	-10.1834
▁이상하	-10.1856
▁대단	-10.1892
▁인정하	-10.1906
▁어장인	-10.192
▁집착해	-10.1945
▁잡았	-10.196
놓	-10.1969
계	-10.2028
향	-10.2081
▁사귀자	-10.2088
▁들어왔	-10.2099
카드	-10.2101
깨	-10.211
쓸	-10.2111
등	-10.2112
욕	-10.2113
커	-10.2116
밤	-10.2118
참	-10.2122
시켜	-10.2122
1	-10.2126
팔	-10.2127
잘	-10.213
▁만나보	-10.2141
노래	-10.2141
책	-10.2145
술	-10.2145
조심	-10.2149
▁된다	-10.2155
▁표현해보	-10.2314
▁정확하	-10.2315
▁울적	-10.2331
▁헤어져	-10.2361
▁왔나	-10.2373
냈	-10.2505
▁나온다	-10.2553
못했던	-10.2577
양해	-10.2581
▁받아들	-10.2615
▁잘지내	-10.2615
▁받아들여야	-10.2628
▁익숙해지	-10.2679
▁어울	-10.2681
▁결정이었	-10.2687
켜	-10.2758
련만	-10.2764
▁어떨	-10.2766
응	-10.2768
껴	-10.2768
밀	-10.2769
낭비	-10.2769
굴	-10.2771
념	-10.2774
솔	-10.2776
킨	-10.2776
롱	-10.2778
콕	-10.2778
궈	-10.2778
낳	-10.2778
릅	-10.2778
벅	-10.2778
핑	-10.2778
▁갑작스럽	-10.2778
▁새출발	-10.2778
▁수학여행	-10.2778
▁흑역사	-10.2778
송	-10.2778
홀	-10.2778
힌	-10.2778
S	-10.2778
▁금수저	-10.2778
▁기프트콘	-10.2778
▁놀이동산	-10.2778
▁당분간	-10.2778
▁뒷담화	-10.2778
▁득템	-10.2778
▁마침표	-10.2778
▁머리카락	-10.2778
▁멀어지	-10.2778
▁멀어진	-10.2778
▁바뀌어	-10.2778
▁보고싶네	-10.2778
▁비슷한	-10.2778
▁상관없어요	-10.2778
▁생리통	-10.2778
▁서툴러	-10.2778
▁섬유유연제	-10.2778
▁신혼여행	-10.2778
▁쌩얼	-10.2778
▁아이스크림	-10.2778
▁안좋아	-10.2778
▁애정표현	-10.2778
▁염탐하	-10.2778
▁오락가락	-10.2778
▁유부남	-10.2778
▁지하철에	-10.2778
▁첫눈	-10.2778
▁축의금	-10.2778
▁컴퓨터	-10.2778
▁트라우마	-10.2778
▁편안하	-10.2778
겟	-10.2778
꾼	-10.2778
닝	-10.2778
댈	-10.2778
밟	-10.2778
볶	-10.2778
빈	-10.2778
욱	-10.2778
윗	-10.2778
쫌	-10.2778
찐	-10.2778
찼	-10.2778
틈	-10.2778
팍	-10.2778
▁무관심	-10.2778
▁베터리	-10.2778
▁서류에서	-10.2778
▁스타트업	-10.2778
▁씁쓸	-10.2778
▁첫인상	-10.2778
▁형편	-10.2778
쌈	-10.2778
▁배터리	-10.2778
▁연락두절	-10.2778
▁쟁취하	-10.2778
▁마주쳐	-10.2778
▁남자분들	-10.2778
▁배고프	-10.2778
칼로리	-10.2778
▁달려있	-10.2778
▁마실까	-10.2778
▁왕따	-10.2778
▁한숨만	-10.2778
▁허전한	-10.2778
▁불면증	-10.2778
▁무거워	-10.2778
▁호칭	-10.2778
▁기다림	-10.2778
▁농담	-10.2778
▁못참고	-10.2778
▁차갑게	-10.2778
▁무의식	-10.2778
▁비하하지	-10.2778
▁포근	-10.2778
▁추석	-10.2778
▁그리울	-10.2778
▁부탁드	-10.2778
▁마음정리	-10.2778
▁축제	-10.2778
▁공허함이	-10.2778
▁후련해	-10.2778
▁어떠	-10.2778
▁빠른	-10.2779
▁육아	-10.2779
▁빨래	-10.2779
▁무색하	-10.2779
▁감싸	-10.2779
▁사겨도	-10.2779
▁단호	-10.2779
▁그리운	-10.2779
▁어리게	-10.2779
▁연휴	-10.2779
▁붙여	-10.278
▁노려	-10.278
▁필요했을	-10.278
▁지루	-10.278
▁간단하	-10.278
▁등산	-10.278
▁줄어들	-10.278
▁커피향	-10.278
▁성형	-10.2781
▁문화	-10.2781
▁스테	-10.2781
▁인공	-10.2782
활용	-10.2782
▁늦잠	-10.2782
▁드라이	-10.2782
▁통장	-10.2783
▁아련	-10.2783
▁떨쳐	-10.2784
▁견뎌내	-10.2784
▁단순	-10.2784
▁졸업식	-10.2784
▁경제	-10.2785
▁원인이	-10.2786
▁설명	-10.2786
▁준비하느	-10.2786
▁짜증날	-10.2787
▁방식	-10.2787
▁운전	-10.2788
베	-10.4574
푸	-10.4596
허	-10.4601
웃	-10.4604
듣	-10.4615
5	-10.4617
옷	-10.462
열	-10.4622
3	-10.4623
쉬	-10.4623
숨	-10.465
맥	-10.494
끔	-10.5251
펴	-10.5267
끈	-10.5267
픈	-10.5268
황	-10.5271
압	-10.5271
현	-10.5277
블	-10.5278
낌	-10.5278
율	-10.5278
a	-10.5278
껄	-10.5278
놨	-10.5278
덥	-10.5278
딛	-10.5278
떼	-10.5278
맷	-10.5278
봉	-10.5278
빙	-10.5278
싹	-10.5278
엠	-10.5278
왠	-10.5278
짚	-10.5278
쭉	-10.5278
촉	-10.5278
켰	-10.5278
팁	-10.5278
팸	-10.5278
펑	-10.5278
풋	-10.5278
흠	-10.5278
힐	-10.5278
쫄	-10.5278
텔	-10.5278
팬	-10.5278
틀	-10.792
찌	-10.792
꿀	-10.7921
호	-10.7926
뒤	-10.7931
목	-10.7952
놀	-10.7958
꿈	-10.796
알	-10.7961
손	-10.7988
련	-10.8553
곡	-10.8573
표	-10.8578
냥	-10.8586
귄	-10.8596
꿔	-10.8599
텐	-10.8603
즘	-10.8604
십	-10.8611
완	-10.8611
둥	-10.8611
춘	-10.8611
꼈	-10.8611
뽀	-10.8611
렴	-10.8611
B	-10.8611
겐	-10.8611
굳	-10.8611
넋	-10.8611
닷	-10.8611
댄	-10.8611
땜	-10.8611
륵	-10.8611
밑	-10.8611
빴	-10.8611
썩	-10.8611
앨	-10.8611
옵	-10.8611
젤	-10.8611
줌	-10.8611
컷	-10.8611
톱	-10.8611
혔	-10.8611
툭	-10.8611
츠	-10.8611
쭤	-10.8611
누	-11.2907
귀	-11.2932
태	-11.2935
싸	-11.2945
철	-11.2946
뿌	-11.2952
빼	-11.2952
벌	-11.2959
6	-11.2964
갖	-11.2964
늦	-11.2966
큰	-11.2966
루	-11.3573
젠	-11.3592
쩌	-11.3606
끗	-11.3608
똥	-11.3611
맙	-11.3611
뱃	-11.3611
D	-11.3611
넛	-11.3611
낀	-11.3611
잇	-11.3611
찢	-11.3611
뇌	-11.3611
뒹	-11.3611
싱	-11.3611
눅	-11.3611
띠	-11.3611
탐	-11.3611
C	-11.3611
깅	-11.3611
꽂	-11.3611
꿩	-11.3611
넹	-11.3611
녔	-11.3611
눴	-11.3611
돕	-11.3611
뚱	-11.3611
띰	-11.3611
랭	-11.3611
렉	-11.3611
룸	-11.3611
룽	-11.3611
릭	-11.3611
맹	-11.3611
뮤	-11.3611
벤	-11.3611
벨	-11.3611
붓	-11.3611
뷔	-11.3611
빽	-11.3611
뻤	-11.3611
삔	-11.3611
샌	-11.3611
샘	-11.3611
샜	-11.3611
섯	-11.3611
솜	-11.3611
쑤	-11.3611
왓	-11.3611
왼	-11.3611
웁	-11.3611
웽	-11.3611
젝	-11.3611
줍	-11.3611
즙	-11.3611
짤	-11.3611
쨌	-11.3611
찡	-11.3611
찹	-11.3611
챘	-11.3611
춤	-11.3611
층	-11.3611
칩	-11.3611
캄	-11.3611
캐	-11.3611
캔	-11.3611
켓	-11.3611
콧	-11.3611
쿠	-11.3611
쿼	-11.3611
킬	-11.3611
킹	-11.3611
템	-11.3611
톤	-11.3611
퉁	-11.3611
튜	-11.3611
펭	-11.3611
픽	-11.3611
혈	-11.3611
혐	-11.3611
훅	-11.3611
휙	-11.3611
흡	-11.3611
X	-11.3611
뿅	-11.3611
변	-12.297
9	-12.2972
꼬	-12.2972
뜻	-12.2977
넌	-12.298
쓴	-12.2983
떠	-12.2984
깊	-12.2984
떨	-12.2984
잤	-12.2988
쐬	-12.299
졸	-12.2992
곧	-12.3
꽃	-12.3003
딱	-12.3005
얼	-12.3006
꼭	-12.3006
왜	-12.301
큼	-12.3265
훌	-12.3295
홈	-12.3296
튀	-12.3297
텼	-12.3298
텅	-12.3299
킥	-12.33
짬	-12.3301
졋	-12.3302
젊	-12.3303
옮	-12.3304
옛	-12.3305
엿	-12.3306
얇	-12.3307
씸	-12.3308
씰	-12.3309
섞	-12.331
샐	-12.3311
뽕	-12.3312
뺏	-12.3313
볕	-12.3314
묘	-12.3315
멘	-12.3316
륜	-12.3317
띵	-12.3318
뜬	-12.3319
떴	-12.332
덮	-12.3321
댔	-12.3322
댓	-12.3323
논	-12.3324
꽝	-12.3325
꼴	-12.3326
깼	-12.3327
깬	-12.3328
괘	-12.3329
겉	-12.333
갠	-12.3331
o	-12.3332
g	-12.3333
홧	-12.3334
헹	-12.3335
헐	-12.3336
팀	-12.3337
텀	-12.3338
턱	-12.3339
쿵	-12.334
컥	-12.3341
캬	-12.3342
측	-12.3343
짼	-12.3344
엊	-12.3345
얽	-12.3346
앱	-12.3347
숫	-12.3348
삐	-12.3349
빚	-12.335
몬	-12.3351
맴	-12.3352
렐	-12.3353
랙	-12.3354
랖	-12.3355
뚫	-12.3356
됬	-12.3357
눕	-12.3358
눌	-12.3359
꿰	-12.336
깰	-12.3361
갱	-12.3362
훔	-12.3363
핫	-12.3364
폼	-12.3365
텁	-12.3366
컸	-12.3367
촬	-12.3368
총	-12.3369
짰	-12.337
징	-12.3371
좌	-12.3372
웹	-12.3373
옳	-12.3374
볍	-12.3375
밉	-12.3376
몫	-12.3377
맺	-12.3378
릇	-12.3379
넷	-12.338
꽉	-12.3381
꼰	-12.3382
겪	-12.3383
헌	-12.3384
팠	-12.3385
툼	-12.3386
탓	-12.3387
퀴	-12.3388
쿨	-12.3389
켠	-12.339
쪼	-12.3391
엮	-12.3392
씌	-12.3393
쏠	-12.3394
쏟	-12.3395
썹	-12.3396
쌍	-12.3397
쁨	-12.3398
렜	-12.3399
렛	-12.34
돋	-12.3401
낚	-12.3402
긁	-12.3403
곱	-12.3404
흑	-12.3405
휘	-12.3406
훈	-12.3407
헥	-12.3408
틋	-12.3409
찜	-12.341
젯	-12.3411
쌩	-12.3412
슈	-12.3413
쉴	-12.3414
묻	-12.3415
릎	-12.3416
땡	-12.3417
둠	-12.3418
늠	-12.3419
광	-12.342
A	-12.3421
툴	-12.3422
털	-12.3423
짱	-12.3424
젖	-12.3425
웬	-12.3426
얻	-12.3427
씁	-12.3428
싼	-12.3429
띄	-12.343
닮	-12.3431
녹	-12.3432
낙	-12.3433
낄	-12.3434
끓	-12.3435
객	-12.3436
찔	-12.3437
앉	-12.3438
섬	-12.3439
뽑	-12.344
뢰	-12.3441
렬	-12.3442
늙	-12.3443
넓	-12.3444
꾹	-12.3445
깎	-12.3446
겹	-12.3447
콤	-12.3448
잃	-12.3449
엉	-12.345
샤	-12.3451
밝	-12.3452
몽	-12.3453
맡	-12.3454
렘	-12.3455
랫	-12.3456
땀	-12.3457
검	-12.3458
헬	-12.3459
빡	-12.346
벚	-12.3461
뤄	-12.3462
딪	-12.3463
넣	-12.3464
규	-12.3465
곁	-12.3466
n	-12.3467
컴	-12.3468
옥	-12.3469
렌	-12.347
딴	-12.3471
낮	-12.3472
걔	-12.3473
갚	-12.3474
씻	-12.3475
씹	-12.3476
슷	-12.3477
뛰	-12.3478
딸	-12.3479
푹	-12.348
컨	-12.3481
춥	-12.3482
닫	-12.3483
웨	-12.3484
썼	-12.3485
셀	-12.3486
듭	-12.3487
뒷	-12.3488
뀌	-12.3489
깔	-12.349
귈	-12.3491
8	-12.3492
7	-12.3493
뉴	-12.3494
뀔	-12.3495
텨	-12.3496
녁	-12.3497
깍	-12.3498
권	-12.3499
걷	-12.35
N	-12.3501
샀	-12.3502
멈	-12.3503
됩	-12.3504
눠	-12.3505
헛	-12.3506
틱	-12.3507
엽	-12.3508
쌓	-12.3509
삼	-12.351
밍	-12.3511
희	-12.3512
삭	-12.3513
옆	-12.3514
북	-12.3515
쇼	-12.3516
숭	-12.3517
벗	-12.3518
긋	-12.3519
끄	-12.3519
헷	-12.352
섭	-12.3521
멍	-12.3522
멀	-12.3523
잖	-12.3524
삶	-12.3525
높	-12.3526
읽	-12.3527
뎌	-12.3528
낫	-12.3529
녕	-12.353
엇	-12.3531
득	-12.3532
깐	-12.3533
괴	-12.3534
랜	-12.3535
흔	-12.3536
빌	-12.3537
익	-12.3538
끊	-12.3539
흐	-12.354
퇴	-12.3541
봄	-12.3542
밌	-12.3543
픔	-12.3544
짧	-12.3545
승	-12.3546
덤	-12.3547
핸	-12.3548
풍	-12.3549
뭔	-12.355
똑	-12.3551
몇	-12.3552
슴	-12.3553
뻐	-12.3554
씀	-12.3555
닐	-12.3556
0	-12.3557
맨	-12.3558
평	-12.3559
써	-12.356
챙	-12.3561
풀	-12.3562
존	-12.3563
갔	-12.3564
첫	-12.3565
격	-12.3566
죽	-12.3567
럼	-12.3568
최	-12.3569
엄	-12.357
슨	-12.3571
떤	-12.3572
뭘	-12.3573
업	-12.3574
앞	-12.3575
쉽	-12.3576
택	-12.3577
걱	-12.3578
겼	-12.3579
믿	-12.358
닌	-12.3581
접	-12.3582
랄	-12.3583
몰	-12.3584
벼	-12.3585
럴	-12.3585
억	-12.3586
싫	-12.3587
쓰	-12.3588
맞	-12.3589
떻	-12.359
렇	-12.3591
편	-12.3592
잊	-12.3593
괜	-12.3594
찮	-12.3595
뭐	-12.3596
받	-12.3597
습	-12.3598
쁠	-12.3599
혼	-12.3599
썸	-12.36
헤	-12.3601
모	-12.3602
깝	-12.3603
않	-12.3603
많	-12.3604
뜰	-12.3605
힘	-12.3605
싶	-12.3606
쩔	-12.3606
닿	-12.3607
없	-12.3607
봇	-12.3607
낭	-12.3608
첨	-12.3608
같	-12.3608
램	-12.3608
생	-12.3609
욜	-12.3609
획	-12.361
람	-12.361
칭	-12.361
혹	-12.361
딘	-12.3611
묵	-12.3611
겜	-12.3611
꽁	-12.3611
뭉	-12.3611
협	-12.3611
긍	-12.3611
냄	-12.3611
딜	-12.3611
놉	-12.3611
뜁	-12.3611
렁	-12.3611
률	-12.3611
벋	-12.3611
젔	-12.3611
픕	-12.3611
흰	-12.3611
쎄	-12.3611
O	-12.3611
k	-12.3611
갇	-12.3611
걍	-12.3611
곗	-12.3611
굶	-12.3611
굽	-12.3611
굿	-12.3611
귐	-12.3611
균	-12.3611
귤	-12.3611
깃	-12.3611
깠	-12.3611
깡	-12.3611
꺽	-12.3611
껀	-12.3611
꼿	-12.3611
꿎	-12.3611
꿧	-12.3611
뀐	-12.3611
넥	-12.3611
뇨	-12.3611
뇽	-12.3611
닦	-12.3611
닭	-12.3611
닳	-12.3611
댜	-12.3611
덩	-12.3611
덴	-12.3611
델	-12.3611
뎠	-12.3611
둑	-12.3611
듦	-12.3611
딧	-12.3611
떄	-12.3611
뗄	-12.3611
뛴	-12.3611
뜩	-12.3611
뜸	-12.3611
랠	-12.3611
랩	-12.3611
럿	-12.3611
렷	-12.3611
령	-12.3611
롯	-12.3611
룰	-12.3611
멤	-12.3611
몹	-12.3611
뭇	-12.3611
뭣	-12.3611
밭	-12.3611
밸	-12.3611
뱄	-12.3611
뱉	-12.3611
벴	-12.3611
붕	-12.3611
빗	-12.3611
뺄	-12.3611
뻘	-12.3611
뻣	-12.3611
뻥	-12.3611
뿍	-12.3611
삽	-12.3611
섣	-12.3611
섰	-12.3611
섹	-12.3611
셥	-12.3611
쇠	-12.3611
숍	-12.3611
숏	-12.3611
쌀	-12.3611
쌤	-12.3611
썰	-12.3611
쎈	-12.3611
쎌	-12.3611
쏘	-12.3611
쏜	-12.3611
씬	-12.3611
씽	-12.3611
앙	-12.3611
얄	-12.3611
엘	-12.3611
엣	-12.3611
옇	-12.3611
잌	-12.3611
잦	-12.3611
젹	-12.3611
좁	-12.3611
쥐	-12.3611
쥬	-12.3611
즉	-12.3611
쩐	-12.3611
쪘	-12.3611
챔	-12.3611
챗	-12.3611
첩	-12.3611
쳇	-12.3611
촌	-12.3611
췄	-12.3611
츄	-12.3611
츤	-12.3611
칙	-12.3611
칫	-12.3611
컹	-12.3611
콘	-12.3611
쾌	-12.3611
큐	-12.3611
킴	-12.3611
탱	-12.3611
텄	-12.3611
텻	-12.3611
퉜	-12.3611
펜	-12.3611
펨	-12.3611
펼	-12.3611
퐈	-12.3611
퓨	-12.3611
핀	-12.3611
핍	-12.3611
햐	-12.3611
헉	-12.3611
훨	-12.3611
휨	-12.3611
힙	-12.3611
늪	-12.3611
딨	-12.3611
핏	-12.3611
혜	-12.3611
j	-12.3611
갯	-12.3611
듀	-12.3611
롤	-12.3611
쭈	-12.3611
찝	-12.3611
좋	-12.3611
텍	-12.3611
