<pad>	0
<s>	0
</s>	0
<unk>	0
▁.	-0
세요	-1
▁사	-2
▁좋	-3
▁있	-4
▁이	-5
▁?	-6
▁거	-7
하는	-8
보세요	-9
▁그	-10
▁나	-11
▁아	-12
▁마	-13
예요	-14
▁사람	-15
어요	-16
▁좋아	-17
▁같	-18
▁거예요	-19
▁생	-20
▁어	-21
▁다	-22
▁하	-23
▁가	-24
▁안	-25
▁수	-26
▁해	-27
▁사랑	-28
네요	-29
▁연	-30
▁없	-31
니다	-32
▁잘	-33
▁생각	-34
▁자	-35
▁힘	-36
친구	-37
봐요	-38
▁싶	-39
▁많	-40
▁여	-41
▁너	-42
▁것	-43
▁만	-44
▁말	-45
▁남	-46
▁시	-47
는데	-48
▁마음	-49
▁내	-50
▁않	-51
아요	-52
▁너무	-53
▁기	-54
▁보	-55
▁지	-56
▁오	-57
▁바	-58
▁좋아하는	-59
▁더	-60
해보세요	-61
▁정	-62
▁이별	-63
▁연락	-64
▁헤	-65
하고	-66
▁일	-67
▁헤어	-68
▁짝	-69
▁고	-70
▁있을	-71
으면	-72
▁여자	-73
▁썸	-74
▁남자	-75
▁좋은	-76
▁힘들	-77
▁되	-78
▁모	-79
나봐요	-80
▁한	-81
하지	-82
▁많이	-83
▁알	-84
▁시간	-85
▁사람이	-86
▁때	-87
▁상	-88
▁게	-89
에요	-90
▁저	-91
▁무	-92
으로	-93
▁친구	-94
▁건	-95
에서	-96
한테	-97
▁못	-98
▁주	-99
▁중	-100
▁같아요	-101
▁먹	-102
▁전	-103
▁!	-104
▁좀	-105
▁결	-106
까요	-107
해요	-108
▁부	-109
겠어요	-110
▁싶어	-111
▁있어요	-112
▁대	-113
▁살	-114
▁인	-115
▁받	-116
▁뭐	-117
▁당	-118
▁조	-119
하면	-120
▁될	-121
▁선	-122
▁제	-123
▁같아	-124
▁만나	-125
▁후	-126
하세요	-127
▁할	-128
▁괜	-129
하게	-130
이에요	-131
▁걸	-132
▁진	-133
▁오늘	-134
▁끝	-135
겠네요	-136
▁소	-137
에게	-138
주세요	-139
▁이제	-140
▁미	-141
▁자신	-142
▁괜찮	-143
▁마세요	-144
습니다	-145
▁들	-146
▁아니	-147
겠지	-148
▁잊	-149
▁드	-150
라고	-151
▁좋을	-152
▁필	-153
는게	-154
▁감	-155
▁하는	-156
▁비	-157
▁연애	-158
친구가	-159
▁필요	-160
▁마음이	-161
▁해보세요	-162
▁스	-163
게요	-164
▁내가	-165
▁모르	-166
▁있는	-167
가봐요	-168
▁왜	-169
▁예	-170
▁공	-171
다면	-172
▁혼	-173
▁다른	-174
▁어떻	-175
▁차	-176
▁물	-177
▁집	-178
다고	-179
▁어떻게	-180
▁신	-181
▁서	-182
▁시간이	-183
▁헤어진	-184
▁없어	-185
▁돼	-186
▁날	-187
▁도	-188
해도	-189
▁짝남	-190
▁행	-191
▁방	-192
겠어	-193
▁관	-194
▁타	-195
▁애	-196
▁우	-197
▁싶다	-198
▁당신	-199
겠죠	-200
사랑	-201
▁다시	-202
▁정리	-203
▁정말	-204
▁또	-205
▁맞	-206
▁했	-207
▁수도	-208
▁잠	-209
▁있어	-210
▁노	-211
인데	-212
▁하고	-213
들이	-214
▁지금	-215
▁혼자	-216
▁결혼	-217
▁재	-218
▁기다	-219
▁계	-220
▁싫	-221
▁눈	-222
▁중요	-223
▁참	-224
▁찾	-225
▁위	-226
어보세요	-227
▁것도	-228
▁확	-229
할까	-230
▁놀	-231
▁데	-232
▁새	-233
▁같이	-234
▁그런	-235
이네요	-236
▁준	-237
▁편	-238
렇게	-239
▁따	-240
▁쉬	-241
▁고민	-242
야지	-243
▁언	-244
▁추	-245
라요	-246
▁반	-247
은데	-248
▁아직	-249
▁행복	-250
▁얼	-251
▁피	-252
▁조금	-253
▁짝사랑	-254
▁두	-255
지도	-256
▁성	-257
▁자꾸	-258
▁달	-259
▁배	-260
▁먼	-261
보다	-262
이라	-263
지만	-264
야기	-265
이죠	-266
▁진짜	-267
▁없어요	-268
▁누	-269
▁느	-270
▁선물	-271
▁의	-272
▁카	-273
겠다	-274
▁보고	-275
▁준비	-276
▁짝녀	-277
까지	-278
▁아무	-279
▁찾아	-280
▁맛	-281
▁화	-282
▁힘든	-283
합니다	-284
▁몰	-285
▁저도	-286
봅니다	-287
▁심	-288
▁이야기	-289
▁꿈	-290
볼까	-291
▁그럴	-292
▁서로	-293
▁술	-294
▁충	-295
▁방법	-296
▁시작	-297
▁변	-298
▁고백	-299
▁먼저	-300
▁후회	-301
▁운	-302
▁없는	-303
▁제가	-304
거예요	-305
을까	-306
▁돼요	-307
니까요	-308
▁바랄	-309
▁사귀	-310
▁헤어지	-311
해서	-312
▁귀	-313
▁불	-314
▁적	-315
▁바랄게요	-316
▁직	-317
해야	-318
▁그녀	-319
▁동	-320
▁올	-321
▁들어	-322
▁헤어진지	-323
▁문	-324
▁공부	-325
▁해야	-326
▁마음을	-327
▁돌	-328
▁받아	-329
▁줄	-330
▁감정	-331
▁계속	-332
▁있을까	-333
에는	-334
▁나를	-335
▁하나	-336
해주세요	-337
▁버	-338
▁보세요	-339
▁여자친구가	-340
이야	-341
이트	-342
▁일이	-343
▁1	-344
▁좋아요	-345
▁답	-346
▁매	-347
인가	-348
했어	-349
▁가능	-350
▁돈	-351
▁될까	-352
▁아닌	-353
▁사랑이	-354
▁현	-355
려고	-356
보는	-357
▁먹고	-358
▁남자친구가	-359
▁왔	-360
면서	-361
▁기분	-362
▁힘드	-363
▁않아요	-364
▁여자친구	-365
▁믿	-366
▁신경	-367
▁떨	-368
▁머	-369
니까	-370
대로	-371
▁곳	-372
▁드세요	-373
기가	-374
다는	-375
▁하지	-376
▁간	-377
▁원	-378
리는	-379
▁많은	-380
▁이상	-381
▁좋죠	-382
▁하세요	-383
▁걱	-384
▁분	-385
▁실	-386
▁함	-387
▁걱정	-388
랍니다	-389
▁쓰	-390
지는	-391
▁만들	-392
▁떠	-393
▁표	-394
자고	-395
▁상대	-396
▁싫어	-397
하는게	-398
▁취	-399
▁관심	-400
▁하루	-401
▁사랑하는	-402
▁세	-403
▁속	-404
▁회	-405
나요	-406
▁데이트	-407
▁영	-408
▁입	-409
하기	-410
▁,	-411
적인	-412
▁그래	-413
▁기억	-414
▁알아	-415
▁충분	-416
▁바랍니다	-417
▁맘	-418
▁뭘	-419
▁장	-420
입니다	-421
▁언제	-422
▁해요	-423
▁힘들어	-424
▁남자친구	-425
다가	-426
로운	-427
이랑	-428
▁맛있	-429
▁어떤	-430
▁어떨	-431
▁있었	-432
▁생각해요	-433
▁쉽	-434
▁축	-435
▁대화	-436
▁카톡	-437
▁할까	-438
▁함께	-439
▁말해보세요	-440
▁발	-441
▁슬	-442
▁학	-443
스러	-444
하죠	-445
▁물어	-446
▁오래	-447
▁친구가	-448
▁용	-449
▁무슨	-450
▁있으면	-451
▁좋겠어요	-452
▁3	-453
▁약	-454
이었	-455
▁그냥	-456
▁내일	-457
▁사람은	-458
▁이렇게	-459
▁앞	-460
▁엄	-461
▁최	-462
라도	-463
인지	-464
하네	-465
▁누구	-466
▁머리	-467
▁안돼	-468
▁몰라요	-469
▁2	-470
▁요	-471
▁커	-472
▁상처	-473
▁여행	-474
▁표현	-475
▁헤어졌	-476
▁놓	-477
▁점	-478
▁않는	-479
▁힘드네	-480
▁궁	-481
▁외	-482
부터	-483
▁구	-484
▁열	-485
▁호	-486
가는	-487
▁많아	-488
▁어디	-489
▁사랑은	-490
▁싸	-491
텐데	-492
▁결정	-493
▁궁금	-494
▁나만	-495
▁여친	-496
▁운동	-497
▁이유	-498
▁자신을	-499
▁과	-500
▁길	-501
▁즐	-502
▁썸남	-503
▁이해	-504
▁하면	-505
▁주세요	-506
▁됐	-507
▁복	-508
▁처	-509
트레	-510
▁않을	-511
▁새로운	-512
▁어떨까요	-513
▁생각해보세요	-514
▁듯	-515
▁첫	-516
▁치	-517
리고	-518
▁돌아	-519
▁부담	-520
▁아프	-521
▁안되	-522
겠지만	-523
▁사람을	-524
▁스트레	-525
▁별	-526
▁죽	-527
했던	-528
▁생겼	-529
▁전화	-530
▁한달	-531
▁나한테	-532
어도	-533
▁만큼	-534
▁선택	-535
▁설	-536
▁유	-537
었어	-538
▁노력	-539
▁생각을	-540
▁있는데	-541
▁깨	-542
▁늦	-543
▁그만	-544
▁미련	-545
▁단	-546
▁잡	-547
개월	-548
움이	-549
해주	-550
▁말고	-551
▁보내	-552
▁소개	-553
▁인연	-554
▁생각나	-555
나봅니다	-556
▁막	-557
▁순	-558
거나	-559
▁남친	-560
▁따라	-561
▁싶은	-562
▁지나	-563
▁괜찮아	-564
기도	-565
나봐	-566
▁다가	-567
▁때문	-568
▁않아	-569
▁해도	-570
으세요	-571
▁생각이	-572
▁신경쓰	-573
▁이별을	-574
▁좋겠네요	-575
▁갈	-576
▁멋	-577
▁와	-578
▁휴	-579
군요	-580
▁가고	-581
▁잘못	-582
▁저는	-583
▁타는	-584
았는데	-585
▁같은데	-586
▁그렇게	-587
▁연락이	-588
▁아니에요	-589
▁경	-590
▁챙	-591
▁허	-592
기를	-593
▁만날	-594
▁아파	-595
▁않았	-596
▁어떡	-597
▁재미	-598
▁직접	-599
▁마음에	-600
▁짝남이	-601
▁스트레스	-602
▁번	-603
▁항	-604
▁그러	-605
▁어려	-606
▁항상	-607
적으로	-608
▁몸	-609
▁완	-610
▁질	-611
거라	-612
보고	-613
이나	-614
처럼	-615
▁나이	-616
▁노래	-617
▁느낌	-618
▁달라	-619
▁회사	-620
인가봐요	-621
▁갑	-622
▁벌	-623
▁봐	-624
어나	-625
해지	-626
▁만났	-627
▁상황	-628
▁처음	-629
하는데	-630
했는데	-631
▁바라요	-632
▁가보세요	-633
▁모르겠어	-634
하다	-635
▁그게	-636
▁변화	-637
▁어때	-638
▁우리	-639
▁위로	-640
하네요	-641
▁사랑을	-642
▁좋겠다	-643
▁꼭	-644
▁포	-645
습관	-646
심히	-647
▁기대	-648
▁다음	-649
▁이젠	-650
▁괜찮아요	-651
▁개	-652
▁목	-653
▁볼	-654
▁큰	-655
가요	-656
졌어	-657
▁같은	-658
▁때가	-659
▁쉽지	-660
▁인생	-661
▁잊어	-662
▁추억	-663
▁좋겠어	-664
▁중요한	-665
려보세요	-666
는지	-667
▁문제	-668
▁확실	-669
▁힘내	-670
리세요	-671
▁난	-672
▁웃	-673
▁천	-674
▁답답	-675
▁현실	-676
▁도움이	-677
▁물어보세요	-678
▁넘	-679
▁덜	-680
▁붙	-681
▁빠	-682
▁환	-683
감이	-684
보면	-685
▁나는	-686
▁요즘	-687
▁있죠	-688
▁조심	-689
▁축하	-690
▁확인	-691
▁대화를	-692
▁사랑한	-693
▁열심히	-694
▁충분히	-695
▁밥	-696
만에	-697
스럽	-698
았어	-699
▁가는	-700
▁결국	-701
▁말씀	-702
▁말을	-703
▁않은	-704
▁추천	-705
▁손	-706
▁크	-707
▁가지	-708
▁그렇	-709
▁정신	-710
▁화장	-711
▁아직도	-712
▁이별은	-713
▁찾아보세요	-714
▁식	-715
▁친	-716
▁풀	-717
동안	-718
지막	-719
지요	-720
▁건강	-721
▁나쁜	-722
▁말해	-723
▁먹어	-724
▁사이	-725
▁언젠	-726
▁영화	-727
▁이런	-728
▁챙겨	-729
▁생각해	-730
▁연락을	-731
한가봐요	-732
▁몇	-733
▁빨	-734
▁절	-735
▁청	-736
걸까	-737
는거	-738
워요	-739
이네	-740
▁가슴	-741
▁살고	-742
▁습관	-743
▁얼른	-744
▁마지막	-745
▁뭔	-746
▁짜	-747
▁태	-748
▁평	-749
▁흘	-750
것도	-751
▁귀찮	-752
▁나가	-753
▁부모	-754
▁의미	-755
▁집에	-756
이라도	-757
▁상대방	-758
▁헤어지고	-759
▁된	-760
▁딱	-761
▁울	-762
▁작	-763
라면	-764
싶어	-765
애가	-766
일까	-767
▁가져	-768
▁관계	-769
▁되었	-770
▁세상	-771
▁아닐	-772
▁어제	-773
▁진심	-774
▁마음의	-775
▁말아요	-776
▁사람들	-777
▁싶은데	-778
▁오세요	-779
▁헤어짐	-780
했나봐요	-781
▁있나봐요	-782
▁연락해보세요	-783
▁긴	-784
▁솔	-785
▁종	-786
▁키	-787
▁핸	-788
리가	-789
사람	-790
▁대한	-791
▁많았	-792
▁매일	-793
▁바람	-794
▁성공	-795
▁아침	-796
릴게요	-797
▁때문에	-798
▁부모님	-799
▁사랑의	-800
▁좋을까	-801
▁금	-802
▁꾸	-803
▁착	-804
▁통	-805
▁파	-806
감을	-807
▁가장	-808
▁떨어	-809
▁만남	-810
▁알려	-811
▁어느	-812
▁완전	-813
▁재회	-814
▁핸드	-815
하면서	-816
▁당신의	-817
▁조금만	-818
▁짝녀가	-819
▁졸	-820
▁프	-821
신이	-822
한지	-823
▁같애	-824
▁살아	-825
▁잘할	-826
▁제일	-827
▁주말	-828
▁그래도	-829
▁시간을	-830
▁오늘도	-831
▁핸드폰	-832
으니까요	-833
▁중요해요	-834
▁갖	-835
▁글	-836
▁망	-837
▁뿐	-838
▁짧	-839
▁티	-840
더니	-841
자기	-842
지지	-843
▁가끔	-844
▁거라	-845
▁다르	-846
▁모두	-847
▁순간	-848
▁얼마	-849
▁연습	-850
▁예의	-851
▁인정	-852
▁한번	-853
▁남자가	-854
▁필요한	-855
▁해볼까	-856
하겠어요	-857
▁강	-858
▁로	-859
▁욕	-860
▁음	-861
▁잔	-862
스로	-863
▁그리	-864
▁맞는	-865
▁못하	-866
▁상관	-867
▁쉬운	-868
▁엄청	-869
▁없네	-870
▁잊혀	-871
▁자연	-872
▁재밌	-873
스러운	-874
▁모르는	-875
▁소개팅	-876
▁자신의	-877
▁조금씩	-878
▁사람이랑	-879
▁사람한테	-880
▁네	-881
▁듣	-882
▁초	-883
다니	-884
리지	-885
없이	-886
▁날씨	-887
▁떠나	-888
▁모든	-889
▁뭘까	-890
▁보는	-891
▁복잡	-892
▁얼굴	-893
▁없을	-894
▁저랑	-895
달라고	-896
▁기분이	-897
▁싶어요	-898
▁있다면	-899
▁좋아하	-900
▁했는데	-901
▁사람들이	-902
▁알았는데	-903
▁조심하세요	-904
▁꽃	-905
▁온	-906
▁존	-907
▁흐	-908
같은	-909
려요	-910
왔어	-911
적이	-912
폭풍	-913
▁되는	-914
▁무서	-915
▁사진	-916
▁엄마	-917
▁예뻐	-918
▁왔어	-919
▁자주	-920
▁커피	-921
었는데	-922
▁갑자기	-923
▁스스로	-924
▁여자가	-925
▁이별이	-926
▁정리가	-927
▁합니다	-928
▁모르겠어요	-929
▁극	-930
▁똑	-931
▁본	-932
▁탈	-933
기로	-934
력이	-935
쁘게	-936
수록	-937
▁가족	-938
▁나와	-939
▁남편	-940
▁보이	-941
▁빨리	-942
▁실수	-943
▁지내	-944
▁환승	-945
▁당신이	-946
▁만나고	-947
▁받아들이	-948
▁생각보다	-949
▁5	-950
▁끊	-951
▁봄	-952
▁야	-953
▁코	-954
▁흔	-955
건가	-956
천히	-957
▁끝났	-958
▁다녀	-959
마세요	-960
▁연락해	-961
▁잘하는	-962
▁좋아할	-963
▁천천히	-964
▁행복해	-965
▁짝남한테	-966
▁4	-967
▁6	-968
▁견	-969
▁뒤	-970
▁양	-971
▁옷	-972
▁익	-973
▁줘	-974
▁출	-975
가고	-976
거리	-977
기는	-978
일째	-979
지가	-980
해줘	-981
▁그분	-982
▁끝나	-983
▁도와	-984
▁두려	-985
▁마시	-986
▁마주	-987
▁사는	-988
▁아픔	-989
▁점점	-990
▁정도	-991
▁직장	-992
▁짜증	-993
▁피곤	-994
▁힘이	-995
기까지	-996
▁괜찮은	-997
▁사랑에	-998
▁어떡해	-999
▁인연이	-1000
▁잘하고	-1001
▁친구랑	-1002
▁후폭풍	-1003
▁담	-1004
▁빌	-1005
▁은	-1006
▁책	-1007
있는	-1008
▁감기	-1009
▁걸까	-1010
▁극복	-1011
▁되나	-1012
▁따뜻	-1013
▁모습	-1014
▁운명	-1015
▁자기	-1016
▁학교	-1017
▁기다려	-1018
▁만들어	-1019
▁맛있게	-1020
▁믿어요	-1021
▁자신이	-1022
▁첫사랑	-1023
▁신경쓰지	-1024
▁능	-1025
▁둘	-1026
▁면	-1027
같아	-1028
이별	-1029
▁눈물	-1030
▁무시	-1031
▁별로	-1032
▁붙잡	-1033
▁솔직	-1034
▁아이	-1035
▁아픈	-1036
▁알바	-1037
▁익숙	-1038
▁잠시	-1039
▁주변	-1040
▁기다리	-1041
▁다가가	-1042
▁당신을	-1043
▁사람도	-1044
▁사세요	-1045
▁이유가	-1046
▁지금도	-1047
▁친구들	-1048
▁하는데	-1049
▁확신이	-1050
▁힘들었	-1051
드릴게요	-1052
▁힘내세요	-1053
▁맨	-1054
▁병	-1055
▁얘	-1056
▁월	-1057
거야	-1058
시간	-1059
이면	-1060
주는	-1061
▁날이	-1062
▁되길	-1063
▁만난	-1064
▁뭐가	-1065
▁않죠	-1066
▁지켜	-1067
다보면	-1068
▁아니라	-1069
▁언젠간	-1070
▁많았어요	-1071
▁연락하고	-1072
▁밤	-1073
만큼	-1074
생활	-1075
▁나오	-1076
▁나을	-1077
▁내려	-1078
▁놀러	-1079
▁놓아	-1080
▁도전	-1081
▁되어	-1082
▁마련	-1083
▁배우	-1084
▁보여	-1085
▁살펴	-1086
▁스타	-1087
▁아는	-1088
▁안녕	-1089
▁즐거	-1090
▁후련	-1091
▁오늘은	-1092
▁하나씩	-1093
▁서로에게	-1094
▁갔	-1095
▁교	-1096
▁군	-1097
▁메	-1098
▁척	-1099
마다	-1100
하길	-1101
하나	-1102
▁거죠	-1103
▁것이	-1104
▁관리	-1105
▁나아	-1106
▁벌써	-1107
▁성격	-1108
▁슬픈	-1109
▁알게	-1110
▁위해	-1111
▁이겨	-1112
▁차단	-1113
▁포기	-1114
겠지요	-1115
스러워	-1116
▁만나는	-1117
▁아닌데	-1118
▁힘들다	-1119
하겠네요	-1120
▁해주세요	-1121
▁있었나봐요	-1122
▁까	-1123
▁명	-1124
▁봤	-1125
▁삶	-1126
▁찍	-1127
로워	-1128
에도	-1129
정이	-1130
중에	-1131
▁가서	-1132
▁끝이	-1133
▁다행	-1134
▁무엇	-1135
▁뭐야	-1136
▁받고	-1137
▁봐요	-1138
▁부족	-1139
▁비싸	-1140
▁없이	-1141
▁여유	-1142
▁연인	-1143
▁일찍	-1144
▁주무	-1145
▁지났	-1146
▁집착	-1147
▁카페	-1148
▁행동	-1149
야겠다	-1150
▁보고싶	-1151
▁사귀고	-1152
▁원하는	-1153
▁곧	-1154
▁깊	-1155
▁낫	-1156
▁멀	-1157
▁법	-1158
▁응	-1159
▁읽	-1160
▁접	-1161
▁향	-1162
남친	-1163
들어	-1164
아서	-1165
이는	-1166
지고	-1167
▁건지	-1168
▁게임	-1169
▁바라	-1170
▁있나	-1171
▁잊지	-1172
▁자존	-1173
▁전에	-1174
▁나중에	-1175
▁만나지	-1176
▁생각할	-1177
▁예의가	-1178
▁이별의	-1179
▁좋아해	-1180
▁지금은	-1181
▁힘들게	-1182
었나봐요	-1183
▁뿐이에요	-1184
▁필요해요	-1185
▁헷	-1186
래도	-1187
르고	-1188
버렸	-1189
하려	-1190
해질	-1191
▁거짓	-1192
▁꿈에	-1193
▁나도	-1194
▁나서	-1195
▁눈을	-1196
▁느껴	-1197
▁대로	-1198
▁데려	-1199
▁되지	-1200
▁맨날	-1201
▁보면	-1202
▁부러	-1203
▁부분	-1204
▁생일	-1205
▁소중	-1206
▁약속	-1207
▁어렵	-1208
▁우산	-1209
▁우울	-1210
▁일을	-1211
▁잊는	-1212
▁자체	-1213
▁작은	-1214
▁잠깐	-1215
▁최고	-1216
▁하죠	-1217
▁헷갈	-1218
했으면	-1219
▁감정을	-1220
▁곳으로	-1221
▁많아요	-1222
▁변화가	-1223
▁않아도	-1224
▁여자애	-1225
▁일어나	-1226
▁친구를	-1227
겠습니다	-1228
▁괜찮을까	-1229
▁먹어야지	-1230
▁사랑했던	-1231
▁아무것도	-1232
▁이별한지	-1233
▁좋아하게	-1234
▁주무세요	-1235
▁친구한테	-1236
▁ᅲ	-1237
▁괴	-1238
▁근	-1239
▁벗	-1240
▁베	-1241
▁빼	-1242
▁쓸	-1243
▁에	-1244
▁증	-1245
건지	-1246
사를	-1247
야죠	-1248
으니	-1249
▁기회	-1250
▁눈이	-1251
▁다를	-1252
▁말이	-1253
▁맞춰	-1254
▁미리	-1255
▁미안	-1256
▁바쁜	-1257
▁방학	-1258
▁생길	-1259
▁설레	-1260
▁소식	-1261
▁썸타	-1262
▁안나	-1263
▁없죠	-1264
▁오랜	-1265
▁용기	-1266
▁이번	-1267
▁자책	-1268
▁전여	-1269
▁죽을	-1270
▁했어	-1271
▁허전	-1272
이라면	-1273
이었을	-1274
▁거짓말	-1275
▁관심이	-1276
▁귀찮아	-1277
▁그녀를	-1278
▁만났어	-1279
▁사귀는	-1280
▁여친이	-1281
▁예쁘게	-1282
▁이상형	-1283
▁전남친	-1284
▁확실한	-1285
여보세요	-1286
▁고민이야	-1287
▁아무래도	-1288
▁좋아하면	-1289
▁중요하지	-1290
▁가져보세요	-1291
▁사랑해주세요	-1292
▁확인해보세요	-1293
▁냉	-1294
▁높	-1295
▁산	-1296
▁숨	-1297
▁써	-1298
▁칭	-1299
쇼핑	-1300
움을	-1301
져요	-1302
한데	-1303
해져	-1304
▁가기	-1305
▁금방	-1306
▁꾸준	-1307
▁늦지	-1308
▁돈이	-1309
▁바쁘	-1310
▁받는	-1311
▁받을	-1312
▁보통	-1313
▁분위	-1314
▁시험	-1315
▁아름	-1316
▁않고	-1317
▁앞에	-1318
▁애가	-1319
▁어쩌	-1320
▁이어	-1321
▁잠이	-1322
▁종교	-1323
▁진정	-1324
▁충전	-1325
▁칭찬	-1326
▁흘렀	-1327
했어요	-1328
▁남편이	-1329
▁누구나	-1330
▁먹으면	-1331
▁싶네요	-1332
▁알려줘	-1333
▁없네요	-1334
▁없다면	-1335
▁이별후	-1336
▁이제는	-1337
▁즐거운	-1338
▁힘들죠	-1339
▁남자애가	-1340
▁못하겠어	-1341
▁짝녀한테	-1342
▁헤어졌습니다	-1343
대요	-1344
더라	-1345
들은	-1346
들을	-1347
리게	-1348
리를	-1349
사친	-1350
여행	-1351
줄까	-1352
▁끝내	-1353
▁됐어	-1354
▁마요	-1355
▁미치	-1356
▁바로	-1357
▁쇼핑	-1358
▁스킨	-1359
▁시원	-1360
▁시켜	-1361
▁안해	-1362
▁알고	-1363
▁어울	-1364
▁예민	-1365
▁응원	-1366
▁주는	-1367
▁즐기	-1368
▁취미	-1369
가세요	-1370
해야지	-1371
해지는	-1372
▁가세요	-1373
▁당신은	-1374
▁두려워	-1375
▁때까지	-1376
▁맛있는	-1377
▁뭐라고	-1378
▁봅니다	-1379
▁사랑할	-1380
▁스타일	-1381
▁언제나	-1382
▁있는지	-1383
▁필요해	-1384
▁해봐요	-1385
신가봐요	-1386
▁같습니다	-1387
▁아닐까요	-1388
▁있습니다	-1389
▁등	-1390
▁옆	-1391
겠네	-1392
기만	-1393
밖에	-1394
야할	-1395
이가	-1396
하니	-1397
▁고생	-1398
▁곳이	-1399
▁까먹	-1400
▁당당	-1401
▁되네	-1402
▁때도	-1403
▁로맨	-1404
▁마셔	-1405
▁먹을	-1406
▁멋진	-1407
▁바보	-1408
▁서운	-1409
▁쉬고	-1410
▁슬프	-1411
▁싸우	-1412
▁일은	-1413
▁장난	-1414
▁절대	-1415
▁중에	-1416
▁지쳤	-1417
▁편이	-1418
▁하늘	-1419
▁해결	-1420
드려요	-1421
보는게	-1422
셨네요	-1423
스럽게	-1424
이라는	-1425
잖아요	-1426
줬으면	-1427
해주는	-1428
▁마음도	-1429
▁상처받	-1430
▁생각만	-1431
▁시간은	-1432
▁아닌지	-1433
▁안되는	-1434
▁좋은데	-1435
▁중인데	-1436
▁거기까지	-1437
▁사랑하고	-1438
▁연락해도	-1439
▁자책하지	-1440
▁짝남이랑	-1441
▁다행이에요	-1442
▁살펴보세요	-1443
▁좋아하는데	-1444
▁밀	-1445
▁채	-1446
덤덤	-1447
어야	-1448
음이	-1449
이지	-1450
장이	-1451
주일	-1452
퇴근	-1453
하시	-1454
▁가면	-1455
▁간다	-1456
▁갖고	-1457
▁것을	-1458
▁경우	-1459
▁당연	-1460
▁동거	-1461
▁되고	-1462
▁드는	-1463
▁문자	-1464
▁뭔지	-1465
▁미워	-1466
▁보지	-1467
▁볼까	-1468
▁비밀	-1469
▁안경	-1470
▁오는	-1471
▁자격	-1472
▁자유	-1473
▁집중	-1474
▁해주	-1475
▁헤아	-1476
더라고	-1477
오세요	-1478
▁가슴이	-1479
▁관심을	-1480
▁궁금해	-1481
▁그대로	-1482
▁그래요	-1483
▁그리고	-1484
▁능력이	-1485
▁어려운	-1486
▁어려워	-1487
▁용기를	-1488
▁재미있	-1489
▁전여친	-1490
▁충분한	-1491
▁헤어져	-1492
아보세요	-1493
▁다음에는	-1494
▁말하세요	-1495
▁사랑하면	-1496
▁생각하고	-1497
▁힘들어요	-1498
▁받아들이는	-1499
▁꿨	-1500
▁멍	-1501
▁삭	-1502
▁역	-1503
▁클	-1504
▁택	-1505
가네	-1506
냄새	-1507
때는	-1508
보여	-1509
시켜	-1510
자리	-1511
해졌	-1512
했다	-1513
▁10	-1514
▁가야	-1515
▁고마	-1516
▁귀여	-1517
▁기본	-1518
▁두달	-1519
▁떨려	-1520
▁삭제	-1521
▁소리	-1522
▁썸녀	-1523
▁않길	-1524
▁어쩔	-1525
▁월급	-1526
▁이러	-1527
▁이성	-1528
▁일어	-1529
▁잊고	-1530
▁잊을	-1531
▁저를	-1532
▁적응	-1533
▁조언	-1534
▁졸업	-1535
답니다	-1536
▁고민이	-1537
▁그러면	-1538
▁꾸준히	-1539
▁남친이	-1540
▁못하는	-1541
▁미련이	-1542
▁받아들	-1543
▁사람에	-1544
▁사랑해	-1545
▁위로해	-1546
▁이상한	-1547
▁있네요	-1548
▁잊어버	-1549
▁좋겠죠	-1550
▁준비가	-1551
가봅니다	-1552
더라고요	-1553
았나봐요	-1554
▁기다리고	-1555
▁않았으면	-1556
▁진심으로	-1557
▁친구들이	-1558
▁부담스러워	-1559
▁힘들겠어요	-1560
▁S	-1561
▁골	-1562
▁삼	-1563
▁쌓	-1564
▁터	-1565
▁투	-1566
▁특	-1567
▁희	-1568
년이	-1569
디어	-1570
마스	-1571
받고	-1572
스크	-1573
심해	-1574
었다	-1575
연애	-1576
오네	-1577
이밍	-1578
인거	-1579
자는	-1580
전히	-1581
한게	-1582
한다	-1583
▁군대	-1584
▁그건	-1585
▁나랑	-1586
▁나온	-1587
▁놀이	-1588
▁담배	-1589
▁드라	-1590
▁몸이	-1591
▁못해	-1592
▁뭐든	-1593
▁뭔가	-1594
▁배려	-1595
▁배워	-1596
▁버려	-1597
▁번호	-1598
▁병원	-1599
▁상담	-1600
▁애랑	-1601
▁여러	-1602
▁예쁜	-1603
▁오빠	-1604
▁원래	-1605
▁위험	-1606
▁잠수	-1607
▁적당	-1608
▁존중	-1609
▁차분	-1610
▁출근	-1611
▁취직	-1612
▁편지	-1613
▁흔들	-1614
하겠죠	-1615
하려고	-1616
▁가지고	-1617
▁감정이	-1618
▁것보다	-1619
▁괜찮을	-1620
▁남자애	-1621
▁드디어	-1622
▁로맨틱	-1623
▁마음은	-1624
▁무서워	-1625
▁방법이	-1626
▁사람과	-1627
▁스킨십	-1628
▁안들어	-1629
▁짜증나	-1630
▁타이밍	-1631
상이에요	-1632
▁물어보는	-1633
▁않는다면	-1634
▁여자애가	-1635
▁자신에게	-1636
▁만나보세요	-1637
▁사람이네요	-1638
▁자연스러운	-1639
▁좋아하는게	-1640
▁멈	-1641
▁샀	-1642
▁팔	-1643
▁폰	-1644
내고	-1645
니가	-1646
리스	-1647
생님	-1648
없는	-1649
이어	-1650
치가	-1651
▁경험	-1652
▁꿈을	-1653
▁끝은	-1654
▁끝을	-1655
▁나눠	-1656
▁누가	-1657
▁대학	-1658
▁몰랐	-1659
▁발표	-1660
▁보러	-1661
▁본인	-1662
▁부탁	-1663
▁사과	-1664
▁싫은	-1665
▁안타	-1666
▁얘기	-1667
▁어색	-1668
▁우선	-1669
▁적극	-1670
▁좋다	-1671
▁좋지	-1672
▁착각	-1673
▁최선	-1674
▁커플	-1675
▁타고	-1676
▁태어	-1677
▁프로	-1678
▁해서	-1679
됩니다	-1680
▁그녀가	-1681
▁그사람	-1682
▁놀아요	-1683
▁데려다	-1684
▁말하는	-1685
▁선생님	-1686
▁썸남이	-1687
▁아름다	-1688
▁안하고	-1689
▁어느덧	-1690
▁일주일	-1691
▁하나도	-1692
▁화장실	-1693
▁후회할	-1694
▁힘들지	-1695
▁사람에게	-1696
▁않을까요	-1697
▁있겠어요	-1698
▁있잖아요	-1699
▁후회하지	-1700
▁축하드려요	-1701
▁힘들겠지만	-1702
NS	-1703
▁걷	-1704
▁뜻	-1705
▁침	-1706
가를	-1707
고생	-1708
냐고	-1709
년째	-1710
놓고	-1711
르는	-1712
상을	-1713
상이	-1714
식을	-1715
요일	-1716
음을	-1717
이요	-1718
줬어	-1719
한거	-1720
함이	-1721
▁감사	-1722
▁귀엽	-1723
▁동생	-1724
▁두근	-1725
▁말도	-1726
▁먹는	-1727
▁무너	-1728
▁무뎌	-1729
▁무섭	-1730
▁바빠	-1731
▁발전	-1732
▁배고	-1733
▁버텨	-1734
▁불편	-1735
▁비가	-1736
▁상사	-1737
▁쉬는	-1738
▁쉽게	-1739
▁싫다	-1740
▁쓰레	-1741
▁안됐	-1742
▁어플	-1743
▁올려	-1744
▁위한	-1745
▁이기	-1746
▁이름	-1747
▁이용	-1748
▁인사	-1749
▁있고	-1750
▁잠을	-1751
▁저녁	-1752
▁존재	-1753
▁좋았	-1754
▁지우	-1755
▁차이	-1756
▁키우	-1757
▁하기	-1758
▁해줘	-1759
▁했던	-1760
으면서	-1761
을지도	-1762
인가봐	-1763
인가요	-1764
하다고	-1765
▁SNS	-1766
▁가야지	-1767
▁같네요	-1768
▁기다릴	-1769
▁만나서	-1770
▁맘고생	-1771
▁문제가	-1772
▁받았어	-1773
▁상황을	-1774
▁서로를	-1775
▁아는데	-1776
▁완전히	-1777
▁있나요	-1778
▁잊혀지	-1779
▁제대로	-1780
▁좋아한	-1781
▁해보는	-1782
했습니다	-1783
▁괜찮아질	-1784
▁되겠네요	-1785
▁연락하면	-1786
▁자신감을	-1787
▁축하해요	-1788
▁헤어졌어	-1789
▁그런가봐요	-1790
▁모르겠네요	-1791
▁사랑하는데	-1792
▁좋아하는지	-1793
▁겨	-1794
▁꺼	-1795
▁났	-1796
▁늘	-1797
▁독	-1798
▁뿌	-1799
▁억	-1800
▁철	-1801
▁판	-1802
느라	-1803
려면	-1804
리면	-1805
만이	-1806
말고	-1807
서관	-1808
성이	-1809
시길	-1810
시는	-1811
시다	-1812
시면	-1813
어머	-1814
었네	-1815
장을	-1816
질까	-1817
치고	-1818
▁갈까	-1819
▁같네	-1820
▁거야	-1821
▁걸로	-1822
▁계획	-1823
▁괜히	-1824
▁냄새	-1825
▁다니	-1826
▁당황	-1827
▁되면	-1828
▁듣고	-1829
▁미래	-1830
▁바꿔	-1831
▁바뀔	-1832
▁사실	-1833
▁새벽	-1834
▁생기	-1835
▁생긴	-1836
▁속이	-1837
▁쉬어	-1838
▁의지	-1839
▁이사	-1840
▁일도	-1841
▁자고	-1842
▁주면	-1843
▁지쳐	-1844
▁질투	-1845
▁채워	-1846
▁청소	-1847
▁프사	-1848
▁피부	-1849
▁학원	-1850
두세요	-1851
해봐요	-1852
▁가자고	-1853
▁나이가	-1854
▁도서관	-1855
▁될까요	-1856
▁만나면	-1857
▁머리가	-1858
▁못하고	-1859
▁붙잡고	-1860
▁사람의	-1861
▁사랑하	-1862
▁어쩌지	-1863
▁연습을	-1864
▁용기내	-1865
▁이상해	-1866
▁있어도	-1867
▁저에게	-1868
▁적당히	-1869
▁지나갈	-1870
▁필요하	-1871
▁하는게	-1872
▁호감을	-1873
▁호감이	-1874
▁혼자만	-1875
리스마스	-1876
을거예요	-1877
▁보고싶어	-1878
▁사람마다	-1879
▁생각하는	-1880
▁오랜만에	-1881
▁후폭풍이	-1882
▁사랑한다고	-1883
▁생각하세요	-1884
▁여자친구와	-1885
▁현상이에요	-1886
▁들어드릴게요	-1887
▁말씀해주세요	-1888
▁시작해보세요	-1889
▁7	-1890
▁8	-1891
▁각	-1892
▁권	-1893
▁깔	-1894
▁끄	-1895
▁뒷	-1896
▁뜨	-1897
▁리	-1898
▁셀	-1899
▁썼	-1900
▁쐬	-1901
▁톡	-1902
가지	-1903
간이	-1904
구나	-1905
나는	-1906
됐어	-1907
라는	-1908
력을	-1909
리기	-1910
세먼	-1911
었던	-1912
웨딩	-1913
이길	-1914
이다	-1915
할지	-1916
▁건가	-1917
▁결과	-1918
▁고쳐	-1919
▁과정	-1920
▁기운	-1921
▁꿈이	-1922
▁나의	-1923
▁나타	-1924
▁느끼	-1925
▁돈을	-1926
▁따로	-1927
▁때는	-1928
▁만드	-1929
▁멋있	-1930
▁못한	-1931
▁바뀌	-1932
▁반복	-1933
▁보냈	-1934
▁불러	-1935
▁불안	-1936
▁비교	-1937
▁사귈	-1938
▁살짝	-1939
▁소화	-1940
▁슬퍼	-1941
▁심해	-1942
▁싶지	-1943
▁안좋	-1944
▁애매	-1945
▁없다	-1946
▁연예	-1947
▁영원	-1948
▁완벽	-1949
▁이거	-1950
▁이혼	-1951
▁일상	-1952
▁있지	-1953
▁점심	-1954
▁지워	-1955
▁차별	-1956
▁퇴근	-1957
▁피해	-1958
▁한잔	-1959
▁호감	-1960
듭니다	-1961
으려고	-1962
이어트	-1963
▁가능할	-1964
▁결혼식	-1965
▁그녀의	-1966
▁꿈에서	-1967
▁남자를	-1968
▁내일은	-1969
▁눈물이	-1970
▁돌아오	-1971
▁마주치	-1972
▁무서운	-1973
▁무엇이	-1974
▁뭐하지	-1975
▁분위기	-1976
▁선택일	-1977
▁성격이	-1978
▁쉬세요	-1979
▁쓰레기	-1980
▁아무도	-1981
▁아무리	-1982
▁안해도	-1983
▁어디서	-1984
▁여유를	-1985
▁장거리	-1986
▁추억이	-1987
▁친구로	-1988
▁필요할	-1989
▁행복한	-1990
▁혼자가	-1991
셨나봐요	-1992
▁고민하고	-1993
▁괜찮아졌	-1994
▁다이어트	-1995
▁만나세요	-1996
▁만났는데	-1997
▁부담스럽	-1998
▁생각나네	-1999
▁생각나는	-2000
▁생각하지	-2001
▁연락하는	-2002
▁일이에요	-2003
▁좋아하고	-2004
▁좋을텐데	-2005
▁친구들과	-2006
▁하다보면	-2007
▁헤어져야	-2008
▁흘렀네요	-2009
▁놓아주세요	-2010
▁여자친구의	-2011
▁이야기네요	-2012
▁자연스럽게	-2013
▁전해보세요	-2014
▁짝사랑하는	-2015
▁크리스마스	-2016
▁말씀해보세요	-2017
▁꼬	-2018
▁농	-2019
▁됨	-2020
▁잤	-2021
▁죄	-2022
▁창	-2023
▁체	-2024
▁춥	-2025
▁틀	-2026
▁페	-2027
▁푹	-2028
같이	-2029
거려	-2030
까워	-2031
념일	-2032
소한	-2033
심이	-2034
싶다	-2035
어서	-2036
어진	-2037
었을	-2038
였어	-2039
주지	-2040
지네	-2041
할때	-2042
호흡	-2043
▁가벼	-2044
▁간절	-2045
▁갑작	-2046
▁거울	-2047
▁견디	-2048
▁그랬	-2049
▁그럼	-2050
▁꿨어	-2051
▁눈에	-2052
▁대해	-2053
▁동물	-2054
▁많죠	-2055
▁면접	-2056
▁목소	-2057
▁못할	-2058
▁문득	-2059
▁버스	-2060
▁분명	-2061
▁사라	-2062
▁살까	-2063
▁상태	-2064
▁속상	-2065
▁신혼	-2066
▁썸이	-2067
▁야경	-2068
▁어장	-2069
▁없애	-2070
▁우연	-2071
▁원망	-2072
▁은근	-2073
▁인간	-2074
▁인형	-2075
▁정확	-2076
▁주고	-2077
▁집안	-2078
▁치과	-2079
▁크게	-2080
▁평소	-2081
드세요	-2082
립니다	-2083
면서도	-2084
일지도	-2085
▁걱정돼	-2086
▁걱정되	-2087
▁그동안	-2088
▁그리워	-2089
▁기념일	-2090
▁날씨가	-2091
▁때네요	-2092
▁마스크	-2093
▁무덤덤	-2094
▁물어봐	-2095
▁미세먼	-2096
▁벗어나	-2097
▁소중한	-2098
▁시작이	-2099
▁실감이	-2100
▁심호흡	-2101
▁썸인지	-2102
▁않으면	-2103
▁앞으로	-2104
▁언제쯤	-2105
▁없는데	-2106
▁없다고	-2107
▁연락처	-2108
▁연애는	-2109
▁연예인	-2110
▁왔는데	-2111
▁외로워	-2112
▁인생은	-2113
▁잘해줘	-2114
▁집에서	-2115
▁필요는	-2116
▁한동안	-2117
였나봐요	-2118
▁걱정하지	-2119
▁기다리는	-2120
▁만나는게	-2121
▁만나자고	-2122
▁사람으로	-2123
▁썸남한테	-2124
▁않았어요	-2125
▁연락하지	-2126
▁좋아할까	-2127
▁했습니다	-2128
▁헷갈리게	-2129
▁궁금하네요	-2130
▁여자친구랑	-2131
▁지쳤나봐요	-2132
▁헤어졌는데	-2133
▁노력해보세요	-2134
▁잊어버리세요	-2135
▁이야기해보세요	-2136
▁긍	-2137
▁낭	-2138
▁딸	-2139
▁뻔	-2140
▁씻	-2141
▁업	-2142
▁짐	-2143
▁패	-2144
되는	-2145
디션	-2146
러워	-2147
먹고	-2148
방법	-2149
으시	-2150
인듯	-2151
점을	-2152
주가	-2153
주고	-2154
준비	-2155
지로	-2156
▁ᅲᅲ	-2157
▁거절	-2158
▁거지	-2159
▁견뎌	-2160
▁긍정	-2161
▁기울	-2162
▁깔끔	-2163
▁나올	-2164
▁나왔	-2165
▁남았	-2166
▁놀고	-2167
▁놀아	-2168
▁놓고	-2169
▁느려	-2170
▁다들	-2171
▁대단	-2172
▁떠난	-2173
▁라면	-2174
▁마무	-2175
▁말할	-2176
▁몰라	-2177
▁미친	-2178
▁받지	-2179
▁보일	-2180
▁비슷	-2181
▁사고	-2182
▁사귄	-2183
▁사회	-2184
▁생활	-2185
▁수록	-2186
▁시계	-2187
▁신고	-2188
▁쐬고	-2189
▁쓰는	-2190
▁안와	-2191
▁않네	-2192
▁알았	-2193
▁없나	-2194
▁역시	-2195
▁옆에	-2196
▁오해	-2197
▁음악	-2198
▁이건	-2199
▁이게	-2200
▁이럴	-2201
▁이루	-2202
▁잡고	-2203
▁전부	-2204
▁주지	-2205
▁중국	-2206
▁줘도	-2207
▁지난	-2208
▁진급	-2209
▁짧은	-2210
▁취업	-2211
▁클럽	-2212
▁판단	-2213
▁편할	-2214
▁평생	-2215
▁피할	-2216
▁현금	-2217
다가도	-2218
버렸어	-2219
었어요	-2220
으니까	-2221
한다면	-2222
해볼까	-2223
해주고	-2224
▁감정에	-2225
▁그래서	-2226
▁나왔어	-2227
▁남사친	-2228
▁당신도	-2229
▁되는데	-2230
▁똑같은	-2231
▁모르고	-2232
▁방학이	-2233
▁상황이	-2234
▁생겼어	-2235
▁선물이	-2236
▁아프네	-2237
▁안타깝	-2238
▁앞에서	-2239
▁어때요	-2240
▁얼마나	-2241
▁없으면	-2242
▁여행을	-2243
▁연락은	-2244
▁예뻐요	-2245
▁용기가	-2246
▁있겠죠	-2247
▁있는게	-2248
▁있지만	-2249
▁잊어야	-2250
▁저도요	-2251
▁저한테	-2252
▁지나갔	-2253
▁진정한	-2254
▁짝녀랑	-2255
▁타는데	-2256
▁하면서	-2257
▁해야지	-2258
▁확실히	-2259
▁가지세요	-2260
▁당당하게	-2261
▁떨어졌어	-2262
▁버리세요	-2263
▁부러워요	-2264
▁사랑해서	-2265
▁아니라고	-2266
▁아니라면	-2267
▁어떡하지	-2268
▁여기까지	-2269
▁이야기를	-2270
▁자존감이	-2271
▁즐기세요	-2272
▁짝사랑이	-2273
▁충분해요	-2274
▁필요하죠	-2275
▁결정이었을	-2276
▁사람이에요	-2277
▁알아보세요	-2278
▁정리하는게	-2279
▁지켜보세요	-2280
▁기다려보세요	-2281
▁만들어보세요	-2282
▁이해해주세요	-2283
▁갚	-2284
▁걔	-2285
▁낮	-2286
▁놔	-2287
▁든	-2288
▁딴	-2289
▁뛰	-2290
▁센	-2291
▁쓴	-2292
▁염	-2293
▁짓	-2294
▁찌	-2295
▁컨	-2296
▁컴	-2297
▁트	-2298
▁헛	-2299
나게	-2300
남자	-2301
냐에	-2302
될까	-2303
두고	-2304
려도	-2305
롭게	-2306
리네	-2307
배가	-2308
수도	-2309
스타	-2310
이고	-2311
일이	-2312
장고	-2313
전에	-2314
지를	-2315
하러	-2316
했네	-2317
했을	-2318
▁가치	-2319
▁개인	-2320
▁걸릴	-2321
▁결심	-2322
▁계절	-2323
▁고통	-2324
▁근처	-2325
▁깨달	-2326
▁끝난	-2327
▁나쁘	-2328
▁남을	-2329
▁내는	-2330
▁누군	-2331
▁되죠	-2332
▁드네	-2333
▁때론	-2334
▁때를	-2335
▁막말	-2336
▁만든	-2337
▁말은	-2338
▁봐도	-2339
▁부럽	-2340
▁사야	-2341
▁샀어	-2342
▁선톡	-2343
▁소문	-2344
▁소원	-2345
▁스키	-2346
▁시기	-2347
▁안전	-2348
▁어서	-2349
▁여기	-2350
▁왔다	-2351
▁자세	-2352
▁잘생	-2353
▁제발	-2354
▁조급	-2355
▁조절	-2356
▁졸려	-2357
▁중간	-2358
▁진실	-2359
▁차가	-2360
▁축구	-2361
▁취향	-2362
▁친한	-2363
▁태도	-2364
▁택시	-2365
▁통보	-2366
▁편한	-2367
▁하게	-2368
▁현재	-2369
▁화가	-2370
▁희망	-2371
더라도	-2372
셨군요	-2373
싶은데	-2374
이라고	-2375
해지면	-2376
▁거겠죠	-2377
▁결정을	-2378
▁그녀는	-2379
▁나이는	-2380
▁남자는	-2381
▁냉장고	-2382
▁느낌이	-2383
▁달라고	-2384
▁됐으면	-2385
▁됩니다	-2386
▁만난지	-2387
▁많은데	-2388
▁물어보	-2389
▁미안해	-2390
▁믿음이	-2391
▁서로의	-2392
▁선택을	-2393
▁시어머	-2394
▁썸타는	-2395
▁아니면	-2396
▁아침에	-2397
▁애한테	-2398
▁언젠가	-2399
▁엄마가	-2400
▁없어서	-2401
▁위로가	-2402
▁이겨낼	-2403
▁이유를	-2404
▁있겠지	-2405
▁제자리	-2406
▁좋겠지	-2407
▁진심을	-2408
▁찾아올	-2409
▁했으면	-2410
▁후회가	-2411
▁가능성이	-2412
▁남자들은	-2413
▁달라지는	-2414
▁말이에요	-2415
▁받아들여	-2416
▁부모님이	-2417
▁상대방을	-2418
▁썸남이랑	-2419
▁아름다운	-2420
▁안됐는데	-2421
▁알면서도	-2422
▁좋겠지만	-2423
▁좋아하던	-2424
▁중요하죠	-2425
▁피하세요	-2426
▁행복하게	-2427
▁환승이별	-2428
▁힘들었을	-2429
▁남자친구와	-2430
▁방법이에요	-2431
▁부담스럽지	-2432
▁사람들에게	-2433
▁습관이에요	-2434
▁않으니까요	-2435
▁있으니까요	-2436
▁적극적으로	-2437
▁적어보세요	-2438
▁힘들겠네요	-2439
▁준비해보세요	-2440
ns	-2441
▁곁	-2442
▁꿀	-2443
▁넌	-2444
▁넣	-2445
▁디	-2446
▁맥	-2447
▁벚	-2448
▁블	-2449
▁숙	-2450
▁악	-2451
▁움	-2452
▁으	-2453
▁째	-2454
▁콩	-2455
▁합	-2456
▁헬	-2457
가면	-2458
가봐	-2459
갈까	-2460
갔어	-2461
거를	-2462
겼어	-2463
나면	-2464
년간	-2465
대폰	-2466
렸어	-2467
머리	-2468
봐도	-2469
부로	-2470
순위	-2471
시고	-2472
아야	-2473
아지	-2474
없어	-2475
오는	-2476
울까	-2477
이팅	-2478
인이	-2479
장면	-2480
전환	-2481
지면	-2482
통보	-2483
하루	-2484
혼자	-2485
sns	-2486
▁30	-2487
▁가요	-2488
▁거니	-2489
▁고맙	-2490
▁고치	-2491
▁곳에	-2492
▁공시	-2493
▁과일	-2494
▁교양	-2495
▁교회	-2496
▁글로	-2497
▁글을	-2498
▁긴장	-2499
▁깊은	-2500
▁나면	-2501
▁나은	-2502
▁남의	-2503
▁다양	-2504
▁단단	-2505
▁달달	-2506
▁당장	-2507
▁더워	-2508
▁두고	-2509
▁둘이	-2510
▁떨리	-2511
▁마다	-2512
▁많을	-2513
▁맘에	-2514
▁맛난	-2515
▁매력	-2516
▁맥주	-2517
▁머릿	-2518
▁멈추	-2519
▁메뉴	-2520
▁모아	-2521
▁목표	-2522
▁물리	-2523
▁밀당	-2524
▁바꾸	-2525
▁밖에	-2526
▁반대	-2527
▁벚꽃	-2528
▁변명	-2529
▁보기	-2530
▁보니	-2531
▁보험	-2532
▁부딪	-2533
▁분이	-2534
▁불행	-2535
▁산책	-2536
▁선이	-2537
▁실망	-2538
▁심심	-2539
▁싶네	-2540
▁쓰고	-2541
▁아빠	-2542
▁아쉬	-2543
▁아예	-2544
▁않게	-2545
▁알면	-2546
▁야근	-2547
▁어린	-2548
▁예쁘	-2549
▁오네	-2550
▁올라	-2551
▁외로	-2552
▁울적	-2553
▁유지	-2554
▁이뤄	-2555
▁이불	-2556
▁자리	-2557
▁중독	-2558
▁집이	-2559
▁청첩	-2560
▁추워	-2561
▁텐데	-2562
▁페북	-2563
▁편안	-2564
▁하네	-2565
▁행운	-2566
▁향수	-2567
▁화를	-2568
▁휴식	-2569
거같아	-2570
된다고	-2571
셨어요	-2572
었으면	-2573
이라니	-2574
일까요	-2575
장에서	-2576
적이든	-2577
줄게요	-2578
하느라	-2579
하니까	-2580
하자고	-2581
하지만	-2582
▁곳에서	-2583
▁공부는	-2584
▁관계를	-2585
▁귀여워	-2586
▁그만큼	-2587
▁기회가	-2588
▁노래방	-2589
▁달라지	-2590
▁들어가	-2591
▁들어와	-2592
▁마무리	-2593
▁모습이	-2594
▁뭐하고	-2595
▁배고파	-2596
▁부러워	-2597
▁부분이	-2598
▁부족한	-2599
▁사이가	-2600
▁상관없	-2601
▁상대를	-2602
▁상처가	-2603
▁상처를	-2604
▁생각에	-2605
▁생각한	-2606
▁선물을	-2607
▁시간도	-2608
▁시기가	-2609
▁아니었	-2610
▁아무렇	-2611
▁안돼요	-2612
▁안하는	-2613
▁억지로	-2614
▁여사친	-2615
▁연애가	-2616
▁연애를	-2617
▁운동을	-2618
▁인기가	-2619
▁인생이	-2620
▁있다고	-2621
▁있으니	-2622
▁자격이	-2623
▁자신만	-2624
▁자신에	-2625
▁정리할	-2626
▁지났네	-2627
▁지내고	-2628
▁집들이	-2629
▁최고죠	-2630
▁최선의	-2631
▁파이팅	-2632
▁편하게	-2633
▁표현해	-2634
▁한달이	-2635
▁할텐데	-2636
▁휴대폰	-2637
겨보세요	-2638
▁기분전환	-2639
▁나가세요	-2640
▁내보세요	-2641
▁따뜻하게	-2642
▁만나기로	-2643
▁만들어요	-2644
▁사랑하지	-2645
▁상대방이	-2646
▁생겼는데	-2647
▁아프네요	-2648
▁없겠네요	-2649
▁여자들은	-2650
▁여자한테	-2651
▁용기내서	-2652
▁이별통보	-2653
▁이성으로	-2654
▁일이네요	-2655
▁준비하는	-2656
▁지금처럼	-2657
▁하나봐요	-2658
▁하루하루	-2659
▁하셨네요	-2660
▁힘들겠지	-2661
▁힘들어서	-2662
▁남자친구의	-2663
▁다녀오세요	-2664
▁무시하세요	-2665
▁바쁜가봐요	-2666
▁사랑한다면	-2667
▁생각이에요	-2668
▁여자애한테	-2669
▁응원합니다	-2670
▁있을거예요	-2671
▁지금이라도	-2672
▁필요하다면	-2673
▁헤어지자고	-2674
▁고백해보세요	-2675
▁힘든가봅니다	-2676
▁힘들었겠어요	-2677
ᄒᄒ	-2678
ᅲᅲ	-2679
▁격	-2680
▁급	-2681
▁땀	-2682
▁맡	-2683
▁밝	-2684
▁싱	-2685
▁잃	-2686
▁찬	-2687
▁푸	-2688
▁핑	-2689
▁혹	-2690
거죠	-2691
까봐	-2692
내는	-2693
년의	-2694
다발	-2695
데요	-2696
데이	-2697
도록	-2698
되면	-2699
든지	-2700
라리	-2701
래요	-2702
려구	-2703
려나	-2704
린다	-2705
먹기	-2706
무원	-2707
번호	-2708
보내	-2709
부를	-2710
빼로	-2711
샤워	-2712
시락	-2713
았던	-2714
어두	-2715
웠어	-2716
유증	-2717
주려	-2718
지마	-2719
포즈	-2720
하던	-2721
▁가도	-2722
▁각자	-2723
▁감성	-2724
▁갔다	-2725
▁개강	-2726
▁거의	-2727
▁것은	-2728
▁겨울	-2729
▁골라	-2730
▁공허	-2731
▁과거	-2732
▁과식	-2733
▁권태	-2734
▁그것	-2735
▁그는	-2736
▁깨끗	-2737
▁남아	-2738
▁낫죠	-2739
▁내요	-2740
▁너를	-2741
▁넘어	-2742
▁늦게	-2743
▁달콤	-2744
▁됐네	-2745
▁두번	-2746
▁마실	-2747
▁만족	-2748
▁말까	-2749
▁맘이	-2750
▁맞추	-2751
▁명절	-2752
▁바꿀	-2753
▁반가	-2754
▁받은	-2755
▁별거	-2756
▁봄이	-2757
▁사용	-2758
▁살기	-2759
▁새로	-2760
▁설렘	-2761
▁소비	-2762
▁술을	-2763
▁신청	-2764
▁심경	-2765
▁썸은	-2766
▁썸의	-2767
▁쓸데	-2768
▁아껴	-2769
▁애정	-2770
▁어찌	-2771
▁없지	-2772
▁오랫	-2773
▁오면	-2774
▁왜이	-2775
▁외국	-2776
▁외모	-2777
▁용돈	-2778
▁움직	-2779
▁유부	-2780
▁의외	-2781
▁인기	-2782
▁	-2783
.	-2784
요	-2785
이	-2786
어	-2787
는	-2788
하	-2789
아	-2790
지	-2791
가	-2792
다	-2793
해	-2794
고	-2795
세	-2796
을	-2797
나	-2798
사	-2799
보	-2800
도	-2801
게	-2802
거	-2803
에	-2804
좋	-2805
자	-2806
있	-2807
은	-2808
기	-2809
면	-2810
한	-2811
까	-2812
?	-2813
네	-2814
만	-2815
니	-2816
데	-2817
마	-2818
랑	-2819
서	-2820
예	-2821
겠	-2822
그	-2823
로	-2824
리	-2825
시	-2826
들	-2827
람	-2828
생	-2829
인	-2830
무	-2831
라	-2832
수	-2833
일	-2834
야	-2835
같	-2836
할	-2837
정	-2838
안	-2839
남	-2840
친	-2841
연	-2842
구	-2843
으	-2844
말	-2845
를	-2846
주	-2847
여	-2848
봐	-2849
내	-2850
죠	-2851
의	-2852
음	-2853
없	-2854
싶	-2855
각	-2856
제	-2857
신	-2858
것	-2859
려	-2860
잘	-2861
대	-2862
힘	-2863
오	-2864
너	-2865
상	-2866
많	-2867
간	-2868
별	-2869
바	-2870
더	-2871
했	-2872
않	-2873
진	-2874
스	-2875
부	-2876
되	-2877
애	-2878
전	-2879
드	-2880
었	-2881
락	-2882
건	-2883
저	-2884
때	-2885
모	-2886
헤	-2887
심	-2888
금	-2889
중	-2890
운	-2891
짝	-2892
화	-2893
썸	-2894
비	-2895
워	-2896
길	-2897
못	-2898
장	-2899
혼	-2900
미	-2901
물	-2902
적	-2903
분	-2904
러	-2905
감	-2906
걸	-2907
먹	-2908
히	-2909
습	-2910
알	-2911
래	-2912
받	-2913
테	-2914
당	-2915
우	-2916
소	-2917
결	-2918
날	-2919
선	-2920
행	-2921
달	-2922
르	-2923
직	-2924
살	-2925
좀	-2926
관	-2927
후	-2928
!	-2929
았	-2930
조	-2931
방	-2932
돼	-2933
회	-2934
녀	-2935
될	-2936
동	-2937
늘	-2938
타	-2939
든	-2940
차	-2941
복	-2942
실	-2943
뭐	-2944
찮	-2945
과	-2946
른	-2947
공	-2948
와	-2949
질	-2950
트	-2951
끝	-2952
괜	-2953
속	-2954
원	-2955
계	-2956
치	-2957
잊	-2958
두	-2959
필	-2960
처	-2961
귀	-2962
문	-2963
유	-2964
집	-2965
경	-2966
던	-2967
졌	-2968
준	-2969
런	-2970
재	-2971
줄	-2972
난	-2973
편	-2974
답	-2975
성	-2976
년	-2977
피	-2978
렇	-2979
왜	-2980
울	-2981
꾸	-2982
식	-2983
위	-2984
느	-2985
개	-2986
떻	-2987
버	-2988
작	-2989
져	-2990
왔	-2991
떨	-2992
볼	-2993
배	-2994
현	-2995
입	-2996
노	-2997
짜	-2998
났	-2999
번	-3000
맞	-3001
새	-3002
추	-3003
올	-3004
잠	-3005
또	-3006
민	-3007
법	-3008
언	-3009
참	-3010
디	-3011
쓰	-3012
력	-3013
함	-3014
프	-3015
눈	-3016
학	-3017
확	-3018
따	-3019
반	-3020
쉬	-3021
싫	-3022
단	-3023
담	-3024
줘	-3025
카	-3026
능	-3027
점	-3028
억	-3029
찾	-3030
갈	-3031
겨	-3032
변	-3033
잡	-3034
표	-3035
놀	-3036
먼	-3037
근	-3038
얼	-3039
용	-3040
천	-3041
터	-3042
통	-3043
매	-3044
합	-3045
련	-3046
불	-3047
술	-3048
절	-3049
레	-3050
머	-3051
누	-3052
럴	-3053
돌	-3054
발	-3055
맛	-3056
백	-3057
봅	-3058
호	-3059
몰	-3060
긴	-3061
릴	-3062
움	-3063
루	-3064
충	-3065
꿈	-3066
파	-3067
듯	-3068
막	-3069
교	-3070
약	-3071
랄	-3072
청	-3073
영	-3074
톡	-3075
돈	-3076
증	-3077
강	-3078
됐	-3079
명	-3080
취	-3081
군	-3082
1	-3083
싸	-3084
놓	-3085
접	-3086
큼	-3087
빠	-3088
월	-3089
곳	-3090
째	-3091
닌	-3092
젠	-3093
된	-3094
믿	-3095
떠	-3096
쁜	-3097
겼	-3098
망	-3099
순	-3100
외	-3101
랍	-3102
걱	-3103
임	-3104
택	-3105
셨	-3106
국	-3107
께	-3108
름	-3109
맘	-3110
갑	-3111
쉽	-3112
크	-3113
키	-3114
씩	-3115
축	-3116
,	-3117
2	-3118
앞	-3119
업	-3120
였	-3121
쁘	-3122
슬	-3123
열	-3124
럽	-3125
황	-3126
뭘	-3127
커	-3128
휴	-3129
3	-3130
떤	-3131
렸	-3132
냥	-3133
슨	-3134
온	-3135
짐	-3136
궁	-3137
양	-3138
님	-3139
침	-3140
설	-3141
켜	-3142
폰	-3143
엄	-3144
족	-3145
착	-3146
최	-3147
포	-3148
혀	-3149
럼	-3150
쳐	-3151
허	-3152
험	-3153
텐	-3154
출	-3155
록	-3156
죽	-3157
즐	-3158
태	-3159
환	-3160
격	-3161
깨	-3162
냐	-3163
린	-3164
몸	-3165
책	-3166
ᅲ	-3167
급	-3168
잔	-3169
첫	-3170
갔	-3171
본	-3172
산	-3173
늦	-3174
떡	-3175
존	-3176
풀	-3177
극	-3178
체	-3179
픈	-3180
형	-3181
목	-3182
덜	-3183
벌	-3184
낌	-3185
넘	-3186
란	-3187
멋	-3188
밥	-3189
플	-3190
항	-3191
활	-3192
챙	-3193
팅	-3194
완	-3195
종	-3196
향	-3197
써	-3198
티	-3199
평	-3200
끔	-3201
셔	-3202
숙	-3203
찍	-3204
꼭	-3205
씨	-3206
웃	-3207
줬	-3208
큰	-3209
견	-3210
맨	-3211
뿐	-3212
응	-3213
초	-3214
굴	-3215
글	-3216
붙	-3217
욕	-3218
즘	-3219
낼	-3220
빨	-3221
0	-3222
닐	-3223
손	-3224
짓	-3225
뜻	-3226
색	-3227
폭	-3228
씀	-3229
흘	-3230
꽃	-3231
뻐	-3232
탈	-3233
투	-3234
페	-3235
봤	-3236
솔	-3237
슴	-3238
코	-3239
5	-3240
곤	-3241
둘	-3242
몇	-3243
척	-3244
딱	-3245
똑	-3246
뭔	-3247
병	-3248
풍	-3249
메	-3250
밀	-3251
벽	-3252
핸	-3253
갖	-3254
덤	-3255
듣	-3256
며	-3257
졸	-3258
찬	-3259
쳤	-3260
껴	-3261
냈	-3262
밤	-3263
4	-3264
승	-3265
짧	-3266
픔	-3267
랐	-3268
림	-3269
밌	-3270
칭	-3271
S	-3272
독	-3273
쓸	-3274
역	-3275
옷	-3276
꺼	-3277
뒤	-3278
봄	-3279
퇴	-3280
흐	-3281
6	-3282
끊	-3283
밖	-3284
빼	-3285
익	-3286
칠	-3287
핑	-3288
빌	-3289
숨	-3290
악	-3291
얘	-3292
흔	-3293
랜	-3294
박	-3295
웠	-3296
펴	-3297
괴	-3298
깐	-3299
끼	-3300
료	-3301
득	-3302
렵	-3303
엇	-3304
녕	-3305
렀	-3306
춰	-3307
낫	-3308
뎌	-3309
베	-3310
읽	-3311
곧	-3312
깊	-3313
높	-3314
삶	-3315
잖	-3316
케	-3317
킨	-3318
퍼	-3319
념	-3320
등	-3321
멀	-3322
석	-3323
창	-3324
롭	-3325
멍	-3326
섭	-3327
쩌	-3328
채	-3329
탁	-3330
헷	-3331
s	-3332
골	-3333
끄	-3334
냉	-3335
벗	-3336
션	-3337
숭	-3338
찌	-3339
겁	-3340
꿨	-3341
뜨	-3342
맥	-3343
쇼	-3344
십	-3345
염	-3346
쯤	-3347
판	-3348
꼬	-3349
꿀	-3350
철	-3351
클	-3352
특	-3353
팔	-3354
효	-3355
ᄒ	-3356
류	-3357
립	-3358
북	-3359
센	-3360
옆	-3361
깝	-3362
냄	-3363
뻔	-3364
쟁	-3365
쩔	-3366
틀	-3367
패	-3368
ᅮ	-3369
김	-3370
덧	-3371
딩	-3372
랬	-3373
례	-3374
삭	-3375
엔	-3376
죄	-3377
희	-3378
꿔	-3379
덕	-3380
밍	-3381
삼	-3382
싱	-3383
쌓	-3384
엽	-3385
콩	-3386
토	-3387
틱	-3388
품	-3389
헛	-3390
놈	-3391
놔	-3392
눠	-3393
됩	-3394
론	-3395
릿	-3396
멈	-3397
뿌	-3398
샀	-3399
턴	-3400
N	-3401
걷	-3402
권	-3403
깍	-3404
녁	-3405
됨	-3406
땐	-3407
량	-3408
봇	-3409
액	-3410
텨	-3411
획	-3412
귄	-3413
뀔	-3414
낭	-3415
뉴	-3416
닥	-3417
브	-3418
쐬	-3419
즈	-3420
흡	-3421
7	-3422
8	-3423
귈	-3424
깔	-3425
뀌	-3426
농	-3427
뒷	-3428
듭	-3429
벼	-3430
셀	-3431
썼	-3432
웨	-3433
육	-3434
잤	-3435
긍	-3436
끈	-3437
끌	-3438
닫	-3439
블	-3440
옴	-3441
춥	-3442
컨	-3443
푸	-3444
푹	-3445
흥	-3446
ᄏ	-3447
곰	-3448
깜	-3449
둬	-3450
딸	-3451
뛰	-3452
링	-3453
슷	-3454
쓴	-3455
씹	-3456
씻	-3457
왕	-3458
쪽	-3459
춘	-3460
콜	-3461
값	-3462
갚	-3463
걔	-3464
끗	-3465
낮	-3466
낸	-3467
넌	-3468
듬	-3469
딴	-3470
렌	-3471
맙	-3472
봉	-3473
옥	-3474
찰	-3475
첩	-3476
칼	-3477
컴	-3478
n	-3479
곁	-3480
규	-3481
껏	-3482
넣	-3483
닉	-3484
딪	-3485
뤄	-3486
벚	-3487
빡	-3488
콘	-3489
헬	-3490
혹	-3491
9	-3492
검	-3493
널	-3494
둔	-3495
땀	-3496
랫	-3497
렘	-3498
롱	-3499
룩	-3500
맡	-3501
몽	-3502
밝	-3503
빈	-3504
빛	-3505
샤	-3506
엉	-3507
잃	-3508
잼	-3509
짠	-3510
콕	-3511
콤	-3512
탄	-3513
탕	-3514
툰	-3515
혔	-3516
겹	-3517
깎	-3518
꼼	-3519
꾹	-3520
낀	-3521
넓	-3522
늙	-3523
땅	-3524
뚝	-3525
렬	-3526
뢰	-3527
벤	-3528
빵	-3529
뽑	-3530
쁠	-3531
섬	-3532
앉	-3533
압	-3534
왤	-3535
잇	-3536
찔	-3537
킁	-3538
탔	-3539
푼	-3540
햇	-3541
힌	-3542
객	-3543
곡	-3544
긋	-3545
꽤	-3546
끓	-3547
낄	-3548
낙	-3549
납	-3550
녹	-3551
닮	-3552
띄	-3553
령	-3554
볶	-3555
뽀	-3556
송	-3557
싼	-3558
씁	-3559
얻	-3560
웬	-3561
젖	-3562
짱	-3563
쩍	-3564
탐	-3565
털	-3566
템	-3567
툴	-3568
A	-3569
광	-3570
꼈	-3571
늠	-3572
둠	-3573
뒀	-3574
뒹	-3575
땡	-3576
릎	-3577
묻	-3578
뱃	-3579
범	-3580
뻑	-3581
쉴	-3582
슈	-3583
쌩	-3584
쑥	-3585
앗	-3586
젯	-3587
쪄	-3588
찜	-3589
찢	-3590
춤	-3591
층	-3592
틋	-3593
팩	-3594
퓨	-3595
헥	-3596
훈	-3597
휘	-3598
흑	-3599
겟	-3600
곱	-3601
궈	-3602
긁	-3603
꾼	-3604
낚	-3605
낳	-3606
닝	-3607
닿	-3608
댈	-3609
돋	-3610
둥	-3611
똥	-3612
뜰	-3613
렛	-3614
렜	-3615
롤	-3616
률	-3617
릅	-3618
묵	-3619
밑	-3620
밟	-3621
벅	-3622
쁨	-3623
쌈	-3624
쌍	-3625
썹	-3626
쏟	-3627
쏠	-3628
씌	-3629
엮	-3630
욱	-3631
윗	-3632
쪼	-3633
쫌	-3634
찐	-3635
찼	-3636
첨	-3637
켠	-3638
쿨	-3639
퀴	-3640
탓	-3641
툼	-3642
틈	-3643
팍	-3644
팠	-3645
헌	-3646
홀	-3647
a	-3648
겪	-3649
껄	-3650
꼰	-3651
꽉	-3652
넷	-3653
놨	-3654
눅	-3655
덥	-3656
딘	-3657
딛	-3658
떼	-3659
램	-3660
릇	-3661
맷	-3662
맺	-3663
몫	-3664
밉	-3665
볍	-3666
빙	-3667
싹	-3668
쎄	-3669
엠	-3670
옳	-3671
왠	-3672
욜	-3673
웹	-3674
율	-3675
좌	-3676
징	-3677
짚	-3678
짰	-3679
쫄	-3680
쭉	-3681
촉	-3682
총	-3683
촬	-3684
컸	-3685
켰	-3686
텁	-3687
텔	-3688
팁	-3689
팬	-3690
팸	-3691
펑	-3692
폼	-3693
풋	-3694
핫	-3695
훔	-3696
흠	-3697
힐	-3698
B	-3699
갱	-3700
겐	-3701
굳	-3702
깰	-3703
꿰	-3704
넋	-3705
눌	-3706
눕	-3707
닷	-3708
댄	-3709
됬	-3710
딜	-3711
땜	-3712
뚫	-3713
랖	-3714
랙	-3715
렐	-3716
렴	-3717
륵	-3718
맴	-3719
몬	-3720
빚	-3721
빴	-3722
삐	-3723
숫	-3724
썩	-3725
앨	-3726
앱	-3727
얽	-3728
엊	-3729
옵	-3730
젤	-3731
줌	-3732
쥐	-3733
짼	-3734
쭤	-3735
츠	-3736
측	-3737
캬	-3738
컥	-3739
컷	-3740
쿵	-3741
턱	-3742
텀	-3743
톱	-3744
툭	-3745
팀	-3746
헐	-3747
헹	-3748
홧	-3749
C	-3750
D	-3751
X	-3752
g	-3753
o	-3754
갠	-3755
겉	-3756
괘	-3757
깅	-3758
깬	-3759
깼	-3760
꼴	-3761
꽂	-3762
꽝	-3763
꿩	-3764
넛	-3765
넹	-3766
녔	-3767
논	-3768
뇌	-3769
눴	-3770
댓	-3771
댔	-3772
덮	-3773
돕	-3774
떴	-3775
뚱	-3776
뜬	-3777
띠	-3778
띰	-3779
띵	-3780
랭	-3781
렉	-3782
룸	-3783
룽	-3784
륜	-3785
릭	-3786
맹	-3787
멘	-3788
묘	-3789
뮤	-3790
벨	-3791
볕	-3792
붓	-3793
뷔	-3794
빽	-3795
뺏	-3796
뻤	-3797
뽕	-3798
뿅	-3799
삔	-3800
샌	-3801
샐	-3802
샘	-3803
샜	-3804
섞	-3805
섯	-3806
솜	-3807
쑤	-3808
씰	-3809
씸	-3810
얇	-3811
엿	-3812
옛	-3813
옮	-3814
왓	-3815
왼	-3816
웁	-3817
웽	-3818
젊	-3819
젝	-3820
졋	-3821
줍	-3822
즙	-3823
짤	-3824
짬	-3825
쨌	-3826
찡	-3827
찹	-3828
챘	-3829
칩	-3830
캄	-3831
캐	-3832
캔	-3833
켓	-3834
콧	-3835
쿠	-3836
쿼	-3837
킥	-3838
킬	-3839
킹	-3840
텅	-3841
텼	-3842
톤	-3843
퉁	-3844
튀	-3845
튜	-3846
펭	-3847
픽	-3848
혈	-3849
혐	-3850
홈	-3851
훅	-3852
훌	-3853
휙	-3854
O	-3855
j	-3856
k	-3857
ᄎ	-3858
갇	-3859
갯	-3860
걍	-3861
겜	-3862
곗	-3863
굶	-3864
굽	-3865
굿	-3866
귐	-3867
균	-3868
귤	-3869
깃	-3870
깠	-3871
깡	-3872
꺽	-3873
껀	-3874
꼿	-3875
꽁	-3876
꿎	-3877
꿧	-3878
뀐	-3879
넥	-3880
놉	-3881
뇨	-3882
뇽	-3883
늪	-3884
닦	-3885
닭	-3886
닳	-3887
댜	-3888
덩	-3889
덴	-3890
델	-3891
뎠	-3892
둑	-3893
듀	-3894
듦	-3895
딧	-3896
딨	-3897
떄	-3898
뗄	-3899
뛴	-3900
뜁	-3901
뜩	-3902
뜸	-3903
랠	-3904
랩	-3905
럿	-3906
렁	-3907
렷	-3908
롯	-3909
룰	-3910
멤	-3911
몹	-3912
뭇	-3913
뭉	-3914
뭣	-3915
밭	-3916
밸	-3917
뱄	-3918
뱉	-3919
벋	-3920
벴	-3921
붕	-3922
빗	-3923
뺄	-3924
뻘	-3925
뻣	-3926
뻥	-3927
뿍	-3928
삽	-3929
섣	-3930
섰	-3931
섹	-3932
셥	-3933
쇠	-3934
숍	-3935
숏	-3936
쌀	-3937
쌤	-3938
썰	-3939
쎈	-3940
쎌	-3941
쏘	-3942
쏜	-3943
씬	-3944
씽	-3945
앙	-3946
얄	-3947
엘	-3948
엣	-3949
옇	-3950
잌	-3951
잦	-3952
젔	-3953
젹	-3954
좁	-3955
쥬	-3956
즉	-3957
쩐	-3958
쪘	-3959
쭈	-3960
찝	-3961
챔	-3962
챗	-3963
쳇	-3964
촌	-3965
췄	-3966
츄	-3967
츤	-3968
칙	-3969
칫	-3970
컹	-3971
쾌	-3972
큐	-3973
킴	-3974
탱	-3975
텄	-3976
텍	-3977
텻	-3978
퉜	-3979
펜	-3980
펨	-3981
펼	-3982
퐈	-3983
픕	-3984
핀	-3985
핍	-3986
핏	-3987
햐	-3988
헉	-3989
협	-3990
혜	-3991
훨	-3992
휨	-3993
흰	-3994
힙	-3995
