<pad>	0
<s>	0
</s>	0
<unk>	0
▁.	-2.45911
▁	-2.84264
요	-4.11554
가	-4.31576
을	-4.38174
이	-4.43095
▁?	-4.48071
도	-4.62314
는	-4.73556
게	-4.86586
지	-4.88461
고	-4.9785
은	-4.9929
▁거예요	-5.06279
를	-5.10789
보세요	-5.36902
▁수	-5.3828
의	-5.42025
세요	-5.45205
▁너무	-5.5074
서	-5.52009
에	-5.52885
한	-5.53897
네요	-5.54001
해보세요	-5.55663
▁나	-5.58161
▁잘	-5.58622
▁사람	-5.58724
▁것	-5.60075
▁거	-5.61752
▁좋아하는	-5.62283
▁더	-5.66822
▁안	-5.67114
죠	-5.67305
면	-5.7307
만	-5.77381
▁사랑	-5.81314
나	-5.90728
▁좋은	-5.96511
▁많이	-5.98463
해	-6.00072
히	-6.00929
▁생각	-6.05048
로	-6.05065
▁그	-6.05214
다	-6.07203
기	-6.07237
네	-6.07434
봐요	-6.07759
어	-6.09104
▁이별	-6.09132
하세요	-6.1002
랑	-6.14321
▁사람이	-6.14418
▁!	-6.14898
▁같아요	-6.15037
▁좀	-6.15118
하고	-6.15547
▁마음	-6.15926
▁있을	-6.18891
▁싶어	-6.19128
▁내	-6.19268
할	-6.20872
▁없어	-6.21705
▁있어요	-6.21773
▁말	-6.23065
으로	-6.23069
▁때	-6.23091
길	-6.23426
▁다	-6.28172
▁썸	-6.28793
▁연락	-6.28826
▁같아	-6.3013
하는	-6.30676
▁게	-6.35144
야	-6.40822
일	-6.40909
▁해	-6.45121
▁마세요	-6.45234
▁있	-6.48229
인	-6.48519
▁건	-6.49979
에서	-6.5053
거	-6.5099
▁이제	-6.51051
는데	-6.52637
이에요	-6.52806
▁오늘	-6.54199
▁있는	-6.57929
▁가	-6.59475
으면	-6.60125
운	-6.60972
▁마음이	-6.61798
▁내가	-6.62145
▁연애	-6.6228
▁왜	-6.62652
▁못	-6.63597
▁다른	-6.64258
▁뭐	-6.65743
▁일	-6.6604
하지	-6.66977
▁좋아	-6.68444
▁어떻게	-6.69003
▁싶다	-6.70105
▁남자친구	-6.70665
▁여자친구	-6.71075
▁사	-6.72089
▁돼	-6.72753
리	-6.7338
▁저	-6.73582
라	-6.74501
▁시간이	-6.77128
▁한	-6.78126
▁친구	-6.78586
▁다시	-6.80133
겠어요	-6.80553
▁정말	-6.80617
▁또	-6.8085
▁하는	-6.80869
▁걸	-6.81509
▁좋을	-6.81536
▁있어	-6.81651
니다	-6.82725
주	-6.82962
▁않아	-6.84021
▁아니	-6.85495
▁수도	-6.8617
과	-6.86776
년	-6.86823
▁생각해	-6.87705
인데	-6.8953
려	-6.89868
▁힘들	-6.90034
▁바	-6.90509
▁될	-6.90545
▁할	-6.9081
까	-6.91701
▁자신	-6.92386
▁지금	-6.95048
▁같이	-6.95348
▁오	-6.9567
▁살	-6.95901
▁그런	-6.96268
▁여자	-6.96547
▁하고	-6.97879
아	-6.983
자	-6.98566
▁시간	-6.98673
가봐요	-6.99875
▁이	-7.00212
▁당신	-7.00253
▁조금	-7.00272
▁혼자	-7.00275
하게	-7.00909
해요	-7.01464
한테	-7.01464
▁자꾸	-7.02546
하면	-7.03047
상	-7.03648
니	-7.04483
▁정리	-7.0591
▁좋겠어	-7.06189
▁진짜	-7.06449
▁애	-7.07367
▁일이	-7.08761
▁보	-7.09004
니까	-7.09125
▁만나	-7.1027
든	-7.10461
▁없는	-7.12446
것도	-7.12602
▁저도	-7.12824
나봐	-7.14209
▁먼저	-7.14751
보다	-7.15176
대	-7.15976
▁결혼	-7.16092
▁될까	-7.16263
▁제가	-7.16577
▁술	-7.16728
거예요	-7.17102
▁하나	-7.18083
▁있을까	-7.18167
▁아무	-7.18289
시	-7.18512
래	-7.18797
▁전	-7.18849
▁헤어진지	-7.18863
▁바랄게요	-7.19176
▁남자	-7.19352
질	-7.20044
▁그럴	-7.20629
▁참	-7.2067
수	-7.20722
▁선물	-7.20771
어요	-7.2169
와	-7.21737
데	-7.23574
▁계속	-7.23807
겠죠	-7.24193
에요	-7.2465
▁힘든	-7.24678
라고	-7.24726
▁짝사랑	-7.25508
▁이야기	-7.25524
▁중	-7.26507
▁준비	-7.27475
해도	-7.28535
▁날	-7.28613
심	-7.29076
▁사랑이	-7.29405
에게	-7.29438
▁짝녀	-7.2957
▁고백	-7.30408
▁좋아요	-7.30669
지만	-7.30675
▁먹고	-7.31717
지도	-7.32815
▁서로	-7.33328
▁방법	-7.33604
▁남	-7.33733
대로	-7.3424
▁드세요	-7.34912
▁좋겠	-7.35772
해주세요	-7.35971
▁아	-7.36292
▁그렇	-7.36392
▁좋죠	-7.36957
랍	-7.36957
진	-7.37106
▁있나	-7.38709
▁공부	-7.39488
합니다	-7.40292
▁힘들어	-7.40689
▁없	-7.41305
겠네	-7.41316
들	-7.4149
▁아직	-7.41519
▁많은	-7.42376
할까	-7.42383
▁하	-7.42867
다고	-7.42936
했어	-7.43152
▁몰라	-7.43663
▁데이트	-7.43907
여	-7.4442
▁보고	-7.448
▁싫어	-7.44818
씩	-7.44826
던	-7.45407
▁하지	-7.45692
▁눈	-7.45844
보	-7.45969
▁,	-7.46003
▁찾아	-7.46191
▁되	-7.46328
주세요	-7.46354
하	-7.46734
는게	-7.46866
▁충분	-7.48398
▁들어	-7.48605
▁비	-7.48625
▁감정	-7.48689
▁그래	-7.48719
▁줄	-7.49015
까지	-7.49057
▁시작	-7.49931
걸	-7.50016
봅니다	-7.51501
▁기억	-7.52063
▁어떤	-7.52102
▁카톡	-7.53368
▁함께	-7.53369
▁대화	-7.53376
▁제	-7.53937
▁짝남이	-7.54013
▁너	-7.54394
▁오래	-7.5479
▁말해보세요	-7.54968
▁알	-7.55056
정	-7.55134
▁무슨	-7.55949
▁돈	-7.56019
▁새로	-7.56063
▁않	-7.5715
입니다	-7.57238
▁이렇게	-7.57264
▁머리	-7.57268
▁그냥	-7.57272
▁할까	-7.5743
▁3	-7.57546
▁친구가	-7.57566
▁1	-7.57621
습니다	-7.57704
▁내일	-7.57927
겠지	-7.58406
▁안돼	-7.58739
건	-7.59423
인지	-7.59551
되	-7.59638
▁힘드네	-7.6007
▁고민	-7.60285
▁반	-7.60427
하기	-7.60438
▁자	-7.60718
▁2	-7.60796
음	-7.60906
▁사랑하는	-7.60962
으	-7.61353
▁사람은	-7.62373
▁많아	-7.62434
▁관심	-7.63655
져	-7.63846
간	-7.64055
예요	-7.64087
▁하루	-7.64113
하네	-7.64604
러	-7.65113
▁운동	-7.65547
▁이유	-7.65574
장	-7.66847
적	-7.67032
▁들	-7.67198
▁열	-7.67303
▁헤어진	-7.67512
▁알아	-7.68214
▁어떨까요	-7.68628
점	-7.68655
▁보세요	-7.68826
▁올	-7.69407
▁나만	-7.69631
▁무	-7.6999
▁후	-7.70274
▁누구	-7.70478
▁피	-7.7127
▁전화	-7.71489
이라	-7.72236
▁나한테	-7.72275
른	-7.72806
▁듯	-7.73079
▁끝	-7.73306
치	-7.73386
▁해야	-7.74334
▁주세요	-7.74451
사	-7.74607
▁여행	-7.74757
려고	-7.74891
긴	-7.75195
▁짝남	-7.75265
▁있는데	-7.75338
했	-7.75586
▁후회	-7.76179
▁하면	-7.76372
▁만큼	-7.76734
통	-7.77342
▁대	-7.77439
▁맘	-7.77534
▁우리	-7.77921
▁그녀	-7.79038
▁싶은	-7.79338
▁집	-7.79934
▁마음에	-7.80116
▁따라	-7.80212
▁생각이	-7.8023
▁연락이	-7.8078
항	-7.8108
▁마	-7.81105
▁보내	-7.81106
마	-7.81627
신	-7.81632
▁어	-7.81654
▁꿈	-7.82201
해서	-7.82288
해야	-7.82382
▁말고	-7.82516
▁도움	-7.82791
▁않는	-7.82813
▁같은데	-7.8284
드	-7.833
▁타는	-7.83492
이야	-7.83627
▁스트레스	-7.84499
▁만날	-7.84526
▁않았	-7.84581
었어	-7.84605
하죠	-7.84679
부터	-7.85329
▁잠	-7.85446
차	-7.85589
▁어디	-7.85863
임	-7.86004
▁부	-7.8617
다면	-7.86259
▁쉬	-7.8641
거라	-7.86441
▁입	-7.86745
▁맛있	-7.86911
▁언제	-7.87881
▁곳	-7.88037
▁모르겠어	-7.88242
▁이별을	-7.88402
▁좋겠다	-7.88891
▁점	-7.89358
▁얼	-7.89876
자고	-7.90008
▁기대	-7.90171
▁바라요	-7.90189
줄	-7.90533
▁없네	-7.90911
달	-7.91245
▁한달	-7.91259
방	-7.91413
▁어때	-7.91757
하는데	-7.91911
▁가고	-7.92158
▁만들어	-7.92333
적인	-7.92654
▁화	-7.93125
▁아파	-7.93579
▁쉽지	-7.93596
▁이젠	-7.936
▁꼭	-7.9366
▁조심	-7.94143
▁괜찮아요	-7.94211
▁기	-7.9458
▁정	-7.94622
구	-7.9509
제	-7.95495
갈	-7.95865
▁타	-7.96027
▁되는	-7.96224
함	-7.96556
▁주	-7.96928
▁나이	-7.97182
처럼	-7.97378
린	-7.97423
날	-7.97465
▁문제	-7.9756
면서	-7.97647
▁해도	-7.97671
일까	-7.97687
▁없다	-7.97757
▁기분	-7.97948
▁같은	-7.97998
▁않을	-7.98327
▁먹	-7.98443
▁변화	-7.99478
▁맞는	-7.99479
▁현실	-7.9948
내	-7.99506
▁귀	-7.99609
▁말아	-7.99896
▁물	-7.99966
봐	-8.0008
▁아니라	-8.00365
▁약	-8.00752
▁직접	-8.01105
인가	-8.01279
▁요즘	-8.01525
때	-8.01757
▁볼	-8.02231
걸까	-8.02374
▁좋을까	-8.02453
▁않은	-8.02593
▁있죠	-8.0314
▁필요	-8.0357
▁말씀	-8.03603
▁믿어	-8.03604
▁결국	-8.03604
것	-8.0379
▁밥	-8.04792
▁차	-8.04864
거나	-8.05057
▁가는	-8.05405
▁중요한	-8.05664
▁물어보	-8.05683
▁필요해	-8.06702
이나	-8.06709
▁봐	-8.06798
▁결정	-8.07398
▁아직도	-8.07656
텐데	-8.07676
개월	-8.07723
었	-8.07943
▁이런	-8.0797
▁노래	-8.08466
우	-8.08612
스	-8.08983
▁그러	-8.097
하면서	-8.09959
▁나쁜	-8.10077
▁마지막	-8.10127
▁큰	-8.10158
▁와	-8.10244
▁가지	-8.10253
▁회사	-8.10349
▁나는	-8.10448
대한	-8.10458
▁깨	-8.10738
천	-8.11249
오	-8.12149
▁미련	-8.12197
트	-8.12325
▁기다려	-8.124
▁집에	-8.12555
▁표현	-8.12602
▁난	-8.1267
▁처음	-8.12686
▁손	-8.12736
▁늦	-8.12828
▁헤어지고	-8.12905
에는	-8.12928
된	-8.13685
▁받아	-8.13735
▁상처	-8.1409
기도	-8.14316
지는	-8.1441
군요	-8.14421
▁헤어짐	-8.1474
▁썸남	-8.14744
▁여자애	-8.14746
▁진심	-8.14774
▁어제	-8.1479
▁여친	-8.14804
▁딱	-8.14805
▁싶은데	-8.14832
▁중요해	-8.14937
▁가져	-8.15097
▁관계	-8.15509
▁천	-8.15888
했는데	-8.16131
▁불	-8.16289
만큼	-8.163
▁구	-8.16344
▁몸	-8.16418
졌어	-8.17029
▁많았	-8.17107
▁거라	-8.17159
▁매일	-8.17211
수록	-8.17283
▁때문에	-8.17474
있	-8.17836
▁마음의	-8.1805
울	-8.18248
▁속	-8.18871
워	-8.18944
인가봐	-8.19249
▁달	-8.19475
▁살고	-8.19503
▁완전	-8.19546
▁재회	-8.19549
▁남자애	-8.19563
자기	-8.19568
▁용기	-8.19602
▁두	-8.19787
▁모르는	-8.19797
▁가장	-8.19918
하다	-8.20017
전	-8.20569
야지	-8.2084
다는	-8.20875
안	-8.21231
▁그만	-8.21631
▁갑	-8.21737
▁놀	-8.21936
▁뭘까	-8.22046
▁핸드폰	-8.22046
▁같애	-8.22049
▁필요한	-8.22451
냐	-8.23376
였	-8.23518
▁사이	-8.2358
소	-8.24002
실	-8.2401
비	-8.24099
다가	-8.24166
▁인생	-8.24182
르	-8.24196
릴	-8.24455
▁아닌	-8.24504
▁동	-8.24541
▁모두	-8.2461
▁연습	-8.2461
▁예의	-8.24626
▁가끔	-8.2463
더니	-8.24635
▁인정	-8.24646
▁얼마	-8.24666
▁감	-8.24717
▁남친	-8.24722
▁한번	-8.24742
▁만나는	-8.24781
▁추억	-8.25282
제일	-8.25358
▁좋아해	-8.25483
▁행복	-8.25656
▁잘할	-8.26172
▁기다리	-8.26196
▁적	-8.26262
릴게요	-8.26421
중	-8.26484
▁시간을	-8.2655
▁보는	-8.26602
▁자기	-8.26718
금	-8.26821
당	-8.27023
▁해볼까	-8.27069
했던	-8.2721
▁바람	-8.27225
▁엄청	-8.27241
▁소개팅	-8.27248
▁잘하는	-8.27262
▁걱정	-8.2742
▁쉬운	-8.27448
▁오늘도	-8.27588
▁선택	-8.27653
▁신	-8.28083
▁넘	-8.28297
▁남자가	-8.28544
▁사람한테	-8.28587
다니	-8.28648
▁갈	-8.28826
부	-8.29003
▁상대	-8.29239
마다	-8.29275
▁기분이	-8.29332
▁사랑에	-8.29382
번	-8.29479
달라고	-8.29795
▁모든	-8.29944
▁확신	-8.29944
▁얼굴	-8.29949
▁신경	-8.2995
▁어느	-8.29956
▁날씨	-8.29961
▁알았는데	-8.29998
▁번	-8.30068
▁다가가	-8.30168
▁있다면	-8.30184
듯	-8.30723
을까	-8.30749
▁없을	-8.31087
▁새	-8.31181
▁사람들이	-8.32075
▁인연이	-8.32263
없이	-8.32363
▁사는	-8.32486
용	-8.3253
만에	-8.32676
▁스스로	-8.32722
▁예뻐	-8.32722
▁의미	-8.32733
▁당	-8.32814
▁꽃	-8.32817
▁당신이	-8.32823
▁사람들	-8.32835
▁자주	-8.32972
▁왔어	-8.33024
▁사진	-8.33043
▁덜	-8.33517
▁이해	-8.33547
▁있었나	-8.33895
▁상대방	-8.3414
▁재미	-8.344
▁떠나	-8.3476
두	-8.34965
▁된	-8.35146
▁모르겠어요	-8.35492
문	-8.3557
▁앞에	-8.35579
▁어떡해	-8.35579
▁빨리	-8.35581
▁정신	-8.35596
볼까	-8.35659
▁길	-8.35857
▁되나	-8.36409
▁했는데	-8.36662
▁나와	-8.37397
▁보이	-8.3741
▁모르	-8.37714
▁갖	-8.37801
▁아침	-8.37958
▁잔	-8.38075
▁날이	-8.38147
겨	-8.3843
▁예쁘	-8.3852
▁짝남한테	-8.38692
▁잘못	-8.39085
▁세	-8.39105
▁끝나	-8.39113
▁괜찮은	-8.39156
▁5	-8.39156
▁강	-8.3972
었는데	-8.40185
었나봐	-8.40363
▁연락해	-8.40388
감	-8.40636
했다	-8.40686
▁걸까	-8.40854
이랑	-8.41213
▁추천	-8.41263
▁소	-8.414
▁아픔	-8.4155
▁후폭풍	-8.4155
▁직장	-8.41577
▁6	-8.41835
▁감기	-8.41837
▁신경쓰지	-8.42194
▁옷	-8.42215
▁욕	-8.42324
▁4	-8.4258
▁파	-8.42587
▁정도	-8.43325
▁선	-8.43569
보면	-8.43665
▁만들	-8.43672
▁헤어지	-8.43684
▁건강	-8.44293
▁분	-8.44454
▁모습	-8.44675
▁엄마	-8.44675
▁첫사랑	-8.44675
료	-8.44675
▁학교	-8.44682
▁바쁘	-8.44703
▁싶어요	-8.44726
▁생각나	-8.44864
▁가슴	-8.44968
보는	-8.45012
▁잘하고	-8.45238
마세요	-8.45265
발	-8.45338
▁말이	-8.45498
▁물어	-8.45567
있는	-8.45581
▁아프	-8.46108
▁생겼	-8.46118
▁설	-8.46322
났	-8.46433
▁언젠	-8.46515
▁괜찮	-8.46743
▁누	-8.46912
▁가능	-8.4702
▁영화	-8.47176
▁만나고	-8.47392
▁아는	-8.47404
▁복	-8.47711
▁노력	-8.47747
▁합니다	-8.47848
▁커피	-8.47906
▁아픈	-8.4791
▁알바	-8.47939
▁눈물	-8.4795
▁실수	-8.47955
일째	-8.47962
▁잠시	-8.48044
돼	-8.48099
▁느낌	-8.48128
▁힘내세요	-8.48184
▁궁금해	-8.48518
▁좋아할	-8.48763
집	-8.4889
선	-8.48982
▁자신이	-8.50315
까요	-8.50347
▁뭐라	-8.51207
국	-8.51234
▁힘이	-8.51234
▁편하	-8.51235
▁만난	-8.51266
▁화장	-8.51293
▁소리	-8.51485
들이	-8.51552
했나봐	-8.51561
말	-8.51669
▁부모님	-8.51903
▁않죠	-8.52134
디	-8.52177
찍	-8.52256
하던	-8.5234
▁이상	-8.52438
약	-8.52494
그	-8.52534
▁안해	-8.52673
▁이별이	-8.52709
▁행복해	-8.52743
▁티	-8.52747
▁위	-8.5282
▁호감	-8.53202
▁탈	-8.53604
건가	-8.53866
▁가야	-8.54054
▁고민이	-8.5463
▁안녕	-8.54683
혀	-8.54683
▁즐거	-8.54684
▁살펴	-8.54695
줘	-8.54703
▁도전	-8.54762
▁아닐까	-8.5521
▁되지	-8.55308
식	-8.55534
▁식	-8.55841
준	-8.56186
▁줘	-8.56511
며	-8.56836
▁힘들다	-8.56996
▁같네	-8.5703
▁글	-8.57144
째	-8.57501
▁그분	-8.57821
동안	-8.58074
▁위해	-8.58082
▁벌써	-8.58254
▁슬픈	-8.58255
▁차단	-8.58283
▁아닌데	-8.58359
▁원하는	-8.5842
란	-8.5842
▁하는데	-8.58971
▁간	-8.59744
후	-8.59795
▁전에	-8.59855
▁다음에	-8.59904
▁되어	-8.59938
▁척	-8.59938
▁긴	-8.59942
나요	-8.60017
▁알게	-8.60475
했어요	-8.61405
▁힘들지	-8.61426
▁마시	-8.61533
▁여친이	-8.61843
럽	-8.6193
력	-8.61932
▁카페	-8.61958
▁행동	-8.61958
▁나중에	-8.61961
▁비싸	-8.61962
▁가기	-8.61962
▁여유	-8.61966
▁어려워	-8.61968
▁주무	-8.61991
▁끝이	-8.62017
▁됐어	-8.62018
▁연인	-8.62063
▁다행	-8.62087
▁만남	-8.62134
▁벌	-8.62308
▁답	-8.62529
▁사귀고	-8.62623
▁따	-8.63078
▁뭐야	-8.63163
▁사귀는	-8.63173
▁나오	-8.63695
물	-8.63723
사람	-8.63738
답	-8.6378
▁보면	-8.63965
▁연락하고	-8.64176
했으면	-8.64189
▁유	-8.64391
줄까	-8.64673
▁발	-8.64881
▁필요하	-8.65231
▁관리	-8.65296
▁차이	-8.65319
▁시	-8.65367
▁챙겨	-8.65548
▁사귀	-8.65581
▁지켜	-8.65785
▁받고	-8.65803
▁귀찮아	-8.65804
▁남편이	-8.65804
▁일어나	-8.6581
▁위로	-8.65822
▁썸남이	-8.65894
▁괜찮을까	-8.65932
▁곧	-8.65938
▁확실한	-8.66122
▁금	-8.66297
▁게임	-8.66315
▁만나지	-8.66436
▁꿈에	-8.66605
▁세상	-8.66656
▁돌아	-8.66667
▁놀아	-8.66768
▁책	-8.66801
▁학	-8.6683
▁말해	-8.67131
▁배	-8.67476
▁거죠	-8.67599
살	-8.68157
매	-8.68328
▁법	-8.68332
▁생각할	-8.68467
겠지만	-8.69148
▁좋아하면	-8.69287
▁상관	-8.69336
증	-8.69468
▁것이	-8.69592
▁별	-8.69623
쳐	-8.69695
꺼	-8.69774
급	-8.69779
▁맨날	-8.69804
▁받을	-8.69804
▁잠깐	-8.69804
▁우산	-8.6981
▁약속	-8.69814
▁먹어야지	-8.69826
▁작은	-8.69832
▁소중	-8.69842
▁자체	-8.69847
▁만났어	-8.70001
겠어	-8.70049
▁자신감	-8.70145
거야	-8.70146
▁진	-8.70226
▁사랑했던	-8.7027
분	-8.703
▁친구한테	-8.7043
▁힘들게	-8.70434
▁좋아하게	-8.70493
▁곳이	-8.70521
▁되겠	-8.70541
▁코	-8.70785
▁단	-8.70996
▁매	-8.71064
▁살아	-8.71235
▁물어보는	-8.71523
▁이별의	-8.71884
올	-8.71898
예	-8.72244
▁순간	-8.72729
▁못하는	-8.72854
▁환승	-8.73962
▁거짓말	-8.73971
▁받는	-8.73971
▁생길	-8.73971
▁죽을	-8.73971
▁설레	-8.73984
▁바쁜	-8.73995
▁기회	-8.74014
▁미리	-8.74089
▁치	-8.74108
▁없이	-8.7414
▁데	-8.7416
▁이번	-8.74232
▁고민이야	-8.74309
▁따뜻	-8.74376
▁온	-8.74558
▁목	-8.74571
▁중요하지	-8.74655
▁원	-8.7468
▁많아요	-8.74809
▁안되는	-8.75142
▁그녀를	-8.75583
▁맛	-8.75614
▁뿐	-8.76052
이라면	-8.76249
▁않을까	-8.76317
리는	-8.76865
단	-8.76891
는건	-8.76959
▁맛있는	-8.76964
▁놓	-8.77023
학	-8.77055
▁장	-8.77157
시간	-8.77291
▁건지	-8.77904
▁좋지	-8.77993
는지	-8.78011
하니까	-8.78036
▁극복	-8.78109
낼	-8.78129
하려고	-8.78189
▁간다	-8.7819
림	-8.78213
▁좋다	-8.78319
▁편이	-8.78319
▁분위기	-8.78319
▁시험	-8.78324
▁종교	-8.78325
▁알려줘	-8.78326
▁꾸준	-8.78334
▁헤어졌습니다	-8.78348
▁힘들겠지	-8.78364
▁잡	-8.78388
▁진정	-8.78389
▁못하겠어	-8.78414
▁밤	-8.78551
▁이별후	-8.78594
더라	-8.78613
▁나가	-8.78712
▁짝녀한테	-8.78726
▁양	-8.79226
▁숨	-8.7923
▁먹으면	-8.7932
▁해주세요	-8.79612
세	-8.79891
▁나서	-8.79939
았	-8.80038
▁안나	-8.80098
▁조	-8.80523
바	-8.80554
먹	-8.80614
▁않고	-8.80708
▁일을	-8.80883
▁돈이	-8.80912
▁잠이	-8.81442
지지	-8.81508
원	-8.81542
저	-8.81616
될	-8.81725
▁미	-8.81805
반	-8.81809
▁별로	-8.81828
▁신경쓰	-8.81835
어도	-8.8191
▁다를	-8.82115
▁망	-8.82435
난	-8.82589
셔	-8.82616
▁남친이	-8.82715
▁개	-8.82746
▁확인해	-8.82749
▁확인	-8.8278
▁잊지	-8.82856
▁부러워	-8.82864
▁쇼핑	-8.82864
▁싫다	-8.82864
▁두려워	-8.82864
▁같습니다	-8.82919
▁끝내	-8.82967
▁있지	-8.83167
▁시기	-8.83223
싶네요	-8.83254
▁받아들이는	-8.83272
▁웃	-8.833
▁실	-8.83396
▁있습니다	-8.83412
▁절대	-8.83429
▁되네	-8.83826
▁인연	-8.8384
▁같	-8.83872
▁스타일	-8.83883
▁시켜	-8.84155
▁습관	-8.84221
▁공	-8.84439
▁주는	-8.84701
▁영	-8.84715
▁우	-8.84741
▁상황	-8.84886
▁봄	-8.84924
▁정리하는	-8.84995
건지	-8.85131
▁서로에	-8.85208
▁다르	-8.8537
▁중에	-8.85523
▁사랑할	-8.85615
는거	-8.86245
들을	-8.86251
온	-8.86458
▁확실	-8.86484
▁없나	-8.86519
▁버리	-8.86537
무	-8.86622
▁능력이	-8.86628
▁즐기	-8.86629
해야지	-8.87012
름	-8.87424
▁이제는	-8.87488
추	-8.87559
팅	-8.87614
▁고생	-8.87626
▁뭔지	-8.87626
▁상처받	-8.87626
▁자책하지	-8.87626
▁편지	-8.87626
▁헷갈리	-8.87626
▁후련하	-8.87626
▁멋진	-8.87627
▁중요하	-8.87634
▁장난	-8.87646
▁하늘	-8.87656
▁떨려	-8.877
▁졸	-8.87794
▁보여	-8.88032
▁뒤	-8.88225
▁둘	-8.886
▁했	-8.88799
같은	-8.88874
▁했어	-8.88892
▁나을	-8.88942
▁커	-8.88957
▁좋은데	-8.89022
▁아닌지	-8.89091
▁잊어	-8.89112
▁오는	-8.89494
▁잊혀지	-8.89542
▁가세요	-8.89744
▁좋아하는데	-8.8993
▁지내	-8.89964
▁재밌	-8.89967
하나	-8.90068
▁알고	-8.90316
보고	-8.90408
야겠다	-8.9051
▁먹을	-8.90658
▁사랑하면	-8.90735
▁방법이	-8.9088
▁얘기	-8.91147
▁네	-8.91218
타	-8.91304
왔어	-8.91322
이면	-8.9134
절	-8.91514
▁초	-8.91582
망	-8.91647
성	-8.91723
▁드는	-8.91885
크	-8.91985
동	-8.91994
▁힘내	-8.92185
근	-8.92231
회	-8.92513
칠	-8.92563
▁잊는	-8.9258
짝	-8.92625
케	-8.92626
▁풀어	-8.92626
▁전여친	-8.92626
▁경우	-8.92638
▁그리고	-8.92641
▁자연스러	-8.92667
▁문자	-8.92684
▁어려운	-8.92694
▁집중	-8.92709
▁싸	-8.92985
▁인기	-8.93023
▁생각만	-8.93043
아요	-8.93266
▁맞춰	-8.93519
▁그대로	-8.93819
▁보지	-8.93929
▁내려	-8.93971
▁대해	-8.94026
▁괜찮아	-8.94308
▁못해	-8.9441
▁힘들었	-8.94566
까봐	-8.94692
▁운명	-8.94719
각	-8.94721
한데	-8.9477
▁사랑한다	-8.95098
▁말하는	-8.95412
▁되고	-8.95922
▁남자들	-8.96039
별	-8.96181
▁취	-8.96196
연	-8.96294
▁후회할	-8.96803
▁됐	-8.96978
▁느낌이	-8.97261
체	-8.97304
짐	-8.97311
양	-8.97436
▁아프네	-8.97541
출	-8.97809
▁동거	-8.97822
카	-8.97845
락	-8.97875
메	-8.97881
병	-8.97885
ᅮ	-8.97889
▁10	-8.97889
▁잊을	-8.97889
▁자존감	-8.97889
덧	-8.97889
엔	-8.97889
▁무서워	-8.9789
▁월급	-8.9789
▁어쩔	-8.97891
더라고요	-8.97904
▁썸녀	-8.98009
▁돌	-8.98024
▁일주일	-8.98039
▁해결	-8.98053
▁기다릴	-8.98193
졌	-8.98211
▁주변	-8.98232
▁휴	-8.98276
▁미련이	-8.98371
▁방	-8.98372
한다	-8.98411
▁이사	-8.98474
▁이상한	-8.98527
▁먹어	-8.99008
▁주면	-8.99401
▁여	-8.99888
셨	-8.99905
겠다	-8.99992
▁먹는	-9.00512
▁물어봐	-9.00689
▁두달	-9.0081
▁달라	-9.01022
▁가족	-9.01105
▁걸어	-9.01285
▁질	-9.01573
왔	-9.01936
▁종	-9.02045
할때	-9.02215
▁사랑해	-9.02302
▁지나	-9.02511
▁아이	-9.027
하니	-9.02755
야할	-9.02812
▁변하	-9.02867
▁친구들이	-9.03019
런	-9.03038
▁듣	-9.03126
▁사랑하고	-9.03141
담	-9.03351
머	-9.03372
작	-9.03375
박	-9.03378
▁울	-9.03387
▁직	-9.03417
끼	-9.03444
▁로맨틱	-9.03445
▁있잖아	-9.03445
▁존중	-9.03445
▁드디어	-9.03445
▁예쁜	-9.03445
▁스킨십	-9.03445
▁출근	-9.03446
▁병원	-9.03446
▁프사	-9.03447
▁군대	-9.03448
▁담배	-9.0345
▁조언	-9.03454
▁취직	-9.03457
▁상담	-9.03462
▁오빠	-9.03499
▁볼까	-9.03509
▁인사	-9.03511
▁여러	-9.03512
피	-9.03553
▁원래	-9.03555
▁않는다면	-9.03579
▁안들어	-9.03583
▁짜증나	-9.03596
▁배려	-9.03598
▁소개	-9.03761
▁연	-9.04027
▁성	-9.04028
▁기다리는	-9.04272
▁적어	-9.04401
고싶어	-9.04416
▁자신에게	-9.04453
▁사랑한	-9.04712
▁바보	-9.05019
▁쉬어	-9.05113
▁싫은	-9.05122
▁상황이	-9.05173
▁하셨	-9.05211
▁전남친	-9.05462
드리	-9.05561
▁모르겠네	-9.058
▁있었	-9.05873
▁봅니다	-9.06034
▁것보다	-9.06046
▁번호	-9.06462
▁연락해도	-9.06545
▁친구들	-9.06853
▁허	-9.07066
▁떠	-9.07093
▁칭찬	-9.0724
▁찍	-9.07262
▁우울	-9.07332
▁본	-9.07376
▁꾸	-9.07486
▁감정이	-9.08013
▁세상에	-9.08212
친	-9.085
▁시작이	-9.08582
거리	-9.08632
같	-9.08933
행	-9.08955
직	-9.09038
▁여자들	-9.09062
결	-9.09119
합	-9.09213
움	-9.09247
▁부담	-9.09278
션	-9.09327
▁싶지	-9.09327
▁옆에	-9.09327
▁잊으	-9.09327
▁최선	-9.09327
김	-9.09327
놈	-9.09327
론	-9.09327
▁복잡하	-9.09328
▁적극적	-9.09328
▁축하드려요	-9.0933
▁발표	-9.0933
▁잊어버리	-9.09338
▁화장실	-9.09375
남	-9.09382
▁대학	-9.09394
▁착각	-9.09402
▁보고싶어	-9.0942
오네	-9.09463
▁본인	-9.09492
복	-9.09598
▁해보는	-9.09699
▁보러	-9.09701
▁그사람	-9.09709
▁드	-9.09837
▁하기	-9.09863
▁사람에	-9.0989
▁후회하지	-9.10238
▁커플	-9.10276
▁일상	-9.10432
붙	-9.10454
▁사과	-9.10498
▁달라지는	-9.10967
▁나랑	-9.1107
▁힘들겠	-9.1125
▁타고	-9.11584
▁괜찮을	-9.11611
▁되었	-9.11834
▁성공	-9.12008
▁만	-9.12055
▁속이	-9.12346
▁상	-9.12391
▁연락하는	-9.12432
▁폰	-9.12531
▁사람에게	-9.1259
거겠죠	-9.13206
라면	-9.1341
▁잊고	-9.13496
▁다음	-9.13633
▁붙잡	-9.13673
▁키	-9.13765
▁성격이	-9.14264
▁연락하면	-9.1432
▁그녀가	-9.14509
▁끝을	-9.14518
▁만나자	-9.14781
▁무시	-9.14857
▁이어	-9.14925
봤	-9.15065
▁지났네	-9.15112
▁만났	-9.15199
▁짝사랑하는	-9.15278
▁좋겠지	-9.15299
감이	-9.15321
▁재미있	-9.15422
기는	-9.15449
▁크	-9.15473
형	-9.15524
▁자연스	-9.1555
▁올려	-9.15565
▁SNS	-9.15577
▁귀엽	-9.15577
▁무섭	-9.15577
▁버텨	-9.15577
▁생기	-9.15577
▁저녁	-9.15577
▁존재	-9.15577
땐	-9.15577
찬	-9.15577
▁현상	-9.15578
▁부담스럽	-9.15584
▁비밀	-9.15586
▁어플	-9.15614
▁발전	-9.15627
▁축하해요	-9.15638
▁바빠	-9.15641
▁상사	-9.15648
▁괜찮아질	-9.15672
줬어	-9.1569
▁감사	-9.15693
▁키우	-9.15704
▁지우	-9.15705
▁받았어	-9.1575
▁심해	-9.15753
년째	-9.15764
▁헤어졌어	-9.1578
해볼까	-9.15824
었던	-9.15947
▁이용	-9.15967
▁안하고	-9.16226
미	-9.1625
너	-9.16341
▁있으니까	-9.16359
짓	-9.16383
잔	-9.16405
라는	-9.16515
▁하다보	-9.16538
▁아는데	-9.16745
▁만나면	-9.16822
▁사랑하는데	-9.16986
▁좋아할까	-9.16995
▁선물이	-9.17256
▁상황을	-9.17336
▁등	-9.17373
해줄	-9.17623
시군요	-9.17788
말고	-9.17862
▁버려	-9.17979
▁생겼어	-9.18189
▁주말	-9.18243
▁마련	-9.18418
▁스	-9.18661
▁쉬는	-9.18946
▁준	-9.1915
기만	-9.19168
시다	-9.19366
▁생각하는	-9.19794
▁안됐	-9.19956
▁터	-9.2002
▁안되	-9.2014
▁순	-9.20463
이라는	-9.20561
▁생각나네	-9.20627
▁해줘	-9.20694
하길	-9.20974
▁받으	-9.21027
▁떨	-9.21055
으니까	-9.21075
구나	-9.21407
▁꿈이	-9.21662
▁쓰레기	-9.21766
▁태	-9.21826
▁최고	-9.2188
았어	-9.21973
능	-9.22018
침	-9.22109
었으면	-9.22111
▁가능해	-9.22113
▁미워	-9.22149
▁적응	-9.22209
레	-9.22221
웠	-9.22227
▁냄새	-9.22244
▁모아	-9.22244
▁바뀔	-9.22244
▁쓰는	-9.22244
▁오랜만에	-9.22244
▁헤아리	-9.22244
▁부족한	-9.22244
▁도서관	-9.22244
▁적당히	-9.22244
▁마주치	-9.22244
▁채워	-9.22245
▁취미	-9.2225
▁질투	-9.22253
▁새벽	-9.22257
▁장거리	-9.22266
▁청소	-9.22267
▁휴식	-9.2227
▁학원	-9.22272
▁지나갈	-9.22287
▁돌아오	-9.22296
▁지쳐	-9.22319
▁답장	-9.22336
▁용기내	-9.2234
▁미래	-9.22367
▁눈치	-9.22509
▁갈까	-9.22532
▁사실	-9.22577
▁위로해	-9.22646
▁어쩌지	-9.22652
▁이상형	-9.22725
▁건가	-9.22758
▁이상해	-9.2276
하자	-9.22761
▁빼	-9.22894
▁뿌	-9.22894
▁행복하	-9.22994
▁없으면	-9.23092
▁저에게	-9.23132
▁여자친구와	-9.23168
뿐	-9.23257
▁생일	-9.23257
놓고	-9.2326
▁행복한	-9.23298
초	-9.23438
화	-9.23442
위	-9.23446
명	-9.23491
잡	-9.2353
▁배워	-9.23535
▁헤어져야	-9.23575
▁여기	-9.2359
▁이야기해	-9.23736
▁괜찮아졌	-9.23759
▁응원	-9.2379
▁쓸	-9.24176
▁되면	-9.24359
▁슬	-9.24533
했네	-9.2475
▁심하	-9.24815
▁고치	-9.24822
▁뿐이	-9.24826
▁부분	-9.25025
▁눈에	-9.25116
▁못하고	-9.25179
▁혼자만	-9.25205
▁언젠가	-9.25223
▁호감이	-9.25242
▁필요할	-9.25281
▁놓아	-9.25415
었다	-9.25456
▁선택일	-9.26072
▁놓아주	-9.26256
▁보기	-9.26592
됐어	-9.26925
▁모르겠	-9.2704
▁밖에	-9.27101
해야할까	-9.27282
▁시원	-9.27306
▁노력하	-9.27335
▁충전	-9.27646
먹기	-9.27935
난다	-9.28257
▁아닐	-9.28283
하거나	-9.28671
가슴이	-9.28708
▁싶네	-9.28768
▁용	-9.28894
렸	-9.28923
드려	-9.2908
▁만남이	-9.29081
필	-9.2925
프	-9.29276
▁졸업	-9.29365
품	-9.29376
월	-9.29381
충	-9.29383
▁데려다	-9.29384
숙	-9.29384
창	-9.29385
극	-9.29385
특	-9.29386
▁나눠보	-9.29387
▁다이어트	-9.29387
▁받지	-9.29387
▁빌려	-9.29387
▁편할	-9.29387
▁완벽	-9.29387
▁무서운	-9.29389
▁결심	-9.29391
▁슬퍼	-9.29392
▁음식	-9.29393
▁결과	-9.29394
▁당당하	-9.29397
▁꿨어	-9.294
▁멋있	-9.294
▁소화	-9.29412
▁가능성	-9.29418
▁차별	-9.29436
▁의사	-9.29509
▁지워	-9.29521
▁친구들과	-9.29522
▁만드	-9.29523
▁돌려	-9.29533
▁불러	-9.29542
▁한잔	-9.29547
▁결혼식	-9.29555
▁만났는데	-9.29562
▁안경	-9.2959
▁쐬	-9.29643
▁크리스마스	-9.29643
▁좋을텐데	-9.29772
해야할지	-9.29788
▁지쳤나	-9.29794
▁따로	-9.2987
▁좋아하나	-9.29957
하나봐	-9.3003
▁피해	-9.30062
▁가능하	-9.30166
▁기운	-9.3017
▁않으면	-9.30175
▁계	-9.30175
▁붙잡고	-9.30223
이라고	-9.30241
▁생각나는	-9.30281
▁들어가	-9.30462
▁했던	-9.30533
▁무엇이	-9.30539
▁꿈에서	-9.30864
▁소식이	-9.30918
조	-9.30962
ᅲ	-9.31066
▁베	-9.31074
키	-9.31121
글	-9.31149
▁어디서	-9.31152
종	-9.31221
▁뭐하지	-9.31222
순	-9.31243
었네	-9.31395
보여	-9.31526
▁착	-9.31872
▁곳에	-9.3191
▁톡	-9.31934
▁이거	-9.32176
▁생각하지	-9.32791
해줘	-9.33034
하러	-9.33334
▁되기	-9.33446
▁슬프	-9.335
▁마련이	-9.33674
▁있고	-9.33746
▁없지	-9.34094
▁괜찮다	-9.34749
▁다녀	-9.34804
▁보냈	-9.3493
▁추억이	-9.35038
▁느껴	-9.352
군	-9.35402
▁떨어	-9.35424
▁명	-9.35555
▁매력	-9.35713
▁시작해	-9.35715
▁썸타는	-9.35761
▁놀러	-9.35836
▁무엇	-9.35849
▁흐르	-9.3634
▁헤어졌	-9.36422
▁뜻	-9.36642
▁마셔	-9.3666
▁의지	-9.36665
▁좋았	-9.36771
▁친구로	-9.36938
▁자격	-9.37061
색	-9.37068
▁기념일	-9.37079
▁마스크	-9.37079
▁많을	-9.37079
▁맞았	-9.37079
▁면접	-9.37079
▁문득	-9.37079
▁미세먼지	-9.37079
▁심호흡	-9.37079
▁앞으로	-9.37079
▁연예인	-9.37079
▁평소	-9.37079
옴	-9.37079
▁벗어나	-9.37079
▁목소리	-9.37079
▁그리워	-9.3708
▁상태	-9.37081
▁부탁	-9.37094
▁인형	-9.37102
▁외로워	-9.37103
▁우연	-9.37105
▁분명	-9.37105
▁원망	-9.37107
▁떨어졌어	-9.37109
▁언제쯤	-9.37109
▁버스	-9.37111
하시	-9.3712
▁없애	-9.37123
▁동물	-9.37136
▁은근	-9.37142
▁걱정돼	-9.37143
▁연락처	-9.37179
▁인간	-9.37183
▁했습니다	-9.37183
▁그랬	-9.37188
▁까먹	-9.37203
▁드시	-9.37206
▁헤어졌는데	-9.37234
▁치과	-9.37309
▁한동안	-9.37398
▁걱정하지	-9.37471
▁잘해줘	-9.37501
▁떨리	-9.3755
▁다르겠지	-9.37604
▁그동안	-9.37622
하다가	-9.37666
▁웃어	-9.37679
거같아	-9.37839
▁못할	-9.37871
같아	-9.37999
▁상관없	-9.38019
▁어울리	-9.38033
▁듣고	-9.38105
▁크게	-9.38158
▁살까	-9.38243
▁됨	-9.38333
▁틀	-9.38336
▁거울	-9.38348
▁방학이	-9.384
▁인생이	-9.38409
▁있겠지	-9.38562
▁나온	-9.3871
▁없는데	-9.38877
버	-9.39046
▁흘렀네	-9.39126
▁짝사랑이	-9.39233
터	-9.39248
유	-9.39256
불	-9.39319
▁집에서	-9.39341
꾸	-9.39374
본	-9.39436
▁해서	-9.39489
▁울어	-9.39527
탈	-9.39547
파	-9.39591
좀	-9.39618
▁다니	-9.39687
버리	-9.39758
▁거야	-9.39772
▁연락하지	-9.39963
년이	-9.40263
▁싸우	-9.40311
▁주고	-9.40604
셨나봐	-9.40736
먹고	-9.4079
▁산	-9.40854
▁왔는데	-9.40857
▁독	-9.40997
▁썸이	-9.41045
▁같다	-9.41278
들에게	-9.41334
▁그렇지	-9.41362
리기	-9.41578
이별	-9.41594
으니	-9.41686
▁남았	-9.41741
▁버	-9.41893
▁끝인	-9.4197
달째	-9.42157
▁청	-9.42216
▁드네	-9.42241
▁것들	-9.42242
인듯	-9.42548
▁습관이	-9.42568
▁고민하	-9.42775
▁돌아가	-9.42786
이란	-9.42825
▁전해	-9.42909
▁주지	-9.43001
▁살아야	-9.43326
▁않네	-9.43532
였어	-9.43558
▁부모님이	-9.43719
▁솔직하	-9.43852
뻔	-9.44014
▁걱정이	-9.44228
▁깊	-9.44229
▁배우	-9.44277
▁집착	-9.44485
▁회사에	-9.44562
녀	-9.44658
▁주변에	-9.44866
노	-9.45164
▁받았	-9.45179
▁삭제	-9.45216
님	-9.45335
관	-9.4535
패	-9.45393
덕	-9.45405
염	-9.45412
▁계획	-9.45412
▁읽어	-9.45412
▁짧은	-9.45412
둬	-9.45412
링	-9.45412
쪽	-9.45412
ᄏ	-9.45412
▁긍정적	-9.45412
▁안타깝	-9.45412
▁지나갔	-9.45412
▁취업	-9.45412
▁편한	-9.45412
곰	-9.45412
토	-9.45412
▁마무리	-9.45412
▁판단	-9.45413
▁클럽	-9.45413
▁음악	-9.45414
고싶은데	-9.45414
▁역시	-9.45416
▁느려	-9.45417
▁시계	-9.45418
▁무너	-9.45421
▁귀여워	-9.45429
▁미친	-9.45436
▁사귄	-9.4544
▁진급	-9.45458
▁떠난	-9.4547
▁자유	-9.45473
▁통보	-9.45493
▁보고싶다	-9.45494
왔습니다	-9.45495
▁지난	-9.45496
▁인상	-9.45619
▁의심	-9.4564
▁전부	-9.45669
▁똑같은	-9.45693
▁결정이었을	-9.4592
▁어떡하지	-9.45931
차근	-9.45988
▁이별에	-9.46006
되는	-9.46041
▁거절	-9.4607
▁증거	-9.46092
느라	-9.46101
▁참아	-9.46136
▁차분	-9.46198
▁나올	-9.46267
▁자리	-9.46293
▁나왔어	-9.4633
▁타는데	-9.46496
▁이건	-9.46529
▁솔직	-9.46602
▁과정	-9.46846
▁찾아가	-9.46855
▁저한테	-9.46857
▁되는데	-9.4696
한다면	-9.47009
▁있겠죠	-9.47147
▁성격	-9.47209
▁궁금하네	-9.47383
▁있지만	-9.47476
려면	-9.47657
▁왔다	-9.47692
▁사랑해서	-9.47698
▁팔	-9.47698
▁휴가	-9.47709
▁놀고	-9.47925
못	-9.47972
더	-9.47975
밖에	-9.48078
▁인	-9.48192
재	-9.4828
▁가까	-9.4834
▁포기	-9.48341
었길	-9.48358
▁좋아한다	-9.485
허	-9.48541
볼	-9.48562
법	-9.48569
▁그러게	-9.48573
배	-9.48589
▁오해	-9.4859
청	-9.48633
새	-9.4865
▁다리	-9.48664
돈	-9.48684
2	-9.48771
▁안와	-9.48782
연애	-9.48787
지네	-9.48937
준비	-9.48956
▁분이	-9.48985
▁말할	-9.49036
야하나	-9.49144
▁나왔	-9.49392
하셨	-9.49418
▁사야	-9.49495
잡고	-9.4964
▁외	-9.49704
▁내리	-9.4996
▁않으니	-9.50008
▁성공하	-9.50062
▁ᅲᅲ	-9.50104
전에	-9.5011
▁자고	-9.50652
▁생활	-9.50662
▁해주는	-9.51156
▁재	-9.51204
▁자세	-9.51476
▁잊어야	-9.51625
▁몰랐	-9.51905
록	-9.51929
해주는	-9.51935
지면	-9.52147
▁입어	-9.52213
▁ᅲ	-9.52345
▁바라	-9.52412
▁방학	-9.52985
▁처음에	-9.53329
▁힘드	-9.5359
▁안하는	-9.54069
플	-9.54223
▁미안	-9.54306
교	-9.54321
졌으면	-9.54331
▁라면	-9.54384
▁비가	-9.54395
역	-9.544
▁가능할	-9.54415
골	-9.5447
▁아름다	-9.54473
언	-9.54479
께	-9.54494
▁놓고	-9.54498
▁희망	-9.54503
칼	-9.54503
▁괴롭	-9.54503
▁냉장고	-9.54503
▁됩니다	-9.54503
▁막말	-9.54503
▁많지	-9.54503
▁복잡한	-9.54503
▁샀어	-9.54503
▁시어머니	-9.54503
▁현재	-9.54503
▁흔적	-9.54503
넌	-9.54503
▁이겨낼	-9.54503
▁이겨내	-9.54503
▁집안일	-9.54503
▁근처	-9.54504
▁축구	-9.54505
▁담	-9.54506
▁추워	-9.54506
▁취향	-9.54509
▁알면서도	-9.5451
▁비교하	-9.54515
▁선톡	-9.54517
▁스키	-9.54519
▁환승이별	-9.54522
▁조절	-9.54534
▁친한	-9.5454
▁다녀오	-9.54541
▁소원	-9.54555
▁온전	-9.5457
▁진실	-9.54581
▁소문	-9.54585
▁끝난	-9.54597
▁예민한	-9.54604
▁찾아올	-9.5464
▁긴장	-9.54648
▁피부	-9.54669
▁제발	-9.54675
렸어	-9.54683
▁늘어	-9.5469
▁잡아	-9.54715
▁상상	-9.54718
봤는데	-9.54731
▁고통	-9.54744
▁됐으면	-9.54763
하고싶어	-9.54763
▁짐	-9.54774
▁반대	-9.548
▁관심사	-9.54808
▁개인	-9.54831
▁쓴	-9.54836
고싶다	-9.54839
▁이러	-9.54847
▁남을	-9.54857
냐고	-9.54864
▁습관이에요	-9.54906
▁걸릴	-9.54941
▁내려놓	-9.55
▁중간	-9.55002
▁많은데	-9.55148
났어	-9.55358
조차	-9.55371
▁필요하겠	-9.55407
▁외로	-9.55422
대체	-9.55438
▁생겼네	-9.55505
▁없겠	-9.55837
▁이해해	-9.55842
조건	-9.55865
▁안전	-9.55869
▁통해	-9.55894
▁괜찮아지	-9.55964
▁태도	-9.55966
▁공부하	-9.55981
▁행복하게	-9.55985
▁노력해	-9.56098
▁있네	-9.56234
▁믿음이	-9.56261
냈어	-9.56409
▁피곤해	-9.56422
▁챙겨드	-9.565
▁사귀어	-9.5669
▁쉬어가	-9.56846
▁있다는	-9.5687
▁향	-9.56881
▁힘들었을	-9.56946
▁사고	-9.57098
▁축하	-9.57267
▁지났	-9.57439
▁어서	-9.5765
하려	-9.57668
▁살기	-9.57736
▁놔	-9.57821
▁죄	-9.57822
▁했나	-9.57867
영	-9.58097
▁중인	-9.58249
생활	-9.58353
외	-9.58473
친구	-9.58582
▁알아보	-9.58685
버려	-9.58695
밥	-9.58767
▁주말이	-9.58834
▁놀이	-9.59279
▁기본	-9.59371
▁썸타	-9.59579
▁남들	-9.60054
려나	-9.60423
▁부분이	-9.60502
았는데	-9.60728
▁맘에	-9.60882
▁봄이	-9.60935
▁견디	-9.61064
▁궁금	-9.6175
▁흘렀	-9.61873
▁거니	-9.62152
인거	-9.62263
▁변	-9.62277
▁해야지	-9.62403
▁소식	-9.62442
▁답답한	-9.62526
▁궁금하	-9.62752
▁함	-9.62793
▁과정이	-9.62904
▁보니	-9.63033
▁알았	-9.63095
▁짓	-9.63202
▁문	-9.63285
▁여행가	-9.63313
▁있으니	-9.6368
▁한다	-9.63713
▁반복	-9.63756
빠	-9.63844
해졌	-9.63947
늘	-9.64021
▁과	-9.64135
▁짜증	-9.64188
포	-9.64243
량	-9.64456
쯤	-9.64464
짜	-9.64482
스러운	-9.64484
턴	-9.64484
떡	-9.64494
석	-9.64499
채	-9.64502
페	-9.64502
끌	-9.64503
▁억지로	-9.64503
효	-9.64503
▁갔다	-9.64503
▁기분전환	-9.64503
▁딸기	-9.64503
▁쓰고	-9.64503
▁아무렇지	-9.64503
▁좋으면	-9.64503
▁청첩장	-9.64503
▁페북	-9.64503
▁편해	-9.64503
▁하루하루	-9.64503
▁휴대폰	-9.64503
껏	-9.64503
닉	-9.64503
▁멈추	-9.64503
▁벚꽃	-9.64503
▁잊기	-9.64503
▁배고파	-9.64503
▁아까워	-9.64503
▁누군가	-9.64503
▁밀당	-9.64504
▁교회	-9.64504
▁이별통보	-9.64504
▁멋져	-9.64505
▁맥주	-9.64506
▁산책	-9.64507
▁목표	-9.64508
▁만나기로	-9.6451
▁힘든가봅니다	-9.64511
▁도와주	-9.64512
▁찾기	-9.64513
▁변명	-9.64513
▁고마워	-9.64514
▁가벼	-9.64517
▁행운	-9.64517
▁야근	-9.64524
▁부럽네	-9.64529
▁맛난	-9.64541
스럽	-9.64544
▁단단	-9.64547
▁보험	-9.64555
▁불행	-9.64556
▁중독	-9.64567
▁여전	-9.64575
▁아빠	-9.64578
▁향수	-9.64589
▁필요하다면	-9.64614
▁실망	-9.64623
▁걱정되겠	-9.64634
▁바꾸	-9.64638
▁집들이	-9.64647
▁빠지	-9.64679
▁달달	-9.6468
▁공시	-9.64682
▁노래방	-9.64687
▁이성으로	-9.64689
▁이불	-9.64728
▁어린	-9.648
▁과거	-9.64819
▁과일	-9.64853
▁잠수	-9.6496
▁때문이	-9.65007
▁사소	-9.65021
▁지금처럼	-9.65042
▁최고죠	-9.6506
▁할텐데	-9.65078
▁어려	-9.65207
▁글로	-9.65252
▁헤어지자고	-9.65288
년간	-9.65311
▁깊은	-9.65364
▁무리	-9.65398
▁올라	-9.654
▁느끼는	-9.65421
▁추천해	-9.65442
▁남아	-9.65467
있어	-9.65513
▁사정	-9.65538
이라니	-9.65544
▁놀러가	-9.65601
▁사랑한다면	-9.6564
▁호	-9.65655
▁신나	-9.65685
▁신고하	-9.65805
▁없겠지	-9.65874
▁사귀기	-9.65902
▁더워	-9.66077
▁꿀	-9.66178
▁고백하는	-9.66518
거죠	-9.66574
▁한달이	-9.66744
▁없어서	-9.6706
▁지나가	-9.67174
▁둘이	-9.67259
건데	-9.67333
▁알면	-9.67337
▁어장	-9.67367
▁상처를	-9.67407
▁배우는	-9.67424
▁들어와	-9.67673
▁선택이	-9.67719
▁그것	-9.67835
기적	-9.67872
▁잘해주	-9.68018
▁헤어지면	-9.68031
▁살아가	-9.68138
▁이름이	-9.68202
▁건강에	-9.68274
▁힘들어서	-9.68578
▁됐네	-9.68579
이다	-9.68791
▁상대에	-9.69029
네여	-9.69313
▁입을	-9.69472
애	-9.69489
▁자신만	-9.69535
설	-9.69538
입	-9.69543
코	-9.69619
ᅲᅲ	-9.69625
폰	-9.69678
번호	-9.69695
곳	-9.69784
방법	-9.69871
인가요	-9.6991
남자	-9.69932
진다	-9.70016
▁답답해	-9.70099
▁자신에	-9.70221
▁했으면	-9.70246
▁아프지	-9.70458
▁남기	-9.70646
▁않나	-9.70659
▁부담스러워	-9.70736
두고	-9.70862
와서	-9.7092
▁타다	-9.71039
▁경험	-9.71144
▁몸에	-9.71228
▁선생님	-9.7144
▁찾아오	-9.71575
▁기다리면	-9.71622
▁행복할	-9.7194
▁잘못이	-9.72019
▁타이밍이	-9.72495
▁맘이	-9.72938
▁후회하	-9.73273
▁바꿔	-9.73535
▁알려	-9.7359
냈	-9.73613
▁간절	-9.7363
▁두고	-9.73665
▁먹었	-9.73709
▁했나봐	-9.73802
▁챙겨주	-9.73955
▁어울	-9.74493
느	-9.74591
▁이상형이	-9.74837
만으로	-9.7484
▁헤어지자	-9.75241
▁절	-9.75498
쁘	-9.75506
환	-9.75517
씨	-9.75542
례	-9.75558
민	-9.75574
겁	-9.75596
얘	-9.75601
빨	-9.75603
축	-9.75606
판	-9.75613
▁권태기	-9.75614
▁빌어	-9.75614
▁프로포즈	-9.75614
둔	-9.75614
빛	-9.75614
액	-9.75614
짠	-9.75614
▁sns	-9.75614
▁곁에	-9.75614
▁공무원	-9.75614
▁맞나	-9.75614
▁맞아	-9.75614
▁맞추	-9.75614
▁무덤덤해	-9.75614
▁빼빼로	-9.75614
▁스트레칭	-9.75614
▁외모	-9.75614
▁최악	-9.75614
▁콩깍지	-9.75614
▁힘듭니다	-9.75614
값	-9.75614
깜	-9.75614
널	-9.75614
룩	-9.75614
릿	-9.75614
콕	-9.75614
콩	-9.75614
탕	-9.75614
툰	-9.75614
▁드라마	-9.75614
▁고맙다	-9.75614
▁혹시	-9.75615
ᄒᄒ	-9.75615
▁그리움	-9.75615
▁차라리	-9.75615
▁위로봇	-9.75615
▁회원	-9.75616
▁허전하	-9.75617
▁심경	-9.75618
▁나쁘지	-9.75619
▁투자	-9.75619
▁깨끗	-9.7562
▁어색해	-9.7562
▁겨울	-9.75621
▁골라	-9.75623
▁각자	-9.75627
▁개강	-9.75627
▁만족	-9.75635
▁일어났	-9.75636
▁명절	-9.75637
▁의외	-9.75645
▁기다렸	-9.75661
▁과식	-9.75661
▁헤어질	-9.75685
▁전공	-9.7569
▁다음부터	-9.75692
▁전환	-9.75696
▁지칠	-9.75718
▁성적	-9.75721
▁소비	-9.75729
▁두번	-9.75745
줬는데	-9.75751
▁달라진	-9.75755
▁이성	-9.75809
▁초대	-9.7581
해야겠지	-9.759
▁꼬	-9.75918
▁먹으	-9.75944
▁헤어졌네	-9.75971
▁들었어	-9.75978
▁먹을까	-9.7602
▁별거	-9.7609
맥이	-9.76137
▁흔들리지	-9.76137
▁그녀에게	-9.76148
▁극복할	-9.76173
▁공감	-9.76208
▁정상	-9.76231
▁줄여	-9.76235
▁나타	-9.7627
▁끝났어	-9.76339
▁주말에	-9.76362
▁좋지만	-9.7648
개월이	-9.76493
▁집착하	-9.76556
▁표현하는	-9.7658
▁알려주	-9.7664
▁계절이	-9.76645
▁철	-9.76752
줘야	-9.77063
▁가능한	-9.77129
하긴	-9.77163
▁지치	-9.77313
▁결혼할	-9.77334
▁싸움	-9.77525
▁않는데	-9.77542
였나	-9.77722
▁받으면	-9.77722
▁미안해	-9.77723
▁안되겠지	-9.7786
▁직접적	-9.78012
▁능력	-9.78063
겠습니다	-9.78178
▁나을까	-9.78214
▁푸	-9.7825
▁영화보	-9.78252
거려	-9.78343
▁남사친이	-9.78454
▁되었나	-9.78589
▁달라고	-9.7859
▁남자랑	-9.78631
▁같지	-9.78658
▁차리	-9.78684
▁오네	-9.78762
▁타이밍	-9.78834
▁아니야	-9.78844
▁생각한	-9.7886
▁애들	-9.78989
줬으면	-9.79024
▁사람이니까	-9.79045
▁순간이	-9.79184
▁말까	-9.79231
▁일하는	-9.79234
▁연애에	-9.79258
▁있겠	-9.79483
▁표현이	-9.79511
▁떨어지	-9.79599
▁길어	-9.7978
▁생각에	-9.80099
▁가족이	-9.80406
▁그럴까	-9.80508
▁썸인가	-9.80896
▁사이에	-9.8096
됐	-9.8126
경	-9.81506
▁이해가	-9.81603
▁기본이	-9.8176
독	-9.81786
▁상대방에	-9.81838
▁못해요	-9.81934
취	-9.81947
▁깔끔	-9.82008
▁생긴	-9.8205
▁째	-9.82075
산	-9.82095
공	-9.82132
척	-9.82179
둘	-9.82204
맛	-9.82226
티	-9.82234
덜	-9.82346
따라	-9.82399
왔는데	-9.82473
▁우선	-9.82475
▁혼자서	-9.82521
치고	-9.82687
각이	-9.82701
▁바라는	-9.8282
▁싸우면	-9.83044
▁마음으로	-9.83556
지내고	-9.8365
▁당황	-9.83676
▁디	-9.83765
▁없을까	-9.84334
년의	-9.84377
었습니다	-9.84389
인가봅니다	-9.84434
▁못했	-9.84573
▁준비하는	-9.85131
▁반지	-9.85437
▁하시	-9.85617
▁믿음	-9.85706
▁헤어	-9.86081
▁생각하면	-9.86089
▁헤어지는	-9.86127
▁서운	-9.86305
▁오면	-9.86334
▁속에	-9.86388
속에서	-9.86572
▁따뜻하	-9.86857
▁끝났	-9.87103
▁어떡하	-9.87335
▁어쩌	-9.87342
리를	-9.87353
▁당연	-9.87539
줬	-9.87586
▁무시하	-9.87668
▁신청	-9.87674
▁영원	-9.87734
▁피곤한	-9.87788
▁바다	-9.87793
뜨	-9.87826
투	-9.87877
▁퇴근	-9.87901
흘	-9.87961
봅	-9.88004
먼	-9.88068
벽	-9.88088
콜	-9.88106
궁	-9.88113
클	-9.88113
찰	-9.88114
▁싱숭생숭	-9.88114
▁앞머리	-9.88114
▁맞을까	-9.88114
▁머릿속	-9.88114
▁메모	-9.88114
▁싶습니다	-9.88114
▁어렵네	-9.88114
▁우선순위	-9.88114
▁자괴감	-9.88114
▁잤어	-9.88114
▁죽겠	-9.88114
▁택배	-9.88114
▁핑계	-9.88114
꼼	-9.88114
땅	-9.88114
빵	-9.88114
왤	-9.88114
킁	-9.88114
푼	-9.88114
햇	-9.88114
▁샤워	-9.88114
▁의미부여	-9.88114
▁태어난	-9.88114
듬	-9.88114
탔	-9.88114
▁센스	-9.88116
▁중국어	-9.88116
▁특별	-9.88116
▁노후	-9.88116
▁빠르	-9.88116
▁흘러	-9.88117
▁경쟁	-9.88119
▁가치관	-9.8812
▁단계	-9.88121
▁언니	-9.88122
▁솔로	-9.88123
▁잠수이별	-9.88125
▁점심시간	-9.88126
▁작아	-9.88127
▁애매하	-9.88128
▁까먹었다	-9.88131
▁외로움	-9.88131
▁나아졌	-9.88132
▁에휴	-9.88133
▁왔으면	-9.88134
▁놀랐	-9.88135
▁프로	-9.8814
▁싸웠	-9.88142
▁기술	-9.88148
▁성별	-9.88148
▁선배	-9.88151
▁매너	-9.88153
▁멋지	-9.88155
▁먼지	-9.8816
▁친해지는	-9.88161
▁다양하	-9.88162
▁버릴	-9.88162
▁이기적인	-9.88164
▁돌아올	-9.88172
교통	-9.88177
▁나아질	-9.88188
▁싸워	-9.88191
▁물리적	-9.88193
▁떨어져	-9.882
▁싫어하는	-9.88207
▁아플	-9.8822
처리	-9.88224
▁이루어	-9.88227
▁잊는다는	-9.88233
꼬박	-9.88242
▁공통	-9.88244
▁어머	-9.88246
▁고쳐	-9.88251
▁잘못된	-9.88251
▁기원	-9.88271
▁주식	-9.88281
셨나	-9.88294
▁심리	-9.88298
▁되었습니다	-9.88301
▁좋아해주는	-9.88335
▁화내	-9.88369
▁보낼	-9.88389
▁허리	-9.88411
▁가족들	-9.88497
▁이직	-9.88513
▁거기까지인	-9.88541
▁성공할	-9.88563
▁9	-9.8859
▁지진	-9.88676
▁생겼으면	-9.88706
▁찍어	-9.88709
▁들여	-9.88721
▁누구에게	-9.88779
▁유지하	-9.88797
▁포기하	-9.88866
▁부자	-9.88879
▁중입니다	-9.88882
▁말해주	-9.88893
▁너에게	-9.88904
▁마셔야	-9.88976
▁달라지	-9.89
▁위기	-9.8908
▁예민해	-9.89091
▁생각했나봐	-9.89114
▁표현해	-9.89201
▁여사친이	-9.89217
▁이러지	-9.89258
▁새해	-9.89388
▁사랑했나봐	-9.89394
▁생각했는데	-9.89502
▁어찌	-9.89655
▁아니지만	-9.89674
도시	-9.89832
▁여자친구에게	-9.89919
▁재밌는	-9.89926
▁안부	-9.89927
▁알았어	-9.90007
▁가사	-9.90108
▁거기까지였	-9.9011
▁잘못인	-9.90194
▁찌	-9.90266
▁노력하는	-9.90279
▁서운하	-9.90327
영상	-9.90523
▁아침이	-9.90802
테니	-9.90952
▁사라	-9.91064
▁있었을	-9.91107
▁운명이	-9.91273
▁정확	-9.91429
▁좋아하지	-9.91478
▁후회해	-9.91526
▁카드	-9.91999
▁면도	-9.92016
▁시원하	-9.92039
▁사람인가	-9.92096
간다	-9.9211
아주	-9.92111
▁답이	-9.92163
할거야	-9.92184
▁늦은	-9.92398
▁해야겠다	-9.92522
▁우울해	-9.92738
▁파도	-9.92832
▁시키	-9.92909
어보고	-9.93012
▁뭐하는	-9.93059
▁선생님이	-9.93063
▁답답할	-9.93257
▁경험이	-9.93436
▁속도	-9.93933
▁나에게	-9.94068
▁살았	-9.94375
▁슬프네	-9.94394
▁경	-9.94412
이었으면	-9.94732
▁참는	-9.95182
▁위험	-9.95403
▁가는데	-9.95576
▁사귀면	-9.95621
하겠습니다	-9.95831
강	-9.95924
▁잡으	-9.95973
▁올해	-9.95989
따	-9.96331
착	-9.96378
속	-9.96418
넘	-9.96476
▁이해해주	-9.96556
또	-9.96601
▁미치	-9.96715
▁장소	-9.96832
함이	-9.96877
▁하는건	-9.97194
해보고	-9.97463
테	-9.97893
▁피곤	-9.98055
해줬으면	-9.98097
▁보여주	-9.98636
▁답답	-9.98661
▁응원해	-9.9904
▁당연하	-9.99196
▁생일이	-10.0018
▁기간	-10.0029
▁끝일	-10.0063
▁어떨까	-10.0081
바이	-10.0094
▁야경	-10.0112
▁여기까지	-10.0131
▁받아들여	-10.0135
들어	-10.0167
쳤	-10.019
▁지내는	-10.0195
처	-10.0206
견	-10.0227
▁잊혀질	-10.0229
우면	-10.0229
멋	-10.0232
찾	-10.0232
마시면	-10.0233
곤	-10.0235
낸	-10.0235
▁견뎌	-10.0236
활	-10.0237
▁익숙	-10.0238
폭	-10.0238
했나	-10.0238
퍼	-10.0239
롭	-10.0239
쟁	-10.0239
브	-10.024
냉	-10.024
렀	-10.024
왕	-10.024
▁간접적	-10.024
▁동호회	-10.024
▁많다	-10.024
▁멀리	-10.024
▁밝혀	-10.024
▁봉사활동	-10.024
▁사회생활	-10.024
▁생겨	-10.024
▁업무	-10.024
▁움직이	-10.024
▁웬수	-10.024
▁유효기간	-10.024
▁자존심	-10.024
▁풀렸	-10.024
꽤	-10.024
닥	-10.024
딩	-10.024
쩍	-10.024
▁검색	-10.024
▁느낄	-10.024
▁두려움	-10.024
▁악몽	-10.024
▁인스타	-10.024
▁접어두	-10.024
▁정류장	-10.024
▁최근	-10.024
▁조급해	-10.024
▁무기력	-10.024
▁정신차리	-10.024
▁에너지	-10.024
▁이어나가는	-10.024
▁흥미	-10.024
▁축복	-10.024
케이스	-10.024
▁표정	-10.024
▁제자리	-10.024
▁보일러	-10.024
▁회복	-10.024
▁차가워	-10.024
▁회식	-10.024
▁빠져	-10.024
▁포장	-10.024
▁통화	-10.0241
▁아깝	-10.0241
센터	-10.0241
▁발목	-10.0241
▁외롭	-10.0241
▁도와줘	-10.0241
▁성향	-10.0241
▁침대	-10.0241
▁아이돌	-10.0241
▁연속	-10.0241
▁공개	-10.0241
▁제주도	-10.0241
버렸어	-10.0241
▁취미생활	-10.0242
해도될까	-10.0242
▁의욕	-10.0242
▁힘드신가	-10.0243
▁지갑	-10.0243
▁인턴	-10.0243
▁15	-10.0243
▁절약	-10.0243
▁봤어	-10.0243
▁자격증	-10.0243
▁반응	-10.0244
▁왔네	-10.0244
▁심장	-10.0244
▁하루에도	-10.0245
▁두근거리겠	-10.0245
▁쳐다	-10.0245
▁찾는	-10.0245
▁빠를	-10.0245
▁여름	-10.0246
▁때문일	-10.0246
▁예감	-10.0246
▁유학	-10.0247
▁어필해	-10.0247
▁맛집	-10.0248
▁참견	-10.0248
▁문신	-10.0248
▁두셨	-10.0249
▁시선	-10.0251
▁대단하	-10.0251
▁여우	-10.0252
▁코스	-10.0252
더라구	-10.0253
▁실내	-10.0253
개월째	-10.0254
▁인내	-10.0254
▁대출	-10.0255
▁애교	-10.0255
▁세워	-10.0256
▁신중	-10.0257
▁배우자	-10.0258
렸나봐	-10.026
▁비난	-10.0261
▁노는	-10.0261
▁받아들이기	-10.0261
▁심어	-10.0261
▁기준	-10.0263
▁말투	-10.0265
▁고르	-10.0265
하며	-10.0265
▁좋아하시	-10.0266
▁끝났네	-10.0269
▁지울	-10.0269
▁좋았는데	-10.027
▁정리될	-10.0271
▁삭제하는	-10.0275
▁남겨	-10.0276
▁당했어	-10.0277
▁이미	-10.0281
려구	-10.0282
▁길러	-10.0282
▁귀여	-10.0284
하셔야	-10.029
▁반장	-10.0297
▁안되네	-10.0297
▁말해볼까	-10.03
▁바르	-10.0305
▁솔직한	-10.0309
▁일들이	-10.031
▁호의	-10.031
▁좋아했는데	-10.0325
▁착한	-10.0328
▁사내	-10.0339
▁고백해도	-10.0353
▁아프다	-10.0358
▁덜할	-10.0358
▁큰일	-10.0361
▁걸음	-10.0377
▁먹어보세요	-10.0382
▁흐르고	-10.0383
▁가능할까	-10.0385
▁들리	-10.0386
▁놓치	-10.0389
▁결정할	-10.0391
▁결혼하면	-10.0404
▁피곤하	-10.0421
▁상의	-10.0423
▁지금보다	-10.0425
▁뭐할까	-10.0428
▁않겠	-10.0434
▁생각날	-10.0435
하겠어	-10.0455
은연	-10.0457
▁받아야	-10.0465
▁마셨	-10.0485
치기	-10.0485
▁포기하는	-10.0501
▁기간이	-10.0517
▁알기	-10.0533
▁바라지	-10.0537
▁나가기	-10.0547
▁무시하는	-10.0556
▁봐서	-10.0571
이란게	-10.0581
▁말라고	-10.0591
드려요	-10.061
▁지냈	-10.0624
▁생각할까	-10.0628
▁나아	-10.0645
오면	-10.0667
▁돌리	-10.067
▁후에	-10.0699
▁한거	-10.0717
갑니다	-10.0753
▁나가야	-10.0798
▁성장	-10.0803
하냐	-10.0838
▁지쳤	-10.0906
▁재미있어	-10.093
▁있었어	-10.0956
▁생긴다	-10.0988
하기로	-10.1057
▁끝에	-10.1094
▁공부해야	-10.1104
쳤어	-10.111
로부터	-10.1123
겠	-10.1139
▁늦어	-10.1189
▁기다리지	-10.1201
이었나	-10.1211
▁전남친이	-10.1292
▁아닌가봐	-10.1294
죄	-10.1303
놔	-10.1303
톡	-10.1306
돌	-10.1307
휴	-10.1311
시키	-10.1311
개	-10.1311
4	-10.132
끝	-10.1322
몸	-10.1322
관계	-10.1323
슬	-10.1324
눈	-10.1325
해주지	-10.1328
잠	-10.1336
▁이름	-10.1364
▁취해	-10.1522
▁가리	-10.1709
▁차분하	-10.176
밖	-10.1762
▁해드	-10.1786
▁자야	-10.181
▁건들	-10.1822
▁흔들리	-10.1826
▁받아들이	-10.1847
쁜	-10.1856
버렸네	-10.1861
족	-10.188
랬	-10.1882
으신가	-10.1889
험	-10.1893
▁못하겠	-10.1897
랐	-10.1898
확	-10.1901
백	-10.1902
탁	-10.1902
즐	-10.1903
꿨	-10.1903
탄	-10.1905
▁시간이었	-10.1905
스러워	-10.1905
센	-10.1906
육	-10.1906
악	-10.1906
농	-10.1907
흥	-10.1907
잼	-10.1907
▁메뉴	-10.1907
▁모으	-10.1907
▁슈퍼	-10.1907
류	-10.1907
범	-10.1907
춰	-10.1907
s	-10.1907
▁결혼적령기	-10.1907
▁고쳐쓰는	-10.1907
▁괴로워	-10.1907
▁낫겠지	-10.1907
▁노트북	-10.1907
▁높겠	-10.1907
▁높아	-10.1907
▁동생이	-10.1907
▁모른척	-10.1907
▁모자라	-10.1907
▁무뎌지	-10.1907
▁믿으	-10.1907
▁발렌타인데이	-10.1907
▁보이스피싱	-10.1907
▁부딪혔	-10.1907
▁불공평해	-10.1907
▁불편해	-10.1907
▁삼겹살	-10.1907
▁셀카	-10.1907
▁스터디	-10.1907
▁쓸데없	-10.1907
▁아름답	-10.1907
▁아쉬움	-10.1907
▁어젯밤	-10.1907
▁여드름	-10.1907
▁이벤트	-10.1907
▁잃어버	-10.1907
▁잠재력	-10.1907
▁짜장면	-10.1907
▁찜질방	-10.1907
▁창업	-10.1907
▁출퇴근	-10.1907
▁택시비	-10.1907
▁헬스장에	-10.1907
▁현금영수증	-10.1907
▁혼술	-10.1907
▁화이트데이	-10.1907
▁후유증이	-10.1907
뒀	-10.1907
뻑	-10.1907
쑥	-10.1907
앗	-10.1907
즈	-10.1907
쪄	-10.1907
▁느낀	-10.1907
▁멍청	-10.1907
▁좋으시	-10.1907
팩	-10.1907
▁관련	-10.1907
▁깨달음	-10.1907
▁익숙해질	-10.1907
▁잇몸	-10.1907
▁지겨워	-10.1907
▁기울여	-10.1907
▁단둘이	-10.1907
▁월요일	-10.1907
▁즐겁	-10.1907
▁현금	-10.1907
▁염색	-10.1907
▁교양	-10.1907
▁로봇	-10.1907
▁이별했습니다	-10.1907
▁속상해	-10.1907
▁태어나	-10.1907
▁표시	-10.1907
▁필름	-10.1907
▁불안해	-10.1907
▁일어날	-10.1907
▁기울이	-10.1907
▁반가워	-10.1907
▁허무하	-10.1907
▁증오	-10.1907
▁데려가	-10.1907
▁흘려	-10.1908
▁꺼내	-10.1908
▁소개시켜	-10.1908
▁밀어	-10.1908
▁안경테	-10.1908
▁치열	-10.1908
▁버티	-10.1908
▁변덕	-10.1908
▁걱정된다	-10.1908
▁누굴	-10.1909
▁차갑	-10.1909
▁추운	-10.191
▁다가오	-10.191
▁간사하	-10.191
▁해주고	-10.191
▁치유	-10.1911
▁시간표	-10.1911
▁영화관	-10.1911
▁분노	-10.1912
▁행복해보여	-10.1912
▁순간이었	-10.1912
▁소유	-10.1912
▁아름다워	-10.1912
▁차례	-10.1913
▁답답하네	-10.1913
▁넘었네	-10.1913
▁물어보면	-10.1914
▁금연	-10.1914
지긋	-10.1915
▁부담스러운	-10.1916
▁동성	-10.1917
▁일요일	-10.1917
▁조용	-10.1918
▁힘드시겠	-10.1918
▁성공적	-10.1921
▁연락해보는	-10.1922
테리	-10.1922
▁아님	-10.1923
▁뭐하냐	-10.1923
▁달라져	-10.1924
▁책임	-10.1926
▁한강	-10.1926
▁끝났으면	-10.1927
▁빠졌	-10.1929
▁대답	-10.1931
▁장점	-10.1931
▁우정	-10.1932
▁해주면	-10.1932
▁남았나봐	-10.1933
▁부부	-10.1936
▁퇴근길	-10.1936
구경	-10.1938
▁지르	-10.1939
▁있으신	-10.1941
▁아물	-10.1942
공원	-10.1945
▁건조	-10.1947
▁알아차	-10.1947
▁대우	-10.1949
▁행복해질	-10.1949
▁보답	-10.195
▁끝날	-10.195
▁부드	-10.1952
▁먹었는데	-10.1955
▁고장	-10.1959
졌는데	-10.196
▁집착해	-10.1962
▁바디	-10.1965
▁영원한	-10.1965
▁웃으면	-10.1965
▁들어줄	-10.1966
▁말해줘	-10.1966
▁뒤에서	-10.1968
▁언제까지	-10.1969
▁익숙해지지	-10.1975
▁소주	-10.1982
▁안되는데	-10.1984
▁점심	-10.1985
▁걸리겠	-10.199
▁떠오르	-10.1991
▁느낌이야	-10.1993
▁언제든	-10.1997
▁수영	-10.1998
타기	-10.1998
▁요구	-10.2002
▁그저	-10.2007
▁아닌거	-10.202
▁먹었어	-10.2028
▁애정	-10.2036
▁놀러가고	-10.2038
짐에	-10.2039
라는게	-10.2042
▁이해할	-10.2046
▁나아지	-10.2058
▁힘든데	-10.206
야돼	-10.206
▁야경이	-10.2061
▁덜어	-10.2067
▁안되나	-10.2071
▁돌아가고	-10.2076
▁친해	-10.2076
▁그만하고	-10.2078
▁떠났	-10.2081
일차	-10.2086
하려는	-10.2098
▁질리	-10.2103
▁여자와	-10.2106
▁그때	-10.2133
▁될거예요	-10.2134
▁위해서	-10.2153
▁그만두	-10.2154
▁고기	-10.2166
▁사수	-10.2168
▁듣기	-10.217
▁위험해	-10.2175
▁가치	-10.2188
▁뻔했	-10.2205
▁바꿔야	-10.2241
▁걸려	-10.2243
▁결혼해야	-10.2252
같았	-10.2252
▁떠보	-10.2268
▁느껴지	-10.2297
▁밤에	-10.2318
망했어	-10.2356
셨어	-10.2363
▁몰랐어	-10.2421
▁관심있	-10.2455
▁변해	-10.2458
▁하지마	-10.25
▁왔나	-10.2552
▁칭찬해주	-10.2558
▁요리	-10.2578
보며	-10.2614
▁포기해야	-10.2748
있을까	-10.2842
▁된다	-10.3023
▁왔나봐	-10.3179
▁사귀자	-10.3183
놓	-10.3189
▁이상하	-10.3196
되겠	-10.3226
▁축하해주	-10.3272
향	-10.328
▁잡았	-10.3282
카드	-10.3309
쓸	-10.331
등	-10.3312
욕	-10.3313
커	-10.3315
밤	-10.3317
시켜	-10.3318
참	-10.3322
팔	-10.3323
깨	-10.3323
맘	-10.3323
1	-10.3324
잘	-10.3328
책	-10.3338
술	-10.3339
노래	-10.3343
조심	-10.3345
▁해야겠	-10.3382
▁정확하	-10.3384
▁만나보	-10.3403
▁어장인	-10.3409
졌다	-10.3412
▁울적	-10.3482
▁헤어져	-10.3499
▁거기까지	-10.3517
봐야지	-10.3594
못했던	-10.3616
양해	-10.3627
▁나온다	-10.3647
였나봐	-10.3714
▁잘지내	-10.3732
▁받아들여야	-10.376
▁심심	-10.3773
▁똑같	-10.3825
▁익숙해지	-10.3825
▁정리되	-10.3827
▁받아들	-10.3833
▁되었네	-10.3846
켜	-10.3892
▁어떨	-10.3895
응	-10.3898
낭비	-10.3899
껴	-10.3899
밀	-10.3899
굴	-10.3901
념	-10.3903
솔	-10.3905
킨	-10.3905
드립니다	-10.3906
십	-10.3906
롱	-10.3907
궈	-10.3907
릅	-10.3907
▁비슷한	-10.3907
빈	-10.3907
핑	-10.3907
S	-10.3907
▁갑작스럽	-10.3907
▁공허함이	-10.3907
▁기프트콘	-10.3907
▁나갔어	-10.3907
▁놀이동산	-10.3907
▁뒷담화	-10.3907
▁득템	-10.3907
▁마침표	-10.3907
▁머리카락	-10.3907
▁멀어지	-10.3907
▁멀어진	-10.3907
▁바뀌어	-10.3907
▁베터리	-10.3907
▁보고싶네	-10.3907
▁새출발	-10.3907
▁생리통	-10.3907
▁서류에서	-10.3907
▁서툴러	-10.3907
▁섬유유연제	-10.3907
▁스타트업	-10.3907
▁신혼여행	-10.3907
▁쌩얼	-10.3907
▁씁쓸	-10.3907
▁아이스크림	-10.3907
▁안좋아	-10.3907
▁애정표현	-10.3907
▁염탐하	-10.3907
▁유부남	-10.3907
▁좋더라	-10.3907
▁좋으련만	-10.3907
▁지하철에	-10.3907
▁첫눈	-10.3907
▁첫인상	-10.3907
▁축의금	-10.3907
▁컴퓨터	-10.3907
▁트라우마	-10.3907
▁편안하	-10.3907
▁형편	-10.3907
▁흑역사	-10.3907
겟	-10.3907
꾼	-10.3907
끄러워	-10.3907
낳	-10.3907
닝	-10.3907
댈	-10.3907
밟	-10.3907
벅	-10.3907
볶	-10.3907
송	-10.3907
쌈	-10.3907
욱	-10.3907
윗	-10.3907
쫌	-10.3907
찐	-10.3907
찼	-10.3907
틈	-10.3907
팍	-10.3907
힌	-10.3907
▁당분간	-10.3907
▁무관심	-10.3907
▁배터리	-10.3907
▁수학여행	-10.3907
▁오락가락	-10.3907
▁쟁취하	-10.3907
둥	-10.3907
홀	-10.3907
▁금수저	-10.3907
▁마주쳐	-10.3907
▁연락두절	-10.3907
▁허전한	-10.3907
▁남자분들	-10.3907
▁왕따	-10.3907
▁마실까	-10.3907
▁배고프	-10.3907
▁한숨만	-10.3907
▁달려있	-10.3907
▁무거워	-10.3907
▁불면증	-10.3907
▁기다림	-10.3907
▁호칭	-10.3907
▁농담	-10.3907
▁못참고	-10.3907
▁무의식	-10.3907
▁비하하지	-10.3907
▁소심해	-10.3907
▁더러워	-10.3907
▁드라이	-10.3907
▁포근	-10.3907
▁추석	-10.3907
▁그리울	-10.3907
▁축제	-10.3907
▁마음정리	-10.3907
▁빠른	-10.3907
▁후련해	-10.3907
▁필요했을	-10.3907
▁육아	-10.3907
▁어떠	-10.3907
▁빨래	-10.3908
▁사겨도	-10.3908
▁무색하	-10.3908
▁감싸	-10.3908
▁원인이	-10.3908
▁단호	-10.3908
▁붙여	-10.3908
▁그리운	-10.3908
▁지루	-10.3908
▁노려	-10.3908
▁어리게	-10.3908
▁연휴	-10.3908
▁아니었을	-10.3909
▁간단하	-10.3909
▁등산	-10.3909
▁스테	-10.3909
▁줄어들	-10.3909
▁커피향	-10.3909
▁군인	-10.3909
▁문화	-10.3909
▁인공	-10.391
활용	-10.391
▁통장	-10.3911
▁늦잠	-10.3911
▁아련	-10.3911
▁반갑	-10.3911
▁성형	-10.3912
▁견뎌내	-10.3912
▁단순	-10.3912
▁도와드	-10.3912
▁먹어야겠다	-10.3913
▁미치겠습니다	-10.3913
▁배울	-10.3913
▁졸업식	-10.3913
▁경제	-10.3913
▁준비하느	-10.3914
베	-10.5781
푸	-10.5797
갑	-10.5799
웃	-10.5806
옷	-10.5813
듣	-10.5814
5	-10.5816
열	-10.5821
쉬	-10.5821
3	-10.5822
숨	-10.5843
맥	-10.6281
끔	-10.6384
펴	-10.6397
끈	-10.6398
픈	-10.6398
황	-10.64
압	-10.6402
블	-10.6406
낌	-10.6407
촉	-10.6407
a	-10.6407
껄	-10.6407
놨	-10.6407
덥	-10.6407
딛	-10.6407
뚝	-10.6407
봉	-10.6407
빙	-10.6407
쎄	-10.6407
엠	-10.6407
왠	-10.6407
율	-10.6407
쫄	-10.6407
쭉	-10.6407
켰	-10.6407
텔	-10.6407
팁	-10.6407
팬	-10.6407
팸	-10.6407
펑	-10.6407
풋	-10.6407
흠	-10.6407
힐	-10.6407
떼	-10.6407
싹	-10.6407
맷	-10.6407
짚	-10.6407
계	-10.9065
찌	-10.9122
틀	-10.9123
꿀	-10.9123
호	-10.9128
뒤	-10.9141
됨	-10.9142
목	-10.9151
놀	-10.9157
알	-10.9158
꿈	-10.9158
손	-10.9179
곡	-10.9703
표	-10.9712
냥	-10.9716
련	-10.9725
귄	-10.9727
납	-10.9728
꿔	-10.9729
즘	-10.9731
텐	-10.9733
현	-10.9739
ᄒ	-10.974
완	-10.974
춘	-10.974
꼈	-10.974
밑	-10.974
넋	-10.974
뽀	-10.974
댄	-10.974
앨	-10.974
혔	-10.974
B	-10.974
겐	-10.974
굳	-10.974
닷	-10.974
땜	-10.974
륵	-10.974
빴	-10.974
썩	-10.974
옵	-10.974
젤	-10.974
줌	-10.974
쭤	-10.974
츠	-10.974
컷	-10.974
톱	-10.974
툭	-10.974
렴	-10.974
누	-11.4114
귀	-11.4135
철	-11.4137
싸	-11.4145
태	-11.4149
뿌	-11.415
빼	-11.4151
봄	-11.4157
벌	-11.4157
6	-11.4161
갖	-11.4162
늦	-11.4163
큰	-11.4164
루	-11.4708
젠	-11.4723
쩌	-11.4734
끗	-11.4737
똥	-11.474
맙	-11.474
뱃	-11.474
눅	-11.474
샌	-11.474
왼	-11.474
잇	-11.474
낀	-11.474
뇌	-11.474
뚱	-11.474
찢	-11.474
챘	-11.474
칩	-11.474
뒹	-11.474
싱	-11.474
C	-11.474
D	-11.474
깅	-11.474
꽂	-11.474
꿩	-11.474
넹	-11.474
녔	-11.474
눴	-11.474
돕	-11.474
띠	-11.474
띰	-11.474
랭	-11.474
렉	-11.474
룸	-11.474
룽	-11.474
릭	-11.474
맹	-11.474
뮤	-11.474
벤	-11.474
벨	-11.474
붓	-11.474
뷔	-11.474
빽	-11.474
뻤	-11.474
뿅	-11.474
삔	-11.474
샘	-11.474
샜	-11.474
섯	-11.474
쑤	-11.474
왓	-11.474
웽	-11.474
젝	-11.474
줍	-11.474
즙	-11.474
짤	-11.474
쨌	-11.474
찡	-11.474
춤	-11.474
층	-11.474
캄	-11.474
캐	-11.474
캔	-11.474
켓	-11.474
콧	-11.474
쿠	-11.474
쿼	-11.474
킬	-11.474
킹	-11.474
탐	-11.474
템	-11.474
톤	-11.474
퉁	-11.474
튜	-11.474
펭	-11.474
픽	-11.474
혈	-11.474
혐	-11.474
훅	-11.474
휙	-11.474
흡	-11.474
웁	-11.474
X	-11.474
솜	-11.474
찹	-11.474
넛	-11.474
변	-12.4167
깊	-12.4168
꼬	-12.4169
9	-12.4169
뜻	-12.4174
쓴	-12.4179
떨	-12.4181
떠	-12.4182
쐬	-12.4185
졸	-12.4187
곧	-12.4194
꽃	-12.4197
딱	-12.4198
얼	-12.4199
꼭	-12.4199
왜	-12.4203
큼	-12.4403
훌	-12.4418
홈	-12.4419
튀	-12.442
텼	-12.4421
텅	-12.4422
킥	-12.4423
짬	-12.4424
졋	-12.4425
젊	-12.4426
옮	-12.4427
옛	-12.4428
엿	-12.4429
얇	-12.443
씸	-12.4431
씰	-12.4432
섞	-12.4433
샐	-12.4434
뽕	-12.4435
뺏	-12.4436
볕	-12.4437
묘	-12.4438
멘	-12.4439
륜	-12.444
띵	-12.4441
뜬	-12.4442
떴	-12.4443
덮	-12.4444
댔	-12.4445
댓	-12.4446
논	-12.4447
꽝	-12.4448
꼴	-12.4449
깼	-12.445
깬	-12.4451
괘	-12.4452
겉	-12.4453
갠	-12.4454
o	-12.4455
g	-12.4456
홧	-12.4457
헹	-12.4458
헐	-12.4459
팀	-12.446
텀	-12.4461
턱	-12.4462
쿵	-12.4463
컥	-12.4464
캬	-12.4465
측	-12.4466
짼	-12.4467
엊	-12.4468
얽	-12.4469
앱	-12.447
숫	-12.4471
삐	-12.4472
빚	-12.4473
몬	-12.4474
맴	-12.4475
렐	-12.4476
랙	-12.4477
랖	-12.4478
뚫	-12.4479
됬	-12.448
눕	-12.4481
눌	-12.4482
꿰	-12.4483
깰	-12.4484
갱	-12.4485
훔	-12.4486
핫	-12.4487
폼	-12.4488
텁	-12.4489
컸	-12.449
촬	-12.4491
총	-12.4492
짰	-12.4493
징	-12.4494
좌	-12.4495
웹	-12.4496
옳	-12.4497
볍	-12.4498
밉	-12.4499
몫	-12.45
맺	-12.4501
릇	-12.4502
넷	-12.4503
꽉	-12.4504
꼰	-12.4505
겪	-12.4506
헌	-12.4507
팠	-12.4508
툼	-12.4509
탓	-12.451
퀴	-12.4511
쿨	-12.4512
켠	-12.4513
쪼	-12.4514
엮	-12.4515
씌	-12.4516
쏠	-12.4517
쏟	-12.4518
썹	-12.4519
쌍	-12.452
쁨	-12.4521
렜	-12.4522
렛	-12.4523
돋	-12.4524
낚	-12.4525
긁	-12.4526
곱	-12.4527
흑	-12.4528
휘	-12.4529
훈	-12.453
헥	-12.4531
틋	-12.4532
찜	-12.4533
젯	-12.4534
쌩	-12.4535
슈	-12.4536
쉴	-12.4537
묻	-12.4538
릎	-12.4539
땡	-12.454
둠	-12.4541
늠	-12.4542
광	-12.4543
A	-12.4544
툴	-12.4545
털	-12.4546
짱	-12.4547
젖	-12.4548
웬	-12.4549
얻	-12.455
씁	-12.4551
싼	-12.4552
띄	-12.4553
닮	-12.4554
녹	-12.4555
낙	-12.4556
낄	-12.4557
끓	-12.4558
객	-12.4559
찔	-12.456
앉	-12.4561
섬	-12.4562
뽑	-12.4563
뢰	-12.4564
렬	-12.4565
늙	-12.4566
넓	-12.4567
꾹	-12.4568
깎	-12.4569
겹	-12.457
콤	-12.4571
잃	-12.4572
엉	-12.4573
샤	-12.4574
밝	-12.4575
몽	-12.4576
맡	-12.4577
렘	-12.4578
랫	-12.4579
땀	-12.458
검	-12.4581
헬	-12.4582
빡	-12.4583
벚	-12.4584
뤄	-12.4585
딪	-12.4586
넣	-12.4587
규	-12.4588
곁	-12.4589
n	-12.459
컴	-12.4591
옥	-12.4592
렌	-12.4593
딴	-12.4594
낮	-12.4595
걔	-12.4596
갚	-12.4597
씻	-12.4598
씹	-12.4599
슷	-12.46
뛰	-12.4601
딸	-12.4602
푹	-12.4603
컨	-12.4604
춥	-12.4605
닫	-12.4606
잤	-12.4607
웨	-12.4608
썼	-12.4609
셀	-12.461
듭	-12.4611
뒷	-12.4612
뀌	-12.4613
깔	-12.4614
귈	-12.4615
8	-12.4616
7	-12.4617
뉴	-12.4618
뀔	-12.4619
텨	-12.462
녁	-12.4621
깍	-12.4622
권	-12.4623
걷	-12.4624
N	-12.4625
샀	-12.4626
멈	-12.4627
됩	-12.4628
눠	-12.4629
헛	-12.463
틱	-12.4631
엽	-12.4632
쌓	-12.4633
삼	-12.4634
밍	-12.4635
희	-12.4636
삭	-12.4637
옆	-12.4638
북	-12.4639
립	-12.464
쇼	-12.4641
숭	-12.4642
벗	-12.4643
끄	-12.4644
헷	-12.4645
섭	-12.4646
멍	-12.4647
멀	-12.4648
잖	-12.4649
삶	-12.465
높	-12.4651
읽	-12.4652
뎌	-12.4653
낫	-12.4654
녕	-12.4655
엇	-12.4656
렵	-12.4657
득	-12.4658
깐	-12.4659
괴	-12.466
랜	-12.4661
흔	-12.4662
빌	-12.4663
긋	-12.4664
익	-12.4664
끊	-12.4665
흐	-12.4666
퇴	-12.4667
밌	-12.4668
픔	-12.4669
짧	-12.467
승	-12.4671
덤	-12.4672
핸	-12.4673
풍	-12.4674
뭔	-12.4675
똑	-12.4676
몇	-12.4677
슴	-12.4678
뻐	-12.4679
씀	-12.468
닐	-12.4681
0	-12.4682
맨	-12.4683
평	-12.4684
써	-12.4685
챙	-12.4686
풀	-12.4687
존	-12.4688
갔	-12.4689
첫	-12.469
격	-12.4691
죽	-12.4692
럼	-12.4693
최	-12.4694
엄	-12.4695
슨	-12.4696
떤	-12.4697
뭘	-12.4698
업	-12.4699
앞	-12.47
,	-12.4701
쉽	-12.4702
택	-12.4703
걱	-12.4704
겼	-12.4705
믿	-12.4706
닌	-12.4707
접	-12.4708
랄	-12.4709
막	-12.471
몰	-12.4711
럴	-12.4712
억	-12.4713
싫	-12.4714
쓰	-12.4715
맞	-12.4716
떻	-12.4717
렇	-12.4718
벼	-12.4719
편	-12.4719
잊	-12.472
괜	-12.4721
찮	-12.4722
뭐	-12.4723
!	-12.4724
받	-12.4725
습	-12.4726
혼	-12.4727
썸	-12.4728
헤	-12.4729
쁠	-12.4729
모	-12.473
않	-12.4731
많	-12.4732
깝	-12.4733
힘	-12.4733
싶	-12.4734
뜰	-12.4734
쩔	-12.4735
없	-12.4735
생	-12.4736
닿	-12.4736
낭	-12.4737
봇	-12.4737
람	-12.4737
첨	-12.4737
램	-12.4738
?	-12.4738
욜	-12.4739
획	-12.4739
좋	-12.4739
칭	-12.4739
혹	-12.474
곗	-12.474
꽁	-12.474
딧	-12.474
묵	-12.474
뭉	-12.474
칫	-12.474
긍	-12.474
냄	-12.474
딜	-12.474
랠	-12.474
픕	-12.474
흰	-12.474
률	-12.474
딘	-12.474
O	-12.474
j	-12.474
k	-12.474
ᄎ	-12.474
갇	-12.474
갯	-12.474
걍	-12.474
겜	-12.474
굶	-12.474
굽	-12.474
굿	-12.474
귐	-12.474
균	-12.474
귤	-12.474
깃	-12.474
깠	-12.474
깡	-12.474
꺽	-12.474
껀	-12.474
꼿	-12.474
꿎	-12.474
꿧	-12.474
뀐	-12.474
넥	-12.474
놉	-12.474
뇨	-12.474
뇽	-12.474
늪	-12.474
닦	-12.474
닭	-12.474
닳	-12.474
댜	-12.474
덩	-12.474
덴	-12.474
델	-12.474
뎠	-12.474
둑	-12.474
듀	-12.474
듦	-12.474
딨	-12.474
떄	-12.474
뗄	-12.474
뛴	-12.474
뜁	-12.474
뜩	-12.474
뜸	-12.474
랩	-12.474
럿	-12.474
렁	-12.474
렷	-12.474
령	-12.474
롤	-12.474
롯	-12.474
룰	-12.474
몹	-12.474
뭇	-12.474
뭣	-12.474
밭	-12.474
밸	-12.474
뱄	-12.474
뱉	-12.474
벋	-12.474
벴	-12.474
붕	-12.474
빗	-12.474
뺄	-12.474
뻘	-12.474
뻣	-12.474
뻥	-12.474
뿍	-12.474
삽	-12.474
섣	-12.474
섰	-12.474
셥	-12.474
쇠	-12.474
숍	-12.474
숏	-12.474
쌀	-12.474
쌤	-12.474
썰	-12.474
쎈	-12.474
쏘	-12.474
쏜	-12.474
씬	-12.474
씽	-12.474
앙	-12.474
얄	-12.474
엘	-12.474
엣	-12.474
옇	-12.474
잌	-12.474
잦	-12.474
젔	-12.474
젹	-12.474
좁	-12.474
쥐	-12.474
쥬	-12.474
즉	-12.474
쩐	-12.474
쪘	-12.474
쭈	-12.474
찝	-12.474
챔	-12.474
챗	-12.474
첩	-12.474
쳇	-12.474
촌	-12.474
췄	-12.474
츄	-12.474
츤	-12.474
칙	-12.474
컹	-12.474
콘	-12.474
쾌	-12.474
큐	-12.474
킴	-12.474
탱	-12.474
텄	-12.474
텻	-12.474
퉜	-12.474
펜	-12.474
펨	-12.474
펼	-12.474
퐈	-12.474
퓨	-12.474
핀	-12.474
핍	-12.474
핏	-12.474
햐	-12.474
헉	-12.474
협	-12.474
혜	-12.474
훨	-12.474
휨	-12.474
힙	-12.474
쎌	-12.474
멤	-12.474
섹	-12.474
.	-12.474
텍	-12.474
