<pad>	0
<bos>	0
<eos>	0
<unk>	0
<sep>	0
<extract>	0
<delim>	0
▁	-1.27317
▁.	-2.70094
요	-4.36458
가	-4.47438
이	-4.58085
을	-4.61087
▁?	-4.72241
게	-4.90273
도	-4.94622
지	-4.99839
는	-5.02526
고	-5.12594
은	-5.23107
▁거예요	-5.3423
를	-5.36027
보세요	-5.53715
한	-5.62732
의	-5.6862
▁수	-5.68711
세요	-5.72003
▁너무	-5.75389
에	-5.77586
네요	-5.79189
해보세요	-5.81313
▁잘	-5.82934
▁좋아하는	-5.8644
▁안	-5.86935
나	-5.88449
서	-5.90434
▁더	-5.91661
죠	-5.91682
어	-5.95273
▁사람	-5.96769
▁것	-5.98303
하고	-5.99843
▁거	-6.0161
다	-6.03064
할	-6.03811
면	-6.0875
▁나	-6.08818
▁사랑	-6.08918
기	-6.13078
만	-6.13572
네	-6.18262
해	-6.19722
▁좋은	-6.20635
▁많이	-6.22581
히	-6.25323
로	-6.25437
봐요	-6.27972
▁생각	-6.3098
▁그	-6.31613
하는	-6.34171
하세요	-6.34737
길	-6.36038
랑	-6.37994
▁사람이	-6.38254
▁같아요	-6.38794
▁!	-6.39004
▁좀	-6.40455
일	-6.40824
▁마음	-6.41195
▁이별	-6.41708
▁있을	-6.42754
으로	-6.43206
▁싶어	-6.4362
▁있어요	-6.45653
▁없어	-6.45991
▁내	-6.4866
하지	-6.52592
▁썸	-6.53135
야	-6.53659
▁말	-6.55074
거	-6.57077
▁같아	-6.57102
으면	-6.59324
▁때	-6.59458
▁연락	-6.61883
는데	-6.65924
인	-6.71046
에서	-6.71662
▁마세요	-6.73383
이에요	-6.74814
▁이제	-6.75407
▁오늘	-6.79036
운	-6.83037
▁건	-6.8461
▁있는	-6.85565
▁내가	-6.85898
하면	-6.86741
▁왜	-6.86842
▁마음이	-6.87392
▁있	-6.87672
▁다른	-6.88298
리	-6.90577
아	-6.9164
▁어떻게	-6.93052
▁연애	-6.93151
▁싶다	-6.94152
▁저	-6.94396
▁남자친구	-6.94822
▁좋아	-6.9553
니다	-6.95609
것도	-6.95758
▁시간이	-6.98275
대	-6.98619
▁여자친구	-6.98873
주	-6.99983
▁못	-7.01435
▁바	-7.01652
▁돼	-7.01888
해요	-7.03728
▁정말	-7.04036
▁다시	-7.04148
해도	-7.04595
겠어요	-7.0461
자	-7.0462
라	-7.05521
▁다	-7.05786
▁또	-7.06253
▁친구	-7.07261
▁않아	-7.07763
려	-7.08171
▁있어	-7.08221
▁좋을	-7.08723
과	-7.09333
▁수도	-7.11396
▁생각해	-7.1168
▁아니	-7.13965
거예요	-7.14336
인데	-7.15269
▁자신	-7.16792
와	-7.1715
▁힘들	-7.18697
▁걸	-7.18751
▁지금	-7.1917
▁될	-7.19198
▁그런	-7.20544
▁여자	-7.20929
년	-7.21242
▁같이	-7.21724
가봐요	-7.22219
▁조금	-7.24273
▁당신	-7.24514
▁혼자	-7.25269
상	-7.26355
▁자꾸	-7.26539
데	-7.27232
▁시간	-7.27535
하게	-7.28613
▁사	-7.29223
▁좋겠어	-7.30416
▁진짜	-7.31234
▁일이	-7.32166
시	-7.32224
해주세요	-7.33334
적	-7.34384
든	-7.34422
합니다	-7.34505
▁없는	-7.35252
▁저도	-7.36452
수	-7.36646
▁만나	-7.36743
어요	-7.37259
▁정리	-7.3776
질	-7.38008
까	-7.3832
▁먼저	-7.38721
▁살	-7.3884
지만	-7.39256
한테	-7.3949
할까	-7.39598
▁해	-7.4001
▁될까	-7.4014
▁오	-7.40873
주세요	-7.40992
으	-7.41185
▁제가	-7.41219
▁헤어진지	-7.42792
▁결혼	-7.42886
▁바랄게요	-7.43136
▁있을까	-7.43551
▁애	-7.44406
보다	-7.44792
▁아무	-7.45881
▁선물	-7.45886
▁하나	-7.47
진	-7.47565
▁계속	-7.47756
에게	-7.48051
▁힘든	-7.49592
▁짝사랑	-7.49661
사	-7.49737
▁그럴	-7.50027
지도	-7.50212
▁남자	-7.50419
간	-7.50555
▁이야기	-7.50907
에요	-7.51042
걸	-7.5122
들	-7.51461
래	-7.5229
나봐	-7.52475
여	-7.53071
▁준비	-7.53108
▁참	-7.53469
▁짝녀	-7.53535
니	-7.53538
▁사랑이	-7.53586
긴	-7.53851
▁좋아요	-7.53867
하	-7.53952
니까	-7.54298
겠죠	-7.54369
봅니다	-7.55807
보	-7.55924
정	-7.56112
심	-7.56392
하기	-7.56497
▁고백	-7.56542
라고	-7.5697
해야	-7.57422
대로	-7.57652
▁좋겠	-7.58753
▁드세요	-7.58818
▁공부	-7.58875
▁전	-7.58887
▁서로	-7.59051
▁먹고	-7.59761
▁그렇	-7.59826
했어	-7.59952
▁보	-7.60086
▁방법	-7.60242
▁일	-7.6068
▁1	-7.60696
▁좋죠	-7.60873
랍	-7.60873
▁무	-7.61389
▁있나	-7.6232
▁하는	-7.62923
장	-7.64516
▁남	-7.6481
▁힘들어	-7.64846
▁아직	-7.65719
▁많은	-7.66287
다고	-7.67345
▁몰라	-7.67561
▁싫어	-7.68741
▁데이트	-7.69244
▁찾아	-7.69527
▁너	-7.69762
씩	-7.7108
던	-7.71121
▁충분	-7.72282
▁그래	-7.72511
▁보고	-7.72817
▁시작	-7.72894
▁중	-7.72913
까지	-7.73031
▁날	-7.73336
▁눈	-7.73826
▁감정	-7.7394
습니다	-7.7428
드	-7.75202
건	-7.75661
▁기억	-7.75722
▁어떤	-7.75974
점	-7.7605
날	-7.76378
져	-7.76884
▁카톡	-7.77236
▁함께	-7.77237
▁대화	-7.77241
▁짝남이	-7.77632
▁말해보세요	-7.78402
▁무슨	-7.79808
▁새로	-7.79902
신	-7.8015
러	-7.80179
▁들어	-7.80426
▁오래	-7.80476
▁친구가	-7.80918
▁이렇게	-7.8112
▁그냥	-7.81126
▁머리	-7.81133
▁내일	-7.8177
▁고민	-7.82312
▁안돼	-7.82593
거라	-7.82894
▁3	-7.8305
▁힘드네	-7.83795
해서	-7.83851
▁후회	-7.83908
▁아	-7.84152
봐	-7.84175
▁사람은	-7.8457
▁돈	-7.84879
인지	-7.85348
▁비	-7.86392
▁많아	-7.86658
▁되	-7.86817
▁알	-7.87142
▁관심	-7.87432
예요	-7.87979
음	-7.88766
는게	-7.88767
▁2	-7.89068
겠네	-7.89072
금	-7.89155
▁운동	-7.89382
▁이유	-7.89423
구	-7.90109
▁먹	-7.90817
▁헤어진	-7.91373
▁열	-7.91448
차	-7.9168
▁줄	-7.92331
▁어떨까요	-7.92412
▁나만	-7.92638
▁사랑하는	-7.93076
하네	-7.93151
▁알아	-7.9316
입니다	-7.93276
방	-7.93513
자고	-7.93824
▁누구	-7.93925
▁후	-7.9447
제	-7.94682
겠지	-7.94769
른	-7.95118
▁전화	-7.95292
▁하루	-7.96487
려고	-7.97712
▁피	-7.98739
했	-7.9886
되	-7.98934
▁있는데	-7.99008
▁짝남	-7.99392
치	-7.99533
었어	-7.99581
스	-7.99867
줄	-8.00668
마	-8.01307
하죠	-8.01867
▁귀	-8.02035
달	-8.02207
이라	-8.02384
▁상처	-8.02706
▁생각이	-8.0303
▁싶은	-8.03117
▁그녀	-8.03172
▁없네	-8.03187
▁연락이	-8.03318
▁마음에	-8.03519
▁여행	-8.03852
▁맘	-8.04132
임	-8.04622
▁않는	-8.0475
통	-8.04874
▁나한테	-8.05212
내	-8.05358
하는데	-8.06497
▁도움	-8.06585
▁같은데	-8.06597
▁타는	-8.06972
었	-8.0703
갈	-8.07196
천	-8.07259
실	-8.08084
▁따라	-8.08237
▁않았	-8.08251
항	-8.08251
▁스트레스	-8.08251
▁만날	-8.08333
▁우리	-8.08377
때	-8.08723
▁반	-8.08838
▁올	-8.09067
부터	-8.09219
▁없다	-8.09998
▁이별을	-8.10088
함	-8.10712
오	-8.10916
▁제	-8.11456
▁언제	-8.1166
▁쉬	-8.11964
▁모르겠어	-8.12351
▁좋겠다	-8.12603
▁가고	-8.12754
▁말고	-8.12888
적인	-8.12997
▁꿈	-8.13105
만큼	-8.13342
▁바라요	-8.13837
▁듯	-8.13898
▁기대	-8.14049
▁노래	-8.15098
▁어디	-8.15192
▁마	-8.15417
▁어때	-8.15506
울	-8.1602
된	-8.16118
자기	-8.16581
▁만들어	-8.16958
▁집	-8.17149
▁아파	-8.17253
▁쉽지	-8.17307
▁이젠	-8.17317
▁곳	-8.17335
▁괜찮아요	-8.17775
▁꼭	-8.17866
▁보내	-8.18578
워	-8.18604
▁한달	-8.18633
▁할까	-8.18888
▁노력	-8.19336
사람을	-8.19864
▁않을	-8.19981
했던	-8.20649
▁조심	-8.20898
처럼	-8.21095
▁문제	-8.21222
걸까	-8.21645
▁기분	-8.22011
▁맛있	-8.2255
▁변화	-8.23159
▁맞는	-8.23162
▁현실	-8.23164
▁만큼	-8.23473
식	-8.23594
일까	-8.24067
▁필요	-8.24184
▁화	-8.2427
소	-8.24633
▁직접	-8.24797
▁나이	-8.24832
▁않은	-8.25193
▁요즘	-8.25213
▁아니라	-8.25558
▁좋을까	-8.26095
대한	-8.26201
▁있죠	-8.2633
인가	-8.27146
중	-8.27208
▁말씀	-8.27265
▁믿어	-8.27265
▁결국	-8.27266
거나	-8.273
번	-8.28099
다가	-8.28125
하면서	-8.28134
다니	-8.28971
▁중요한	-8.29391
비	-8.29439
▁자	-8.30406
했는데	-8.30627
보는	-8.30645
▁나는	-8.31037
▁결정	-8.31095
▁필요해	-8.31279
▁볼	-8.31354
린	-8.3147
이야	-8.31703
▁입	-8.31961
▁아직도	-8.32936
▁되는	-8.33038
▁회사	-8.33102
▁그러	-8.33314
났	-8.33474
▁마지막	-8.33754
▁나쁜	-8.33777
듯	-8.33859
▁이런	-8.33862
▁부	-8.34007
▁가는	-8.34072
부	-8.34399
다면	-8.34513
▁큰	-8.35112
기도	-8.35432
▁밥	-8.35446
에는	-8.35458
▁살고	-8.35472
건가	-8.35627
을까	-8.35664
▁같은	-8.35755
찍	-8.35803
▁기다려	-8.36014
▁집에	-8.36177
▁헤어지고	-8.36373
▁미련	-8.36438
▁받아	-8.36493
였	-8.36804
이나	-8.36868
▁말아	-8.37149
면서	-8.37228
지는	-8.37414
▁늦	-8.37858
용	-8.37868
▁깨	-8.38027
텐데	-8.38177
트	-8.38202
▁헤어짐	-8.38326
▁여자애	-8.38345
▁싶은데	-8.38426
▁손	-8.38558
▁여친	-8.38612
▁처음	-8.38676
▁썸남	-8.38743
▁가져	-8.38919
▁딱	-8.39017
▁가지	-8.39293
달라고	-8.39454
▁표현	-8.39459
▁중요해	-8.39995
냐	-8.39996
추	-8.40077
수록	-8.40724
▁마음의	-8.40805
▁어제	-8.40807
▁물	-8.41477
발	-8.41684
거야	-8.4202
▁하	-8.42037
▁물어	-8.42243
▁모르는	-8.42958
▁완전	-8.43118
▁재회	-8.43124
▁남자애	-8.43133
▁용기	-8.4315
개월	-8.43208
▁때문에	-8.4328
볼까	-8.43479
살	-8.43545
▁해야	-8.43586
보면	-8.43602
▁관계	-8.43673
다는	-8.43705
▁가장	-8.43823
제일	-8.44121
▁매일	-8.44356
▁몸	-8.44381
▁사이	-8.44484
마세요	-8.44802
▁타	-8.45161
▁만나는	-8.45447
▁이해	-8.45454
▁뭘까	-8.45602
▁핸드폰	-8.45602
낼	-8.45602
▁같애	-8.45605
▁필요한	-8.46065
▁약	-8.46254
▁행복	-8.46368
그	-8.46692
감	-8.47094
▁인생	-8.47853
▁모두	-8.4815
▁뭐라	-8.4815
▁얼마	-8.4815
▁연습	-8.4815
▁아닌	-8.48176
▁예의	-8.48219
▁가끔	-8.48235
▁인정	-8.48235
▁잘할	-8.48393
▁남친	-8.48485
▁시간을	-8.49147
돼	-8.49219
▁그만	-8.49258
릴게요	-8.49921
▁주세요	-8.50025
▁차	-8.5044
디	-8.5056
ᅲ	-8.50753
▁엄청	-8.50764
▁상관	-8.50774
더니	-8.50786
▁기다리	-8.50852
했나봐	-8.50863
▁쉬운	-8.50928
▁남자가	-8.5134
▁잘하는	-8.51417
마다	-8.51466
전	-8.51509
▁사람한테	-8.51552
▁추억	-8.51577
까요	-8.5167
▁선택	-8.51707
▁사랑에	-8.51808
▁잠	-8.51819
▁갑	-8.51833
▁없을	-8.51971
▁오늘도	-8.52116
▁기분이	-8.5237
▁점	-8.5288
▁사는	-8.52998
▁많았	-8.53084
릴	-8.53331
겨	-8.53353
▁모든	-8.53449
▁왔어	-8.53449
▁확신	-8.53451
▁신경	-8.53459
▁날씨	-8.53463
▁어느	-8.5348
▁알았는데	-8.53494
▁좋아해	-8.53519
▁있다면	-8.53598
있는	-8.53801
▁살아	-8.53932
▁인연이	-8.54284
▁취	-8.54496
▁진심	-8.54631
▁사람들이	-8.55132
▁당신이	-8.55315
약	-8.55369
▁걱정	-8.55635
만에	-8.55647
답	-8.55972
▁떠나	-8.56208
▁스스로	-8.56208
▁예뻐	-8.56208
혀	-8.56208
▁소개팅	-8.56212
▁의미	-8.56246
▁한번	-8.56335
▁자주	-8.56446
▁사진	-8.5646
했으면	-8.56787
▁있었나	-8.56949
▁되나	-8.5711
▁상대방	-8.583
▁모르겠어요	-8.58319
▁설	-8.58777
▁바람	-8.59015
▁앞에	-8.59045
▁어떡해	-8.59045
▁빨리	-8.59052
어보세요	-8.5916
크	-8.59194
▁이상	-8.59548
하다	-8.59626
두	-8.5991
난	-8.60287
있	-8.60656
▁날이	-8.60809
▁나와	-8.60976
인가봐	-8.61267
▁아침	-8.61562
라면	-8.61566
별	-8.61646
▁괜찮은	-8.61965
▁끝나	-8.61965
▁예쁘	-8.61965
▁짝남한테	-8.6208
▁해볼까	-8.62827
▁뿐	-8.62888
▁갖	-8.62958
우	-8.63565
▁추천	-8.63693
▁모르	-8.63783
▁사람들	-8.6393
말	-8.64008
▁만나고	-8.64083
집	-8.64259
▁싶어요	-8.64508
▁새	-8.64573
명	-8.64915
▁싶네	-8.64972
▁후폭풍	-8.64972
▁아픔	-8.64972
▁직장	-8.64985
▁연락해	-8.65078
▁감기	-8.65212
들이	-8.65549
▁신경쓰지	-8.65583
▁만들	-8.65994
▁상대	-8.66193
▁정도	-8.66282
▁5	-8.66375
당	-8.66506
▁가능	-8.66533
▁말이	-8.66988
▁6	-8.67074
▁건강	-8.67302
▁아프	-8.67834
▁정신	-8.68072
▁바쁘	-8.68073
▁엄마	-8.68073
▁첫사랑	-8.68073
▁학교	-8.68078
▁생각나	-8.68562
것	-8.68634
후	-8.68778
선	-8.68882
▁정	-8.69171
안	-8.69229
줘	-8.69239
▁잘하고	-8.69286
증	-8.69504
▁다가가	-8.69924
▁아는	-8.70041
르	-8.70059
▁언젠	-8.70107
문	-8.70166
▁강	-8.70238
▁재미	-8.70243
▁영화	-8.70449
▁잔	-8.70802
근	-8.70979
▁욕	-8.7108
▁커피	-8.71272
▁아픈	-8.71274
▁실수	-8.71296
▁알바	-8.713
▁눈물	-8.71301
▁잠시	-8.71357
일째	-8.71369
▁힘내세요	-8.71488
▁느낌	-8.71558
째	-8.71597
▁4	-8.72025
▁궁금해	-8.72092
▁좋아할	-8.72302
▁난	-8.72564
▁자신이	-8.7285
▁얼굴	-8.72943
이랑	-8.73722
시간	-8.73922
직	-8.74134
성	-8.74178
했다	-8.74207
▁않죠	-8.7458
▁편하	-8.7458
▁관리	-8.74596
▁만난	-8.74649
▁소리	-8.74691
하던	-8.74797
겠어	-8.74856
▁이별이	-8.75021
▁불	-8.75268
▁부모님	-8.75784
▁동	-8.75813
나요	-8.75934
같은	-8.76074
▁파	-8.76213
원	-8.76443
▁누	-8.76519
▁넘	-8.76522
▁행복해	-8.76603
▁호감	-8.76674
▁두	-8.76789
▁고민이	-8.7713
▁물어보	-8.77325
저	-8.77753
▁되었	-8.77824
청	-8.77964
▁아닐까	-8.77999
▁즐거	-8.78004
▁살펴	-8.78008
▁되지	-8.78623
졌어	-8.78637
했어요	-8.78842
▁보는	-8.79736
예	-8.80013
▁힘들다	-8.80162
▁잘못	-8.80324
망	-8.80403
▁같네	-8.80451
▁구	-8.81178
동안	-8.81277
며	-8.81278
▁위해	-8.81444
담	-8.81469
붙	-8.81523
▁벌써	-8.81539
▁슬픈	-8.81539
▁아닌데	-8.81637
▁원하는	-8.81693
더라	-8.81852
▁지나	-8.81881
무	-8.82917
▁다음에	-8.83231
단	-8.83322
▁천	-8.83584
▁연락하고	-8.83958
▁그분	-8.84436
절	-8.84522
었나봐	-8.84625
▁여친이	-8.84768
럽	-8.85181
▁뭐야	-8.85209
▁행동	-8.8521
▁카페	-8.8521
▁나중에	-8.85211
▁비싸	-8.85213
▁여유	-8.85216
▁어려워	-8.85216
▁주무	-8.85235
▁차단	-8.8524
▁봐	-8.85266
▁다행	-8.85267
▁화장	-8.85271
▁티	-8.85276
▁힘들지	-8.85295
▁연인	-8.85299
▁사귀는	-8.8531
었는데	-8.85425
먹	-8.85461
▁만남	-8.85505
▁사귀고	-8.85698
가서	-8.861
양	-8.86187
▁것이	-8.86449
▁안해	-8.86578
▁번	-8.8674
▁헤어지	-8.86744
가면	-8.86863
▁벌	-8.87819
▁가기	-8.87909
▁챙겨	-8.87961
▁썸남이	-8.88469
▁마시	-8.88613
외	-8.88854
반	-8.88931
메	-8.88998
▁놀아	-8.89001
박	-8.89008
▁차이	-8.89015
▁위로	-8.89016
짓	-8.89018
▁괜찮을까	-8.89019
▁남편이	-8.89019
▁귀찮아	-8.89019
▁지켜	-8.89026
▁일어나	-8.89036
놓고	-8.89067
▁확실한	-8.89241
▁만나지	-8.89245
▁게임	-8.89508
▁탈	-8.89555
▁되어	-8.90039
▁자기	-8.90041
▁곧	-8.90174
학	-8.90489
▁복	-8.90899
▁갈	-8.91156
▁재	-8.91314
▁아이	-8.91383
▁세	-8.9145
▁물어보는	-8.91614
▁곳이	-8.91632
▁책	-8.91679
▁척	-8.9187
친	-8.92
▁감	-8.92158
터	-8.92662
▁필요하	-8.9271
따	-8.92797
▁좋아하면	-8.92892
카	-8.92931
꺼	-8.9297
▁맨날	-8.92979
▁잠깐	-8.92979
▁약속	-8.92989
▁우산	-8.9299
분	-8.92998
▁자체	-8.93007
▁소중	-8.93013
▁작은	-8.93082
▁먹어야지	-8.93083
▁이별의	-8.93172
▁만났어	-8.93182
▁보이	-8.93184
▁힘들게	-8.93227
▁자신감	-8.93284
▁친구한테	-8.93386
남	-8.93461
▁사랑했던	-8.93467
▁좋아하게	-8.93483
준	-8.93509
▁꿈에	-8.93715
될	-8.93727
▁옷	-8.93729
▁생각할	-8.93823
건지	-8.94303
▁달	-8.94449
▁거라	-8.9456
▁전에	-8.94678
▁했는데	-8.94988
리는	-8.95807
▁순간	-8.96069
▁못하는	-8.96072
버	-8.96564
▁확인해	-8.96639
▁많아요	-8.96763
▁환승	-8.97103
▁생길	-8.97104
▁거짓말	-8.97104
▁설레	-8.97117
▁바쁜	-8.97126
세	-8.97126
▁기회	-8.97142
▁미리	-8.97182
연	-8.97228
겠다	-8.97323
▁고민이야	-8.97366
한다	-8.97571
▁나오	-8.9762
▁이번	-8.97665
▁중요하지	-8.97738
거리	-8.97956
▁힘들겠지	-8.98085
하니까	-8.98204
아요	-8.98374
▁맛있는	-8.98644
▁들	-8.98715
란	-8.99057
▁간다	-8.99112
▁안되는	-8.99113
▁알게	-8.99391
동	-8.99426
▁나서	-8.99611
▁않을까	-8.99696
▁속	-9.00087
▁일을	-9.00659
지지	-9.00723
▁따뜻	-9.00765
짐	-9.0091
▁극복	-9.01165
▁서로에	-9.01332
▁좋다	-9.01405
▁분위기	-9.01405
▁시험	-9.01409
▁종교	-9.0141
▁알려줘	-9.01412
▁꾸준	-9.01414
▁헤어졌습니다	-9.01443
▁못하겠어	-9.01464
▁진정	-9.01473
▁거죠	-9.01604
▁이별후	-9.01632
▁목	-9.01664
▁짝녀한테	-9.01678
▁먹으면	-9.01866
▁됐어	-9.02026
▁도전	-9.02066
▁된	-9.02184
줄까	-9.02513
▁그녀를	-9.02684
▁돈이	-9.02966
▁잠이	-9.03165
▁다를	-9.03168
▁나을	-9.04321
▁배	-9.04436
는지	-9.04605
▁걸까	-9.04774
▁신경쓰	-9.04932
▁있지	-9.0497
이별한	-9.05004
들을	-9.05289
▁남친이	-9.05365
▁사귀	-9.05375
▁별로	-9.05647
셔	-9.0571
쓸	-9.05879
림	-9.05887
▁끝내	-9.059
▁두려워	-9.059
▁부러워	-9.059
▁쇼핑	-9.059
▁싫다	-9.059
▁없나	-9.059
▁잊혀지	-9.059
▁같습니다	-9.05947
▁위	-9.06115
온	-9.06159
▁받아들이는	-9.062
▁시기	-9.06249
▁있습니다	-9.06311
▁절대	-9.06323
▁법	-9.06355
으니까	-9.06721
▁되네	-9.06765
▁습관	-9.07195
▁이사	-9.07258
▁숨	-9.07282
매	-9.07319
▁정리하는	-9.07411
▁코	-9.07506
▁신	-9.07613
같	-9.07809
▁능력이	-9.07878
▁알고	-9.07899
▁중에	-9.0794
▁이제는	-9.08005
▁말해	-9.08202
급	-9.08597
▁밤	-9.0882
버리	-9.09036
▁사랑할	-9.09632
▁답	-9.10129
번호	-9.10156
▁즐기	-9.102
▁맛	-9.10203
렸	-9.10322
배	-9.10386
▁인연	-9.10455
국	-9.10549
바	-9.10561
산	-9.10585
▁멋진	-9.10607
▁헷갈리	-9.10607
가슴이	-9.10607
▁떨려	-9.10619
▁자책하지	-9.10626
▁장난	-9.10629
▁하늘	-9.10634
하려고	-9.1068
졌	-9.11289
▁줘	-9.11431
▁봄	-9.11635
▁안나	-9.11666
하나	-9.11873
▁아닌지	-9.11884
▁좋은데	-9.11896
▁초	-9.12041
▁글	-9.12107
▁듣	-9.12224
어서	-9.12256
재	-9.12578
▁좋아하는데	-9.12704
▁스타일	-9.12856
았	-9.12873
▁유	-9.13218
해주는	-9.13292
▁다르	-9.13336
▁매	-9.13564
▁방법이	-9.13645
봤	-9.14047
▁오는	-9.14056
▁먹을	-9.1424
▁생각만	-9.14241
▁사랑하면	-9.14295
▁드는	-9.14649
▁시켜	-9.14713
▁대해	-9.15015
▁헤어졌	-9.15106
▁공	-9.15176
▁맞춰	-9.1519
▁힘내	-9.15212
독	-9.15283
▁중요하	-9.15337
각	-9.15456
▁가세요	-9.15488
허	-9.15508
짝	-9.1554
▁전여친	-9.15546
▁않겠	-9.15546
▁그리고	-9.15556
▁경우	-9.15563
▁자연스러	-9.15581
▁어려운	-9.15583
▁문자	-9.15584
▁집중	-9.15625
▁보지	-9.16127
하시	-9.16239
▁내려	-9.16392
▁그대로	-9.16473
▁인기	-9.16498
▁남자들	-9.16693
▁힘들었	-9.16792
▁웃	-9.17029
야겠다	-9.17181
타	-9.17842
▁괜찮아	-9.18
▁말하는	-9.18029
▁세상	-9.18086
▁운명	-9.1814
올	-9.18228
▁되고	-9.18341
▁돌아	-9.18584
▁싸	-9.18781
피	-9.19009
뿐	-9.191
할때	-9.19138
초	-9.19159
이면	-9.19408
위	-9.19433
▁미련이	-9.1976
▁영	-9.19782
▁주변	-9.20036
▁느낌이	-9.20081
물	-9.20174
쳐	-9.20297
기는	-9.20435
▁아프네	-9.20455
▁주면	-9.20489
▁변하	-9.20645
거겠죠	-9.20728
▁소	-9.20734
창	-9.20736
▁마련이	-9.20741
▁자존감	-9.20741
덧	-9.20741
엔	-9.20741
▁무서워	-9.20742
▁월급	-9.20744
더라고요	-9.20753
▁썸녀	-9.20827
해볼까	-9.20834
▁해결	-9.20853
이라면	-9.20893
▁확인	-9.21162
▁커	-9.21212
▁이상한	-9.21424
주는	-9.21432
말고	-9.21591
두고	-9.22452
▁후회할	-9.22556
▁두달	-9.23246
▁못해	-9.23526
됐어	-9.23712
는건	-9.23769
▁조	-9.24151
▁가족	-9.24179
▁달라	-9.24226
▁먹는	-9.24371
▁개	-9.24518
▁물어봐	-9.248
▁기다리는	-9.25144
▁둘	-9.25222
▁충전	-9.25358
▁친구들이	-9.25366
어도	-9.25376
분이	-9.25464
▁모르겠네	-9.25488
▁되겠	-9.25593
름	-9.25887
버려	-9.25958
▁지내	-9.26015
플	-9.26046
▁힘들겠	-9.26086
관	-9.26129
숙	-9.26205
▁생일	-9.26217
롭	-9.26218
끼	-9.26219
▁로맨틱	-9.26222
▁군대	-9.26222
▁있잖아	-9.26222
▁드디어	-9.26222
▁스킨십	-9.26222
▁예쁜	-9.26223
▁출근	-9.26226
▁병원	-9.26226
▁담배	-9.26226
▁조언	-9.26229
▁프사	-9.26233
▁상담	-9.26253
▁오빠	-9.26261
▁여러	-9.26287
▁원래	-9.26297
▁않는다면	-9.26305
▁짜증나	-9.26344
▁배려	-9.26361
했나	-9.26389
▁안들어	-9.2639
▁인사	-9.2642
▁사랑한	-9.26444
▁상황	-9.26496
▁소개	-9.26525
▁사랑하고	-9.26603
까봐	-9.26798
▁자신에게	-9.27101
▁상황이	-9.27506
한데	-9.27573
보여	-9.27611
▁건지	-9.27643
조	-9.2773
▁것보다	-9.27842
르고	-9.27917
▁쉬어	-9.28054
하자	-9.28101
▁당	-9.28271
▁사람에	-9.28301
화	-9.284
▁여자들	-9.2869
드리	-9.28695
▁연락해도	-9.28851
▁보여	-9.28853
▁보면	-9.28933
올려	-9.29
▁칭찬	-9.29422
▁우울	-9.2958
▁세상에	-9.29631
▁성공	-9.29854
▁친구들	-9.29959
하니	-9.30073
했네	-9.30519
▁시작이	-9.30544
▁바보	-9.31283
▁부담	-9.31453
▁별	-9.31464
시군요	-9.31525
런	-9.31544
작	-9.31761
결	-9.31795
합	-9.31922
▁나랑	-9.31942
활	-9.31996
케	-9.3201
션	-9.3202
▁복잡하	-9.3202
▁후련하	-9.3202
▁보고싶어	-9.3202
▁최선	-9.3202
김	-9.3202
놔	-9.3202
론	-9.3202
죄	-9.3202
▁잊어버리	-9.3202
▁적극적	-9.32021
▁축하드려요	-9.32022
▁발표	-9.32023
▁커플	-9.32032
▁대학	-9.32058
▁화장실	-9.3207
▁본인	-9.32152
▁적어	-9.32212
▁해보는	-9.32375
▁주는	-9.32463
▁후회하지	-9.32675
▁분	-9.32731
▁일상	-9.32797
▁사과	-9.32818
▁달라지는	-9.33171
되는	-9.33184
나면	-9.33318
▁같	-9.3336
잠을	-9.33403
▁속이	-9.33629
▁타고	-9.33657
야할	-9.34089
▁원	-9.34113
기만	-9.34571
▁전남친	-9.34728
▁단	-9.34747
보고	-9.34916
좀	-9.34932
하려	-9.35231
먹고	-9.35241
▁연락하는	-9.35271
는거	-9.35394
▁발	-9.3543
글	-9.35781
돌	-9.35904
▁지났네	-9.35912
▁다음	-9.35924
▁감정이	-9.36018
▁그녀가	-9.36312
못한	-9.36526
놓	-9.36647
오면	-9.36834
▁선	-9.36846
▁성격이	-9.36922
느	-9.37165
었던	-9.37261
▁연락하면	-9.37335
▁사랑해	-9.37564
▁짝사랑하는	-9.37706
칠	-9.37804
▁만났	-9.37902
견	-9.37996
향	-9.38012
력	-9.3811
병	-9.38139
팅	-9.38141
레	-9.38156
▁자연스	-9.38158
▁기다릴	-9.38165
▁SNS	-9.38175
▁버텨	-9.38175
▁생겼어	-9.38175
▁존재	-9.38175
놈	-9.38175
▁비밀	-9.38178
▁부담스럽	-9.38181
▁현상	-9.38187
▁발전	-9.38211
▁바빠	-9.38235
▁축하해요	-9.38237
▁괜찮아질	-9.38253
▁어플	-9.38259
이라고	-9.38272
▁감사	-9.38301
▁상사	-9.38304
▁일주일	-9.38313
년째	-9.38322
▁받았어	-9.38373
▁만나면	-9.38392
▁확실	-9.38445
▁보러	-9.3849
▁헤어졌어	-9.38507
▁선물이	-9.38558
▁가야지	-9.38644
때도	-9.38679
▁이용	-9.38969
▁있으니까	-9.3906
▁심해	-9.39169
▁상황을	-9.39319
▁사랑하는데	-9.39337
겠지만	-9.39372
▁좋아할까	-9.39562
이라는	-9.3961
▁적응	-9.39836
▁나가	-9.40243
▁안하고	-9.40462
▁쉬는	-9.40607
감이	-9.4078
었다	-9.40844
▁버리	-9.40941
▁주말	-9.4114
▁학	-9.41215
▁좋겠지	-9.41734
▁생각하는	-9.42025
▁됐	-9.42395
▁놓아	-9.42425
밖에	-9.42673
▁사람에게	-9.42684
냈	-9.42751
더	-9.42864
착	-9.42881
불	-9.42955
▁꿈이	-9.42973
▁생각나네	-9.43063
▁있었	-9.43178
종	-9.43457
늘	-9.43531
돈	-9.43744
탈	-9.43754
▁안됐	-9.43811
시다	-9.43817
틀	-9.43905
▁응원	-9.43914
▁그사람	-9.4398
법	-9.4403
▁뒤	-9.4405
▁본	-9.44112
지면	-9.44253
경	-9.44268
▁돌	-9.44298
능	-9.44404
계	-9.44428
움	-9.44499
팔	-9.4455
해줄	-9.44567
▁이어	-9.4458
회	-9.44584
▁미워	-9.44615
새	-9.44617
출	-9.44622
▁비가	-9.44647
▁하다보	-9.44679
미	-9.44691
색	-9.4472
웠	-9.44721
례	-9.44725
▁괜찮다	-9.44735
▁부족한	-9.44735
▁붙잡고	-9.44735
▁오랜만에	-9.44735
▁존중	-9.44735
▁헤아리	-9.44735
땐	-9.44735
▁모아	-9.44735
▁적당히	-9.44735
▁헤어져야	-9.44735
▁마주치	-9.44735
▁도서관	-9.44735
▁착각	-9.44738
▁채워	-9.4474
▁새벽	-9.44745
▁질투	-9.44748
▁청소	-9.44749
▁취미	-9.44755
▁장거리	-9.44757
▁학원	-9.4476
▁휴식	-9.44767
▁돌아오	-9.44774
▁지나갈	-9.44794
▁동거	-9.44798
▁위로해	-9.44799
▁미래	-9.44803
▁용기내	-9.44823
▁답장	-9.44837
▁갈까	-9.4492
▁하는데	-9.45047
▁사실	-9.45071
▁어쩌지	-9.45097
▁이상해	-9.45217
너	-9.45336
못	-9.45436
▁저에게	-9.45491
▁괜찮아졌	-9.45617
▁듣고	-9.45636
▁여자친구와	-9.4568
▁행복한	-9.45717
2	-9.46184
▁배워	-9.46188
었으면	-9.46248
▁있고	-9.46267
하길	-9.46439
▁가능해	-9.4644
눈	-9.46472
▁여기	-9.46494
파	-9.46509
먹기	-9.46566
▁부분	-9.46587
▁이상형	-9.46593
휴	-9.46597
▁혼자만	-9.4673
▁언젠가	-9.47212
▁호감이	-9.47376
▁못하고	-9.47734
▁눈에	-9.4776
▁선택일	-9.48806
▁걸어	-9.48904
거니	-9.49003
▁보기	-9.49055
▁필요할	-9.4922
형	-9.49261
▁빼	-9.49634
수도	-9.49955
라는	-9.5003
▁등	-9.50307
변	-9.50632
드려	-9.50914
▁미	-9.50955
▁만남이	-9.51289
아서	-9.51307
머	-9.51419
체	-9.51477
▁식	-9.51653
찌	-9.51679
월	-9.5174
락	-9.5174
극	-9.51748
특	-9.51749
▁데려다	-9.51752
▁다이어트	-9.51754
▁무엇이	-9.51754
▁크리스마스	-9.51754
▁멋있	-9.51754
▁완벽	-9.51754
▁무서운	-9.51757
▁슬퍼	-9.51762
▁소화	-9.51776
▁결과	-9.51783
▁가능성	-9.51792
▁음식	-9.51793
▁한잔	-9.51803
▁결심	-9.5182
▁시원	-9.51849
▁따로	-9.51853
▁불러	-9.51857
▁친구들과	-9.5186
▁돌려	-9.51876
▁만났는데	-9.51905
▁눈치	-9.51969
▁결혼식	-9.5197
▁생각나는	-9.51971
▁지쳐	-9.52017
▁좋을텐데	-9.5202
▁안경	-9.52068
▁지쳤나	-9.52108
▁만드	-9.52115
▁좋아하나	-9.52159
▁피해	-9.5223
해야할지	-9.52356
▁행복하	-9.52415
▁마셔	-9.52449
▁의사	-9.52471
▁지워	-9.52481
복	-9.52651
▁기운	-9.52664
▁꿈에서	-9.52764
하러	-9.52821
▁어디서	-9.52857
▁사랑한다	-9.52859
▁소식이	-9.53025
▁종	-9.53118
개	-9.53348
한거	-9.5342
순	-9.53485
밥	-9.53582
건강에	-9.53642
▁쐬	-9.53954
전에	-9.54288
▁놓아주	-9.54327
▁만나자	-9.54415
▁당당하	-9.54744
▁폰	-9.54846
▁먹어	-9.55035
▁슬	-9.55134
▁안되	-9.55337
▁휴	-9.55484
키	-9.55568
▁보냈	-9.5567
하나봐	-9.55949
▁이야기해	-9.56046
▁온	-9.56066
▁양	-9.5619
▁되기	-9.56793
▁곳에	-9.56844
▁추억이	-9.56937
▁우	-9.56944
하거나	-9.5695
았어	-9.57206
▁이거	-9.57337
▁썸타는	-9.57349
▁연	-9.57545
▁매력	-9.57744
▁들어가	-9.57982
▁썸이	-9.58074
▁생각하지	-9.58223
▁친구로	-9.58431
으니	-9.58514
▁나온	-9.58726
▁다녀	-9.58799
있어	-9.58971
호	-9.59125
침	-9.59144
프	-9.59152
료	-9.59226
뻔	-9.59289
악	-9.59293
퍼	-9.59296
베	-9.59302
▁마스크	-9.59304
▁맞았	-9.59304
▁문득	-9.59304
▁벗어나	-9.59304
▁생겼네	-9.59304
▁심호흡	-9.59304
▁없애	-9.59304
▁연예인	-9.59304
▁평소	-9.59304
옴	-9.59304
▁기념일	-9.59304
류	-9.59304
▁목소리	-9.59304
▁그리워	-9.59305
거같아	-9.59309
▁떨어졌어	-9.59316
▁버스	-9.59322
▁우연	-9.59327
▁외로워	-9.59328
▁동물	-9.59332
▁원망	-9.59334
▁간절	-9.59337
▁분명	-9.59338
▁인형	-9.59343
줬으면	-9.59357
▁걱정돼	-9.59362
▁했습니다	-9.59365
▁연락처	-9.59376
카드	-9.59389
▁그랬	-9.5939
▁떨리	-9.594
▁치과	-9.59421
▁드시	-9.59423
▁헤어졌는데	-9.59508
▁한동안	-9.59528
해줘	-9.59554
▁인간	-9.59585
▁은근	-9.59673
▁그동안	-9.59721
▁걱정하지	-9.59726
▁것들	-9.59748
▁포기	-9.59802
▁크게	-9.59882
▁까먹	-9.59901
▁살까	-9.59943
▁없는데	-9.59974
▁인생이	-9.60211
▁있겠지	-9.60362
▁방학이	-9.60492
▁거울	-9.60527
▁어울리	-9.60553
▁다르겠지	-9.60578
거죠	-9.60725
▁뜻	-9.60803
▁못할	-9.60808
▁집에서	-9.60881
해야겠다	-9.60903
냐고	-9.61321
▁하셨	-9.61458
▁흘렀네	-9.61528
▁주고	-9.61578
▁미세먼지	-9.61684
이란	-9.61735
▁울어	-9.61885
유	-9.62183
▁남았	-9.62325
▁키	-9.62388
하겠네	-9.626
하는건	-9.62642
▁같다	-9.62654
▁싸우	-9.63116
입	-9.63225
하셨	-9.63258
▁웃어	-9.63309
▁집착	-9.63352
▁이해해	-9.63437
▁연락하지	-9.63452
▁주지	-9.63713
▁솔직하	-9.63738
남자	-9.63842
폰	-9.6397
코	-9.64043
▁이별에	-9.64121
곳	-9.64442
▁부모님이	-9.64486
▁드네	-9.64627
▁습관이	-9.64843
깊	-9.64883
▁시작해	-9.64966
▁잘해줘	-9.65063
▁키우	-9.65131
리기	-9.65276
같이	-9.65464
할게	-9.65472
▁돌아가	-9.65498
하다가	-9.6562
달째	-9.65881
▁되면	-9.6624
▁없겠	-9.66779
▁받았	-9.67207
방법	-9.67217
▁그렇지	-9.67268
줬어	-9.67283
었길	-9.67356
▁찾아가	-9.6739
님	-9.674
▁계획	-9.6747
▁나왔어	-9.67471
▁떠난	-9.67471
▁똑같은	-9.67471
▁보고싶다	-9.67471
▁생활	-9.67471
▁않으니	-9.67471
고싶은데	-9.67471
곰	-9.67471
둬	-9.67471
링	-9.67471
쓴	-9.67471
쪽	-9.67471
▁귀여워	-9.67471
▁긍정적	-9.67471
▁안타깝	-9.67471
토	-9.67471
▁클럽	-9.67474
▁음악	-9.67482
▁언제쯤	-9.67488
▁ᅲᅲ	-9.67489
▁사귄	-9.67491
▁바꿔	-9.67492
▁시계	-9.67495
▁진급	-9.67502
싸움	-9.67508
▁자유	-9.67521
▁꾸	-9.67535
▁역시	-9.67569
시키	-9.67598
차근	-9.67667
▁전부	-9.67688
어머	-9.67781
▁인상	-9.6786
▁결정이었을	-9.67879
▁전해	-9.67912
▁어떡하지	-9.67927
▁통보	-9.67971
▁지난	-9.68025
▁거절	-9.6814
▁됨	-9.68192
▁배우	-9.68225
▁의심	-9.68276
▁자리	-9.68282
▁참아	-9.68314
▁타는데	-9.68334
▁과정	-9.68365
▁저한테	-9.68483
▁궁금하네	-9.68493
▁있겠죠	-9.68617
▁주변에	-9.68638
▁되는데	-9.68792
년이	-9.68909
속에	-9.68932
▁있지만	-9.69011
▁차분	-9.69119
셨나봐	-9.6917
▁성격	-9.69176
▁휴가	-9.6925
▁사랑해서	-9.69319
▁이건	-9.69491
▁오해	-9.69674
어보고	-9.69995
▁회사에	-9.70013
▁다리	-9.70054
▁무시	-9.70193
▁그러게	-9.70419
▁좋아한다	-9.70431
▁내리	-9.70492
▁안와	-9.71125
▁심하	-9.71425
▁해줘	-9.71474
▁해야지	-9.71624
▁말할	-9.72077
▁증거	-9.72149
▁재미있	-9.72985
▁중인	-9.73047
셨	-9.73073
▁자세	-9.73585
▁몰랐	-9.73621
▁순	-9.74065
취	-9.74187
냈어	-9.74225
지내고	-9.74521
▁있네	-9.7458
느라	-9.74651
▁남을	-9.74817
▁처음에	-9.74994
▁방학	-9.74996
▁나올	-9.75083
▁냄새	-9.75103
▁필요하겠	-9.75272
▁입어	-9.75303
▁아는데	-9.75366
▁반대	-9.75455
뜨	-9.75718
녀	-9.75792
떨	-9.75802
▁안하는	-9.75889
록	-9.75919
▁사고	-9.75959
둘	-9.75982
▁남들	-9.76008
공	-9.76035
꾸	-9.76067
톡	-9.76077
▁좋았	-9.76086
티	-9.76098
역	-9.76127
애	-9.7615
투	-9.76162
맛	-9.76208
▁쓰레기	-9.76211
교	-9.76226
친구	-9.76264
졌으면	-9.76309
골	-9.7632
▁가능할	-9.76325
▁아름다	-9.76335
찬	-9.76361
철	-9.76364
▁끝난	-9.76364
▁냉장고	-9.76364
▁막말	-9.76364
▁믿음이	-9.76364
▁복잡한	-9.76364
▁시어머니	-9.76364
넌	-9.76364
하고싶어	-9.76364
육	-9.76364
▁이겨낼	-9.76364
▁집안일	-9.76364
▁이겨내	-9.76364
▁환승이별	-9.76365
▁현재	-9.76367
▁근처	-9.76367
▁알면서도	-9.76367
▁축구	-9.76369
▁스키	-9.76375
▁선톡	-9.76378
▁비교하	-9.76378
▁답답한	-9.76382
▁미친	-9.76387
▁추워	-9.76395
▁취향	-9.76395
▁조절	-9.76396
▁다녀오	-9.76401
▁온전	-9.76401
▁소원	-9.76413
선배	-9.76436
▁진실	-9.76451
볼	-9.76457
▁외로	-9.76462
▁예민한	-9.76462
겨울	-9.76464
대체	-9.76485
▁긴장	-9.76491
▁태도	-9.76492
▁미안해	-9.76508
▁피부	-9.76519
▁제발	-9.76521
조차	-9.76546
▁됐으면	-9.76591
▁친한	-9.76603
조건	-9.76608
▁상상	-9.76608
봤는데	-9.7661
▁개인	-9.76619
▁톡	-9.76635
따라	-9.76646
▁습관이에요	-9.76673
▁걸릴	-9.76686
▁관심사	-9.76733
▁중간	-9.76869
▁소문	-9.76928
▁많은데	-9.76948
▁짝사랑이	-9.77093
▁축하	-9.77179
▁내려놓	-9.77193
▁고통	-9.77311
한다면	-9.77333
▁안전	-9.77384
▁괜찮아지	-9.77607
▁행복하게	-9.77616
▁바라	-9.77802
▁늘어	-9.77888
▁챙겨드	-9.78223
▁힘들었을	-9.78231
▁쉬어가	-9.78294
▁궁금	-9.78471
▁피곤해	-9.7899
▁살기	-9.79024
건데	-9.79032
망이	-9.79158
▁고민하	-9.79228
▁성공하	-9.79332
▁모르겠	-9.79336
▁사귀어	-9.79662
▁지우	-9.79847
겠	-9.79986
▁찾아올	-9.80125
본	-9.80192
▁주말이	-9.80619
▁밖에	-9.80842
▁봄이	-9.80886
▁기본	-9.80911
▁알아보	-9.81769
이야기	-9.81851
▁썸타	-9.82038
▁맘에	-9.82572
▁여행가	-9.83143
▁있다는	-9.83226
▁알려	-9.83291
▁흘렀	-9.83292
▁부분이	-9.83518
들어	-9.83643
인듯	-9.83693
▁떨어	-9.83704
치고	-9.8381
▁통해	-9.83823
▁보니	-9.84033
▁마무리	-9.84107
▁없어서	-9.84352
빠	-9.84439
▁상대에	-9.8445
▁가야	-9.84569
▁알았	-9.84589
▁있으니	-9.85101
▁과정이	-9.85291
▁견디	-9.85517
행	-9.85682
포	-9.86006
충	-9.86084
언	-9.86087
량	-9.86099
짜	-9.86105
▁잊어야	-9.8611
떡	-9.86111
폭	-9.86117
채	-9.86118
페	-9.86122
염	-9.86124
끌	-9.86125
▁기분전환	-9.86126
▁누군가	-9.86126
▁느끼는	-9.86126
▁메뉴	-9.86126
▁아무렇지	-9.86126
▁청첩장	-9.86126
▁최고죠	-9.86126
▁페북	-9.86126
▁하루하루	-9.86126
▁휴대폰	-9.86126
껏	-9.86126
닉	-9.86126
푸	-9.86126
▁배고파	-9.86126
▁억지로	-9.86126
▁아까워	-9.86126
▁고마워	-9.86126
▁이별통보	-9.86127
▁산책	-9.86127
▁밀당	-9.86127
▁교회	-9.86129
▁목표	-9.8613
▁만나기로	-9.86131
▁힘든가봅니다	-9.86133
▁변명	-9.86133
▁맥주	-9.86136
▁불행	-9.86145
▁부럽네	-9.86145
▁부탁해	-9.86147
▁실망	-9.86152
▁향수	-9.86155
▁행운	-9.86157
▁보험	-9.86158
▁찾기	-9.86169
하겠습니다	-9.86169
치료	-9.86171
▁맛난	-9.86172
스럽	-9.86172
▁도와주	-9.86183
▁여전	-9.86185
▁필요하다면	-9.8619
▁아빠	-9.86197
▁걱정되겠	-9.86208
▁바꾸	-9.8623
▁집들이	-9.86243
▁야근	-9.86257
▁달달	-9.86269
▁이성으로	-9.86275
▁공시	-9.86285
▁깊은	-9.86311
▁할텐데	-9.86425
▁어린	-9.86475
▁지금처럼	-9.8653
▁사소	-9.86556
▁이불	-9.86577
▁때문이	-9.86604
▁글로	-9.86637
▁가능하	-9.86656
▁올라	-9.86697
▁선택이	-9.86715
해야겠지	-9.86743
▁사랑한다면	-9.86758
▁과거	-9.86759
▁헤어지자고	-9.86777
▁과일	-9.86869
▁부담스러워	-9.86937
▁없겠지	-9.86966
▁사정	-9.86982
▁빠지	-9.87131
영	-9.87192
▁걱정이	-9.87267
▁한달이	-9.87306
인거	-9.87343
▁사귀기	-9.87344
▁신나	-9.87403
▁신고하	-9.87468
▁더워	-9.87626
▁알면	-9.87856
▁배우는	-9.88132
있음	-9.88182
끔	-9.88212
▁잘못이	-9.88349
▁둘이	-9.88403
▁헤어지면	-9.88664
온다	-9.88748
인가요	-9.88861
▁힘들어서	-9.88918
▁오네	-9.88965
척	-9.88994
강	-9.89093
▁상처를	-9.89189
▁남아	-9.89349
▁들어와	-9.89392
▁이름이	-9.89431
▁자신만	-9.89464
년간	-9.89577
▁됐네	-9.8971
▁사람들에	-9.89894
연애	-9.89991
되면	-9.90023
▁궁금하	-9.90105
▁자신에	-9.90161
속	-9.90242
▁중요	-9.90297
또	-9.90314
었습니다	-9.90384
▁추천해	-9.90544
▁살아가	-9.90705
▁입을	-9.90822
▁어장	-9.91133
았는데	-9.91418
▁볼까	-9.91836
▁느껴	-9.92003
▁나눠보	-9.92058
야할까	-9.92268
▁타다	-9.92308
▁기다리면	-9.92309
▁표현해	-9.92404
▁남기	-9.92733
▁사야	-9.92879
▁맘이	-9.92977
▁행복할	-9.9335
▁몸에	-9.93744
준비	-9.93777
▁선생님	-9.93781
▁이상형이	-9.93931
▁타이밍이	-9.94003
올까	-9.94535
줘야	-9.94781
▁있겠	-9.95003
셨나	-9.95239
▁공부하	-9.95543
▁어울	-9.956
선이	-9.9587
만으로	-9.95893
와서	-9.95955
▁찾아오	-9.95987
▁태어	-9.96045
▁답답해	-9.96234
개월이	-9.96282
▁놀러가	-9.96327
필	-9.96513
▁헤어지자	-9.96598
하지만	-9.96601
쳤	-9.96749
꿀	-9.96846
▁차별	-9.9686
▁지나가	-9.9688
씨	-9.96885
빨	-9.96901
현	-9.96904
흘	-9.96908
탁	-9.96922
념	-9.96932
▁판단	-9.9694
판	-9.96941
▁sns	-9.96945
▁공무원	-9.96945
▁권태기	-9.96945
▁끝났어	-9.96945
▁나쁘지	-9.96945
▁빼빼로	-9.96945
▁스트레칭	-9.96945
▁재밌는	-9.96945
▁좋지만	-9.96945
▁최악	-9.96945
▁콩깍지	-9.96945
▁프로포즈	-9.96945
▁헤어질	-9.96945
값	-9.96945
널	-9.96945
둔	-9.96945
룩	-9.96945
릿	-9.96945
빛	-9.96945
액	-9.96945
짠	-9.96945
콩	-9.96945
탕	-9.96945
툰	-9.96945
9	-9.96945
▁드라마	-9.96945
패턴	-9.96945
▁그리움	-9.96945
▁허전하	-9.96945
▁차라리	-9.96945
▁고맙다	-9.96946
▁위로봇	-9.96946
▁일어났	-9.96946
▁깨끗	-9.9695
▁혹시	-9.9695
▁회원	-9.96952
▁명절	-9.9696
▁그것	-9.96966
▁심경	-9.9697
▁무너	-9.96971
▁만족	-9.96972
▁느려	-9.96972
▁투자	-9.96975
▁골라	-9.96975
▁쓸데	-9.96995
▁기다렸	-9.96995
▁전환	-9.96996
▁각자	-9.97001
▁다음부터	-9.97003
▁전공	-9.97016
▁신청	-9.97024
▁소비	-9.97041
줬는데	-9.97047
▁두번	-9.97058
▁달라진	-9.97066
▁과식	-9.97079
▁생각에	-9.97144
▁들었어	-9.97157
▁고백하는	-9.97204
▁의외	-9.97232
▁지칠	-9.97294
▁먹을까	-9.97305
보이네	-9.97352
▁그녀에게	-9.9736
▁별거	-9.97381
▁상태	-9.97397
▁정상	-9.97435
▁않는데	-9.97436
▁공감	-9.97477
▁줄여	-9.97486
▁주말에	-9.97504
▁연애에	-9.97535
▁극복할	-9.97583
▁아프지	-9.97645
▁이성	-9.97784
▁표현하는	-9.97809
▁챙겨주	-9.97815
▁헤어지는	-9.98075
속에서	-9.98114
▁안되겠지	-9.98263
▁가능한	-9.98312
▁생각한	-9.98356
▁흔들리지	-9.98376
▁따뜻하	-9.9863
▁이러	-9.98828
▁말까	-9.98986
▁사람이니까	-9.98999
▁남자랑	-9.99089
문이	-9.99146
▁직접적	-9.99177
▁나을까	-9.993
리면	-9.99415
▁결혼할	-9.99491
▁아니야	-9.99505
▁일하는	-9.99559
▁남사친이	-9.99743
▁애들	-9.99763
▁같지	-9.99802
▁표현이	-9.99837
▁순간이	-9.99872
▁타이밍	-9.99976
▁떨어지	-10.0007
▁상대방에	-10.001
▁고치	-10.0027
▁차리	-10.0032
해보고	-10.0059
이니	-10.0071
▁가족이	-10.0106
▁혼자서	-10.0131
▁그럴까	-10.0152
▁못해요	-10.0165
▁썸인가	-10.0186
▁계절이	-10.0222
▁집착하	-10.0252
▁바라는	-10.0253
▁이해가	-10.0259
년의	-10.0261
▁소식	-10.0272
▁마음으로	-10.0293
▁기본이	-10.0317
▁없을까	-10.034
▁무시하	-10.0356
▁싸우면	-10.0365
▁능력	-10.0373
▁사이에	-10.0378
▁슬프네	-10.0414
진다	-10.0415
나의	-10.0435
▁알려주	-10.0446
▁반지	-10.0476
▁지치	-10.0498
됐	-10.0507
해졌	-10.0524
▁사랑했	-10.0547
▁당황	-10.0563
▁준비하는	-10.0565
하긴	-10.0569
참	-10.0577
▁사람인가	-10.059
4	-10.0615
정리를	-10.0619
몸	-10.0619
관계	-10.0623
▁솔직	-10.0637
인가봅니다	-10.0683
▁노력하는	-10.0693
께	-10.0708
▁못했	-10.0713
도시	-10.0775
▁반복	-10.0778
▁길어	-10.0779
▁영원	-10.0788
커	-10.0789
▁당연	-10.0815
▁생각하면	-10.0829
▁어떡하	-10.0841
▁어쩌	-10.0841
▁우선	-10.085
노	-10.0857
▁짜증	-10.0876
되겠	-10.0879
▁싫어하는	-10.0884
▁미안	-10.089
민	-10.0891
환	-10.0895
▁시원하	-10.0898
봅	-10.0898
겁	-10.0899
품	-10.0903
벽	-10.0906
스러운	-10.0906
궁	-10.0907
석	-10.0907
클	-10.0907
찰	-10.0907
▁놀랐	-10.0908
▁앞머리	-10.0908
▁어렵네	-10.0908
▁우선순위	-10.0908
▁잊는다는	-10.0908
▁자괴감	-10.0908
꼼	-10.0908
빵	-10.0908
왤	-10.0908
콜	-10.0908
푼	-10.0908
▁의미부여	-10.0908
▁잠수이별	-10.0908
▁핑계	-10.0908
▁경쟁	-10.0908
▁노후	-10.0908
▁빠르	-10.0908
▁피곤한	-10.0908
▁이기적인	-10.0908
▁가치관	-10.0908
▁센스	-10.0908
▁특별	-10.0909
▁답답할	-10.0909
▁외로움	-10.0909
▁점심시간	-10.0909
▁나아졌	-10.0909
▁흘러	-10.0909
▁까먹었다	-10.0909
▁버릴	-10.0909
▁언니	-10.091
▁성별	-10.091
▁싸웠	-10.091
▁태어난	-10.091
▁미치	-10.091
▁단계	-10.091
▁매너	-10.091
▁친해지는	-10.091
▁솔로	-10.0911
▁다양하	-10.0912
▁단단	-10.0912
교통	-10.0912
▁떨어져	-10.0913
▁물리적	-10.0913
▁나아질	-10.0914
▁싸워	-10.0915
▁허리	-10.0915
처리	-10.0917
▁공통	-10.0917
▁서운하	-10.0918
▁잘못된	-10.0918
▁이루어	-10.0921
▁에휴	-10.0924
▁주식	-10.0924
▁먼지	-10.0925
▁작아	-10.0926
▁중국어	-10.0929
▁되었습니다	-10.093
▁화내	-10.0931
▁기원	-10.0931
▁거기까지인	-10.0936
▁잠수	-10.094
▁좋아해주는	-10.094
▁가족들	-10.0941
▁심리	-10.0944
야하나	-10.0944
▁들여	-10.0946
영상	-10.0948
▁고쳐	-10.0949
▁용서	-10.0952
▁중입니다	-10.0954
▁누구에게	-10.0959
우는	-10.096
▁성공할	-10.0961
▁유지하	-10.0969
테니	-10.0971
▁부자	-10.0973
▁해야할까	-10.0978
▁위기	-10.0986
▁참는	-10.0987
▁이러지	-10.0987
▁사람만	-10.0994
밀어	-10.1001
▁생각했나봐	-10.1004
▁새해	-10.1005
▁연락오	-10.1007
있다	-10.1011
▁여사친이	-10.1017
▁생각했는데	-10.1018
바이	-10.1021
▁이직	-10.1022
▁찍어	-10.1027
치기	-10.1033
▁아니지만	-10.1033
▁사랑했나봐	-10.1039
▁여자친구에게	-10.1042
▁예민해	-10.1046
▁달라지	-10.1047
▁잘못인	-10.1052
▁답이	-10.1056
▁안부	-10.1078
학기	-10.1083
▁사라	-10.1084
마시면	-10.1084
▁아침이	-10.1097
▁바다	-10.1102
▁거기까지였	-10.1104
▁알았어	-10.1105
▁있었을	-10.1106
성적이	-10.1138
▁살았	-10.115
▁속도	-10.1155
지마	-10.1158
▁애매하	-10.1162
▁운명이	-10.1166
▁지진	-10.1176
▁경험이	-10.1224
▁늦은	-10.1225
▁파도	-10.1235
▁말해주	-10.1246
▁선생님이	-10.1277
▁가사	-10.1348
▁슬프	-10.1351
▁나에게	-10.1359
▁위험	-10.141
▁가까	-10.1411
보이는	-10.1415
것만	-10.1435
▁우울해	-10.1465
▁정확	-10.1468
▁사귀면	-10.149
▁어찌	-10.1543
▁포기하	-10.1559
이었으면	-10.156
만한	-10.1568
▁돌아올	-10.1588
▁피곤	-10.1676
함이	-10.1703
▁좋아하지	-10.1736
▁올해	-10.1767
▁아니니	-10.1787
일만	-10.1878
하는거	-10.1892
▁같아서	-10.1923
있을까	-10.1954
▁지내는	-10.2016
▁가는데	-10.2031
▁당연하	-10.2081
우면	-10.2084
▁면도	-10.2105
여행이	-10.2133
▁받아야	-10.2146
▁기간	-10.2148
▁결혼해야	-10.2156
▁어떨까	-10.2165
▁야경	-10.2191
타기	-10.2203
▁장소	-10.2218
▁의지	-10.2218
▁여기까지	-10.2228
줬	-10.2235
▁지쳤	-10.2242
▁일에	-10.2246
찾	-10.2257
태	-10.2258
처	-10.2261
낸	-10.2269
먼	-10.2269
▁받아들여	-10.2275
▁잊혀질	-10.2282
쯤	-10.2284
곤	-10.2284
왕	-10.2288
쟁	-10.2288
▁접어두	-10.2289
템	-10.2289
▁사회생활	-10.2289
▁인스타	-10.2289
▁간접적	-10.2289
▁끝났네	-10.2289
▁동호회	-10.2289
▁두려움	-10.2289
▁봉사활동	-10.2289
▁생긴다	-10.2289
▁유효기간	-10.2289
▁자존심	-10.2289
▁취미생활	-10.2289
▁힘드신가	-10.2289
꽤	-10.2289
닥	-10.2289
딩	-10.2289
쩍	-10.2289
▁움직이	-10.2289
▁정신차리	-10.2289
▁조급해	-10.2289
버렸어	-10.2289
▁무기력	-10.2289
케이스	-10.2289
▁제자리	-10.2289
▁보일러	-10.2289
▁에너지	-10.2289
▁흥미	-10.2289
▁마셔야지	-10.2289
▁차가워	-10.2289
▁인턴	-10.2289
▁회복	-10.2289
▁표정	-10.2289
▁이어나가는	-10.2289
▁제주도	-10.2289
▁아깝	-10.2289
▁발목	-10.229
▁외롭	-10.229
▁성향	-10.229
▁축복	-10.229
해도될까	-10.229
센터	-10.229
▁연속	-10.229
▁회식	-10.229
▁빠져	-10.229
▁포장	-10.2291
▁절약	-10.2291
▁통화	-10.2291
▁반응	-10.2291
▁두셨	-10.2292
▁두근거리겠	-10.2293
▁15	-10.2293
▁여름	-10.2293
▁도와줘	-10.2293
▁때문일	-10.2293
▁유학	-10.2293
▁침대	-10.2294
▁문신	-10.2294
▁어필해	-10.2294
▁대출	-10.2294
▁맛집	-10.2295
하셔야	-10.2296
▁여우	-10.2296
▁실내	-10.2296
▁대단하	-10.2297
놓으	-10.2297
▁애교	-10.2299
▁의욕	-10.2299
개월째	-10.2299
▁코스	-10.2302
▁참견	-10.2302
▁세워	-10.2302
▁지갑	-10.2304
▁배우자	-10.2304
더라구	-10.2304
▁신중	-10.2306
▁호의	-10.2307
▁쳐다	-10.2308
▁찾는	-10.2308
▁받아들이기	-10.2308
▁심장	-10.2309
▁빠를	-10.2309
▁당했어	-10.231
▁좋았는데	-10.231
렸나봐	-10.231
하며	-10.2311
▁기준	-10.2312
▁착한	-10.2312
▁정리될	-10.2312
▁비난	-10.2312
▁말투	-10.2313
려나	-10.2314
▁놓치	-10.2317
▁좋아하시	-10.2318
▁남겨	-10.2318
▁예감	-10.2319
▁인내	-10.232
▁안되네	-10.2331
▁시선	-10.2332
▁노는	-10.2334
▁반장	-10.2337
▁솔직한	-10.2337
▁나가야	-10.2338
▁말해볼까	-10.2338
▁일들이	-10.2339
욕	-10.2341
▁길러	-10.2346
▁이미	-10.2352
▁하루에도	-10.2352
▁좋아했는데	-10.2355
▁사내	-10.2365
구나	-10.2367
▁놀러가고	-10.2369
▁들리	-10.237
갑니다	-10.2376
이라니	-10.2377
▁걸음	-10.2388
▁먹어보세요	-10.2393
▁큰일	-10.2401
▁아프다	-10.2404
설	-10.2406
▁지금보다	-10.2417
▁고백해도	-10.242
보내는	-10.2427
▁가능할까	-10.244
▁지울	-10.2444
▁어려	-10.2446
▁마셨	-10.2446
▁주기	-10.2447
부르	-10.2452
▁결정할	-10.2457
아주	-10.2465
▁결혼하면	-10.2466
▁포기하는	-10.2473
은연	-10.2474
깨	-10.2479
▁상의	-10.2481
▁봐서	-10.2491
맘	-10.2492
잔	-10.2492
▁무시하는	-10.2494
시나	-10.2504
▁생각날	-10.2507
▁나가기	-10.2513
▁피곤하	-10.2514
▁말라고	-10.2514
조심	-10.2526
넘	-10.2526
▁기간이	-10.2529
▁알기	-10.2529
1	-10.253
시켜	-10.2536
오려나	-10.2543
밤	-10.2546
노래	-10.2563
드려요	-10.2565
▁바라지	-10.2569
이란게	-10.2578
등	-10.2587
참고	-10.2592
아지	-10.2595
▁삭제하는	-10.2608
▁생각할까	-10.2624
▁지났	-10.2649
▁후에	-10.2655
심한	-10.2669
넘어	-10.2676
줄게	-10.2688
▁옷이	-10.2705
▁성장	-10.2732
▁돌리	-10.2787
▁재미있어	-10.281
▁나보다	-10.2819
복이	-10.2833
▁나아	-10.2884
▁보여주	-10.2891
▁있었어	-10.2921
▁말하지	-10.2929
해질	-10.2955
▁버려야	-10.2965
▁고르	-10.2991
▁후회해	-10.302
되어	-10.3037
▁얼굴이	-10.3043
로부터	-10.3077
▁연락하	-10.3091
▁전남친이	-10.3142
▁기다리지	-10.3179
▁진심이	-10.3193
있기	-10.3206
해주지	-10.3215
수건	-10.322
거겠지	-10.3231
▁늦어	-10.3273
▁아닌가봐	-10.329
▁물어보면	-10.3303
같았	-10.3386
밖	-10.3424
▁이름	-10.3443
끔하	-10.3492
▁삭제하	-10.3529
겠습니다	-10.3548
▁차분하	-10.3576
▁애매	-10.358
는것	-10.3592
였나봐	-10.3621
해줄까	-10.3625
들면	-10.3668
▁흔들리	-10.3677
▁해드	-10.3695
▁건들	-10.3704
▁도전해	-10.3761
▁세상이	-10.3774
▁나타	-10.3803
쁜	-10.3851
해야하는	-10.3853
▁받아들이	-10.3858
랬	-10.3872
확	-10.3882
탄	-10.3884
랐	-10.3888
센	-10.3889
으신가	-10.389
브	-10.3891
흥	-10.3891
블	-10.3891
잼	-10.3891
햇	-10.3891
▁보이스피싱	-10.3891
▁부딪혔	-10.3891
범	-10.3891
탔	-10.3891
s	-10.3891
▁결혼적령기	-10.3891
▁고쳐쓰는	-10.3891
▁끝났으면	-10.3891
▁노트북	-10.3891
▁동생이	-10.3891
▁모른척	-10.3891
▁모자라	-10.3891
▁뭐하냐	-10.3891
▁발렌타인데이	-10.3891
▁불공평해	-10.3891
▁불편해	-10.3891
▁스터디	-10.3891
▁아름답	-10.3891
▁아쉬움	-10.3891
▁어젯밤	-10.3891
▁여드름	-10.3891
▁이벤트	-10.3891
▁익숙해질	-10.3891
▁잠재력	-10.3891
▁찜질방	-10.3891
▁출퇴근	-10.3891
▁택시비	-10.3891
▁퇴근길	-10.3891
▁헬스장에	-10.3891
▁현금영수증	-10.3891
▁화이트데이	-10.3891
▁후유증이	-10.3891
동생한테	-10.3891
베터리	-10.3891
즈	-10.3891
쪄	-10.3891
춰	-10.3891
팩	-10.3891
▁깨달음	-10.3891
▁짜장면	-10.3891
뒀	-10.3891
▁기울여	-10.3891
▁단둘이	-10.3891
▁넘었네	-10.3891
▁잇몸	-10.3891
▁지겨워	-10.3891
▁어색해	-10.3891
▁이별했습니다	-10.3891
▁즐겁	-10.3891
▁월요일	-10.3891
▁일어날	-10.3892
▁반가워	-10.3892
▁안경테	-10.3892
▁염색	-10.3892
으려면	-10.3892
▁필름	-10.3892
▁기울이	-10.3892
▁데려가	-10.3892
▁버티	-10.3892
▁로봇	-10.3892
▁교양	-10.3892
▁치열	-10.3892
▁표시	-10.3892
▁소개시켜	-10.3892
▁걱정된다	-10.3892
▁누굴	-10.3893
▁성숙	-10.3893
▁개강	-10.3893
▁분노	-10.3893
▁치유	-10.3893
▁해주고	-10.3893
▁차갑	-10.3894
▁간사하	-10.3895
▁시간표	-10.3895
▁흘려	-10.3895
▁꺼내	-10.3895
▁소유	-10.3895
▁금연	-10.3896
▁증오	-10.3896
▁행복해보여	-10.3896
▁순간이었	-10.3896
버림	-10.3896
▁영화관	-10.3897
▁아름다워	-10.3897
▁부담스러운	-10.3898
▁일요일	-10.3898
▁망했어	-10.3898
지긋	-10.3901
▁조용	-10.3901
공원	-10.3901
▁동성	-10.3902
▁답답하네	-10.3902
탈출	-10.3904
▁속상해	-10.3905
▁달라져	-10.3905
라는게	-10.3905
▁아님	-10.3906
구경	-10.3906
▁책임	-10.3906
▁대우	-10.3906
▁연락해보는	-10.3907
▁해주면	-10.3908
▁대답	-10.3908
▁한강	-10.3909
▁장점	-10.391
▁먹었는데	-10.3911
▁남았나봐	-10.3911
▁성공적	-10.3911
▁우정	-10.3912
▁아물	-10.3914
▁추운	-10.3914
▁있으신	-10.3915
▁부부	-10.3916
▁알아차	-10.3924
해줘서	-10.3927
▁행복해질	-10.3927
▁걸리겠	-10.3928
▁건조	-10.3928
▁보답	-10.3933
▁집착해	-10.3934
▁부드	-10.3936
▁언제까지	-10.3936
▁빠졌	-10.394
단점	-10.3942
▁웃으면	-10.3944
▁소주	-10.3946
▁점심	-10.3946
▁뒤에서	-10.395
▁익숙해지지	-10.395
▁맛있어요	-10.3951
▁안되는데	-10.3952
▁바디	-10.3955
▁느낌이야	-10.3956
▁수영	-10.3956
▁좋으시	-10.3957
아파트	-10.3957
▁언제든	-10.3957
맥이	-10.396
▁일년	-10.3966
▁아닌거	-10.3989
▁그저	-10.3989
보며	-10.3992
▁애정	-10.3997
▁분들	-10.3997
인걸까	-10.4003
▁안되나	-10.4003
▁불안해	-10.4004
▁야경이	-10.4018
짐에	-10.402
▁힘든데	-10.4023
▁돌아가고	-10.4024
▁태어나	-10.4036
▁들어줄	-10.4046
▁위해서	-10.405
해준	-10.4052
▁나아지	-10.4054
▁영원한	-10.406
번호를	-10.4069
▁그만하고	-10.4069
▁이해할	-10.4069
▁사수	-10.4072
▁여자와	-10.4086
▁살려	-10.4086
▁여자친구한테	-10.4086
놓지	-10.4087
일차	-10.4088
▁마음이라	-10.409
▁될거예요	-10.4104
양해	-10.4123
▁나한테만	-10.4129
▁다가오	-10.4134
▁느껴지	-10.414
▁속은	-10.4145
▁변해	-10.4153
▁걸려	-10.4154
▁고장	-10.4164
▁하루에	-10.4188
하려는	-10.4191
▁되겠지	-10.4198
▁위험해	-10.4212
▁물어보고	-10.4236
▁밤에	-10.4249
▁진지	-10.4258
▁가치	-10.426
▁정의	-10.4265
▁그만두	-10.4276
▁가야겠	-10.4284
▁그럴만	-10.4306
▁때려	-10.4311
▁전기	-10.4313
▁질리	-10.4319
▁영화보	-10.4337
▁애기	-10.4342
▁하지마	-10.4355
▁말아야	-10.4424
▁몰랐어	-10.4425
▁관심있	-10.448
▁연애하는	-10.4482
▁다르겠	-10.4484
해야하나	-10.4487
형이	-10.4496
▁말해줘	-10.4584
▁잘해주	-10.4586
▁사랑한다는	-10.4651
▁칭찬해주	-10.4688
▁된다	-10.4696
▁못자	-10.4731
오니까	-10.4812
말은	-10.4825
▁바르	-10.484
갑	-10.4844
매일	-10.4859
듣	-10.4867
▁잘지내	-10.4871
웃	-10.4871
스타일	-10.4874
옷	-10.4876
슬	-10.4878
5	-10.4879
▁그때	-10.4885
3	-10.4899
데이트	-10.49
열	-10.4926
▁정확하	-10.4953
오래	-10.4959
▁어장인	-10.4973
▁못하겠	-10.5003
▁사귀자	-10.5048
▁웃는	-10.5064
▁살다	-10.5087
▁사랑하는지	-10.5113
▁다가가는	-10.5126
▁식었	-10.5196
▁울적	-10.5241
▁경험	-10.5286
잘	-10.5318
▁잘해주는	-10.5347
▁거기까지	-10.5445
▁축하해주	-10.5599
▁불안	-10.5611
▁성적	-10.5622
▁사나	-10.5633
▁감성	-10.5635
나가는	-10.5648
▁만나보	-10.5655
▁정리되	-10.5676
셔야	-10.5677
▁심심	-10.5679
안할	-10.5688
▁아니었나	-10.5694
▁익숙해지	-10.573
▁그분에	-10.5734
▁받아들	-10.5739
▁일부	-10.5754
▁받아들여야	-10.576
켜	-10.5774
▁필요한가봐	-10.5789
험	-10.579
껴	-10.5793
축	-10.5794
솔	-10.5794
응	-10.5794
낭비	-10.5796
굴	-10.5799
스러워	-10.5799
롱	-10.58
농	-10.58
핑	-10.58
렀	-10.58
▁새출발	-10.58
▁견뎌내	-10.58
▁공허함이	-10.58
▁귀찮은	-10.58
▁금수저	-10.58
▁기프트콘	-10.58
▁놀이동산	-10.58
▁당분간	-10.58
▁뒷담화	-10.58
▁들어왔어	-10.58
▁마주쳐	-10.58
▁마침표	-10.58
▁머리카락	-10.58
▁멀어진	-10.58
▁바뀌어	-10.58
▁보고싶네	-10.58
▁비슷한	-10.58
▁사생활	-10.58
▁생리통	-10.58
▁서툴러	-10.58
▁섬유유연제	-10.58
▁수학여행	-10.58
▁신혼여행	-10.58
▁아이스크림	-10.58
▁안좋아	-10.58
▁애정표현	-10.58
▁얘기해	-10.58
▁어쩔수	-10.58
▁오락가락	-10.58
▁유부남	-10.58
▁잃어버렸어	-10.58
▁잊으려고	-10.58
▁재밌다	-10.58
▁재밌어	-10.58
▁좋으련만	-10.58
▁첫인상	-10.58
▁축의금	-10.58
▁컴퓨터	-10.58
▁트라우마	-10.58
▁편안하	-10.58
▁허전한	-10.58
▁흐르는	-10.58
▁흑역사	-10.58
겟	-10.58
궈	-10.58
꾼	-10.58
낳	-10.58
댈	-10.58
드립니다	-10.58
릅	-10.58
밟	-10.58
벅	-10.58
볶	-10.58
빈	-10.58
욱	-10.58
윗	-10.58
쫌	-10.58
찐	-10.58
틈	-10.58
팍	-10.58
힌	-10.58
▁갑작스럽	-10.58
▁배터리	-10.58
▁스타트업	-10.58
▁지하철에	-10.58
닝	-10.58
술한잔	-10.58
▁연락두절	-10.58
▁염탐하	-10.58
S	-10.58
▁마실까	-10.58
▁배고프	-10.58
▁불면증	-10.58
▁호칭	-10.58
▁달려있	-10.58
▁서류에서	-10.58
외국어	-10.58
▁무관심	-10.58
▁기다림	-10.58
▁소심해	-10.58
▁무거워	-10.58
▁드라이	-10.58
▁쟁취하	-10.58
▁더러워	-10.58
▁비하하지	-10.58
▁무의식	-10.5801
▁고마운	-10.5801
▁그리울	-10.5801
▁마음정리	-10.5801
▁필요했을	-10.5801
▁농담	-10.5801
▁사겨도	-10.5801
▁미치겠습니다	-10.5801
▁왕따	-10.5801
▁스테	-10.5801
▁떨쳐	-10.5801
▁서운해	-10.5801
▁원인이	-10.5801
▁그리운	-10.5801
▁무색하	-10.5801
▁포근	-10.5801
▁축제	-10.5801
▁감싸	-10.5801
▁추석	-10.5801
프로필	-10.5801
▁아니었을	-10.5802
▁도와드	-10.5802
▁성형	-10.5802
▁간단하	-10.5802
▁문화	-10.5802
▁늦잠	-10.5802
▁빠른	-10.5802
▁어리게	-10.5803
▁줄어들	-10.5803
▁미치겠어	-10.5803
▁망했다	-10.5803
▁빨래	-10.5803
▁경제	-10.5804
▁대단	-10.5804
▁따듯	-10.5804
▁단호	-10.5804
▁단순	-10.5804
▁등산	-10.5804
▁뻔했어	-10.5804
▁반갑	-10.5804
▁노려	-10.5804
▁먹어야겠다	-10.5805
▁취직할	-10.5806
▁좋아해줬으면	-10.5806
▁취직하	-10.5806
▁커피향	-10.5806
테리	-10.5807
▁짜증날	-10.5808
▁양말	-10.5808
▁분담	-10.5808
▁인공	-10.5808
▁느껴져	-10.5809
▁추천해줘	-10.5809
미팅	-10.5809
활용	-10.5809
▁어떨	-10.5809
▁웃겨	-10.5809
따르	-10.5809
▁붙여	-10.581
▁놀아줘	-10.581
▁키워	-10.581
▁천재	-10.5811
▁나가볼까	-10.5811
▁준비하느	-10.5811
▁사라질	-10.5811
▁치워	-10.5811
▁방식	-10.5811
▁배울	-10.5812
▁망상	-10.5813
▁자취	-10.5813
▁말해보는	-10.5813
▁한숨만	-10.5814
▁전역	-10.5814
▁부담스러워할까	-10.5815
▁참았어	-10.5816
▁후배	-10.5817
▁나누	-10.5818
▁통장	-10.5818
▁동감	-10.5818
▁같음	-10.582
▁계기	-10.582
▁티내	-10.5821
▁향기	-10.5821
▁찾아온	-10.5822
▁운전	-10.5825
▁만들었어	-10.5825
▁정답	-10.5825
감각	-10.5826
▁신경쓰여	-10.5826
▁전세	-10.583
▁차였	-10.583
세우	-10.583
▁변한	-10.5831
▁해야돼	-10.5831
키울	-10.5832
▁좋았으면	-10.5833
▁한계	-10.5833
▁목적	-10.5834
플라	-10.5834
▁쓰레기야	-10.5835
▁지나간	-10.5835
▁마주하	-10.5838
▁욕심	-10.5838
▁차별해	-10.5838
▁좋을거	-10.5839
▁질질	-10.5845
▁정신적	-10.5846
▁미워하지	-10.5848
▁든든	-10.5849
▁지키	-10.5853
▁무리하	-10.5853
▁이별이란	-10.5854
▁궁금할	-10.5855
▁자다가	-10.5857
▁팔아	-10.5858
▁준비중	-10.5858
다녀와	-10.5863
▁행복할까	-10.5864
갈수록	-10.5867
▁못난	-10.587
▁별로야	-10.5871
▁확인하는	-10.5872
▁중요한데	-10.5875
▁사냐	-10.5879
▁치매	-10.5882
▁아마	-10.5889
는구나	-10.5895
▁시작하기	-10.5895
▁보자고	-10.5896
▁들려	-10.5899
▁결정이었	-10.5901
▁여기까지였	-10.5902
▁많은걸	-10.5904
질러	-10.5906
▁있었는데	-10.5907
▁반년	-10.5912
코인	-10.5916
▁슬프게	-10.5922
▁헤어지기	-10.5927
▁되시	-10.5934
▁연락했는데	-10.5936
▁연애하는데	-10.5938
▁지우고	-10.5939
▁사야지	-10.5939
▁주말이네	-10.5943
▁남자한테	-10.5946
▁고치고	-10.595
▁심심해	-10.5962
▁말해봐	-10.5966
▁즐기면	-10.5991
▁수준	-10.5997
▁일정	-10.601
셨어	-10.6013
▁당한	-10.6018
▁나타나	-10.6036
▁무덤덤해지	-10.6038
▁응원해	-10.6059
부려	-10.6061
틀어	-10.6062
▁사랑하나	-10.6074
▁많았나	-10.6087
▁들으면	-10.6116
▁뒤에	-10.6116
▁충전기	-10.6131
▁타나	-10.6151
▁구분	-10.6157
▁나온다	-10.6166
▁머릿속	-10.6174
▁바꿀까	-10.6175
▁확실해	-10.6188
▁친해	-10.6191
못했던	-10.621
전과	-10.6246
▁이어주	-10.6268
▁당연한	-10.6268
사람에게	-10.6281
▁봤네	-10.6321
친구와	-10.6335
▁바보같	-10.6368
되었길	-10.6383
▁당황했	-10.639
▁시간이겠	-10.6394
▁울적해	-10.6415
▁깊었	-10.643
아는데도	-10.6447
▁운명인가	-10.6467
하셨나	-10.6482
▁드릴	-10.6513
▁포기해야	-10.6521
▁갖자	-10.6558
안오	-10.6559
▁재미있는	-10.6559
해야겠네	-10.6562
이었나	-10.6613
▁의지해	-10.6726
사귀다	-10.6733
▁힘들까	-10.6745
▁나눠보는	-10.6768
▁위험하	-10.6769
▁아껴주	-10.6799
▁힘드시겠	-10.7028
▁아껴	-10.7034
계절	-10.7036
우니까	-10.705
보였	-10.7084
▁표현해보	-10.7149
▁들어올	-10.716
해본	-10.7294
▁준다	-10.7295
▁올려달	-10.7306
▁확실하	-10.7443
▁인연이었	-10.7477
졌다	-10.7592
▁배워보	-10.7631
▁바꿀	-10.7728
▁취해	-10.7735
▁남자분들	-10.7757
▁받아보	-10.7785
▁무덤덤해	-10.7868
손	-10.7901
▁부담스러워하	-10.7938
됨	-10.7939
뒤	-10.7951
목	-10.7961
잠	-10.7965
쉬	-10.7969
꿈	-10.7971
때문에	-10.7987
선물	-10.8003
▁입으	-10.8016
맥	-10.8052
▁상태인	-10.806
▁들으	-10.8063
▁화가나	-10.8118
족	-10.8122
루	-10.8126
▁올랐	-10.8135
압	-10.8141
즐	-10.8143
백	-10.8143
▁중국	-10.8147
▁먹어야	-10.8149
▁제안	-10.8149
▁속상	-10.8153
펴	-10.8155
황	-10.8157
정규직	-10.8157
▁진행	-10.8161
▁갑작스러	-10.8161
세포	-10.8161
십	-10.8161
딛	-10.8161
▁객관적	-10.8161
▁건강습관이	-10.8161
▁교양수업	-10.8161
▁망설여	-10.8161
▁미용실	-10.8161
▁브랜드	-10.8161
▁익숙해져	-10.8161
▁인터넷	-10.8161
▁제자리걸음	-10.8161
▁편의점	-10.8161
봉	-10.8161
팬	-10.8161
a	-10.8161
▁귀찮다	-10.8161
▁끝났습니다	-10.8161
▁다녀왔어	-10.8161
▁뒷감당	-10.8161
▁떨린다	-10.8161
▁똑같아	-10.8161
▁똑같애	-10.8161
▁뛰어넘	-10.8161
▁마주쳤	-10.8161
▁맞춤법	-10.8161
▁무뎌질	-10.8161
▁무한리필	-10.8161
▁보름달	-10.8161
▁부탁드립니다	-10.8161
▁불편하겠	-10.8161
▁붙잡는	-10.8161
▁빈자리	-10.8161
▁사춘기	-10.8161
▁선풍기	-10.8161
▁성덕이	-10.8161
▁셀프웨딩	-10.8161
▁소액결제	-10.8161
▁수면양말	-10.8161
▁식습관	-10.8161
▁아울렛	-10.8161
▁애프터	-10.8161
▁어렸을때	-10.8161
▁엄마아빠	-10.8161
▁외국인	-10.8161
▁원동력이	-10.8161
▁유부녀	-10.8161
▁이모티콘	-10.8161
▁입냄새	-10.8161
▁잊어가는	-10.8161
▁재미없어	-10.8161
▁주름살	-10.8161
▁층간소음	-10.8161
▁피부관리	-10.8161
▁하우스웨딩	-10.8161
▁허무하네	-10.8161
▁허전함	-10.8161
▁훔쳐보	-10.8161
껄	-10.8161
낀	-10.8161
놨	-10.8161
떼	-10.8161
빙	-10.8161
싹	-10.8161
쎄	-10.8161
엠	-10.8161
왠	-10.8161
짚	-10.8161
쭉	-10.8161
촉	-10.8161
팁	-10.8161
팸	-10.8161
펑	-10.8161
풋	-10.8161
힐	-10.8161
▁레시피	-10.8161
▁부족해	-10.8161
▁아쉬운	-10.8161
▁허전할	-10.8161
▁비정상이	-10.8161
▁어리석	-10.8161
▁찢어지	-10.8161
▁한순간	-10.8161
▁확률	-10.8161
맷	-10.8161
율	-10.8161
▁뒹굴	-10.8161
▁심어볼까	-10.8161
▁제정신	-10.8161
▁지루해	-10.8161
▁침묵	-10.8161
테	-11.0938
밀	-11.0994
즘	-11.1221
표	-11.1233
냥	-11.1238
납	-11.1247
꿔	-11.1247
귄	-11.1248
텐	-11.125
패	-11.1255
완	-11.1256
꼈	-11.1256
낌	-11.1256
춘	-11.1257
톱	-11.1257
B	-11.1257
겐	-11.1257
곡	-11.1257
굳	-11.1257
댄	-11.1257
딜	-11.1257
땜	-11.1257
렴	-11.1257
밑	-11.1257
빴	-11.1257
송	-11.1257
젤	-11.1257
줌	-11.1257
쭤	-11.1257
컷	-11.1257
혔	-11.1257
썩	-11.1257
앨	-11.1257
옵	-11.1257
츠	-11.1257
툭	-11.1257
누	-11.2307
빼	-11.2387
싸	-11.2438
벌	-11.2451
봄	-11.2459
책	-11.2465
6	-11.2486
갖	-11.2487
큰	-11.2493
늦	-11.2508
젠	-11.5728
찼	-11.5749
쩌	-11.5749
쑥	-11.5751
킨	-11.5752
끗	-11.5754
똥	-11.5756
뱃	-11.5756
맙	-11.5756
뚝	-11.5756
텔	-11.5756
잇	-11.5757
뒹	-11.5757
찢	-11.5757
탐	-11.5757
녔	-11.5757
캐	-11.5757
튜	-11.5757
픽	-11.5757
벤	-11.5757
C	-11.5757
D	-11.5757
X	-11.5757
깅	-11.5757
꽂	-11.5757
꿩	-11.5757
넛	-11.5757
뇌	-11.5757
눴	-11.5757
닷	-11.5757
돕	-11.5757
띠	-11.5757
띰	-11.5757
랭	-11.5757
렉	-11.5757
룸	-11.5757
룽	-11.5757
뮤	-11.5757
벨	-11.5757
붓	-11.5757
뷔	-11.5757
빽	-11.5757
뻤	-11.5757
뿅	-11.5757
삔	-11.5757
샌	-11.5757
샘	-11.5757
왼	-11.5757
웁	-11.5757
젝	-11.5757
줍	-11.5757
즙	-11.5757
짤	-11.5757
쨌	-11.5757
챘	-11.5757
춤	-11.5757
층	-11.5757
캔	-11.5757
켓	-11.5757
콧	-11.5757
쿠	-11.5757
쿼	-11.5757
킬	-11.5757
킹	-11.5757
톤	-11.5757
퉁	-11.5757
펭	-11.5757
혈	-11.5757
훅	-11.5757
휙	-11.5757
흡	-11.5757
섯	-11.5757
솜	-11.5757
뚱	-11.5757
웽	-11.5757
뜻	-12.0793
숨	-12.0811
쐬	-12.0814
귀	-12.0837
곧	-12.0846
딱	-12.0861
알	-12.0862
꼭	-12.0865
왜	-12.0877
휨	-12.3677
퐈	-12.3678
퉜	-12.3679
텍	-12.368
탱	-12.3681
츄	-12.3682
췄	-12.3683
쭈	-12.3684
쪘	-12.3685
젔	-12.3686
씽	-12.3687
쏘	-12.3688
쌀	-12.3689
삽	-12.369
뺄	-12.3691
붕	-12.3692
벴	-12.3693
뭉	-12.3694
멤	-12.3695
렷	-12.3696
뛴	-12.3697
둑	-12.3698
델	-12.3699
덩	-12.37
댜	-12.3701
닳	-12.3702
뇽	-12.3703
놉	-12.3704
꿧	-12.3705
꿎	-12.3706
깠	-12.3707
굿	-12.3708
훌	-12.3709
홈	-12.371
혐	-12.3711
튀	-12.3712
텼	-12.3713
텅	-12.3714
킥	-12.3715
캄	-12.3716
칩	-12.3717
찹	-12.3718
찡	-12.3719
짬	-12.372
졋	-12.3721
젊	-12.3722
왓	-12.3723
옮	-12.3724
옛	-12.3725
엿	-12.3726
얇	-12.3727
씸	-12.3728
씰	-12.3729
쑤	-12.373
섞	-12.3731
샜	-12.3732
샐	-12.3733
뽕	-12.3734
뺏	-12.3735
볕	-12.3736
묘	-12.3737
멘	-12.3738
맹	-12.3739
릭	-12.374
륜	-12.3741
띵	-12.3742
뜬	-12.3743
떴	-12.3744
덮	-12.3745
댔	-12.3746
댓	-12.3747
논	-12.3748
넹	-12.3749
꽝	-12.375
꼴	-12.3751
깼	-12.3752
깬	-12.3753
괘	-12.3754
겉	-12.3755
갠	-12.3756
o	-12.3757
g	-12.3758
홧	-12.3759
헹	-12.376
헐	-12.3761
팀	-12.3762
텀	-12.3763
턱	-12.3764
쿵	-12.3765
컥	-12.3766
캬	-12.3767
측	-12.3768
짼	-12.3769
쥐	-12.377
엊	-12.3771
얽	-12.3772
앱	-12.3773
숫	-12.3774
삐	-12.3775
빚	-12.3776
몬	-12.3777
맴	-12.3778
렐	-12.3779
랙	-12.378
랖	-12.3781
뚫	-12.3782
됬	-12.3783
눕	-12.3784
눌	-12.3785
넋	-12.3786
꿰	-12.3787
깰	-12.3788
갱	-12.3789
흠	-12.379
훔	-12.3791
핫	-12.3792
폼	-12.3793
텁	-12.3794
켰	-12.3795
컸	-12.3796
촬	-12.3797
총	-12.3798
쫄	-12.3799
짰	-12.38
징	-12.3801
좌	-12.3802
웹	-12.3803
옳	-12.3804
볍	-12.3805
밉	-12.3806
몫	-12.3807
맺	-12.3808
릇	-12.3809
램	-12.381
눅	-12.3811
넷	-12.3812
꽉	-12.3813
꼰	-12.3814
겪	-12.3815
홀	-12.3816
헌	-12.3817
팠	-12.3818
툼	-12.3819
탓	-12.382
퀴	-12.3821
쿨	-12.3822
켠	-12.3823
쪼	-12.3824
엮	-12.3825
씌	-12.3826
쏠	-12.3827
쏟	-12.3828
썹	-12.3829
큼	-12.3829
쌍	-12.383
쌈	-12.3831
쁨	-12.3832
렜	-12.3833
렛	-12.3834
둥	-12.3835
돋	-12.3836
낚	-12.3837
긁	-12.3838
곱	-12.3839
흑	-12.384
휘	-12.3841
훈	-12.3842
헥	-12.3843
틋	-12.3844
찜	-12.3845
젯	-12.3846
앗	-12.3847
쌩	-12.3848
슈	-12.3849
쉴	-12.385
뻑	-12.3851
묻	-12.3852
릎	-12.3853
땡	-12.3854
둠	-12.3855
늠	-12.3856
광	-12.3857
A	-12.3858
툴	-12.3859
털	-12.386
짱	-12.3861
젖	-12.3862
웬	-12.3863
얻	-12.3864
씁	-12.3865
싼	-12.3866
띄	-12.3867
닮	-12.3868
녹	-12.3869
낙	-12.387
낄	-12.3871
끓	-12.3872
객	-12.3873
킁	-12.3874
찔	-12.3875
앉	-12.3876
섬	-12.3877
뽑	-12.3878
뢰	-12.3879
렬	-12.388
땅	-12.3881
늙	-12.3882
넓	-12.3883
꾹	-12.3884
깎	-12.3885
겹	-12.3886
콤	-12.3887
콕	-12.3888
잃	-12.3889
엉	-12.389
샤	-12.3891
밝	-12.3892
몽	-12.3893
맡	-12.3894
렘	-12.3895
랫	-12.3896
땀	-12.3897
검	-12.3898
헬	-12.3899
빡	-12.39
벚	-12.3901
뤄	-12.3902
딪	-12.3903
넣	-12.3904
규	-12.3905
곁	-12.3906
n	-12.3907
컴	-12.3908
칼	-12.3909
첩	-12.391
옥	-12.3911
렌	-12.3912
딴	-12.3913
듬	-12.3914
낮	-12.3915
걔	-12.3916
갚	-12.3917
씻	-12.3918
씹	-12.3919
슷	-12.392
뛰	-12.3921
딸	-12.3922
깜	-12.3923
ᄏ	-12.3924
푹	-12.3925
컨	-12.3926
춥	-12.3927
닫	-12.3928
끈	-12.3929
잤	-12.393
웨	-12.3931
썼	-12.3932
셀	-12.3933
벼	-12.3934
듭	-12.3935
뒷	-12.3936
뀌	-12.3937
깔	-12.3938
귈	-12.3939
8	-12.394
7	-12.3941
뉴	-12.3942
뀔	-12.3943
텨	-12.3944
녁	-12.3945
깍	-12.3946
권	-12.3947
걷	-12.3948
N	-12.3949
샀	-12.395
뿌	-12.3951
멈	-12.3952
됩	-12.3953
눠	-12.3954
헛	-12.3955
틱	-12.3956
엽	-12.3957
쌓	-12.3958
싱	-12.3959
삼	-12.396
밍	-12.3961
덕	-12.3962
희	-12.3963
삭	-12.3964
ᅮ	-12.3965
쩔	-12.3966
옆	-12.3967
북	-12.3968
립	-12.3969
ᄒ	-12.397
효	-12.3971
꼬	-12.3972
쇼	-12.3973
꿨	-12.3974
숭	-12.3975
벗	-12.3976
냉	-12.3977
끄	-12.3978
헷	-12.3979
섭	-12.398
멍	-12.3981
멀	-12.3982
잖	-12.3983
삶	-12.3984
높	-12.3985
읽	-12.3986
뎌	-12.3987
낫	-12.3988
녕	-12.3989
엇	-12.399
렵	-12.3991
득	-12.3992
깐	-12.3993
괴	-12.3994
랜	-12.3995
흔	-12.3996
얘	-12.3997
빌	-12.3998
익	-12.3999
끊	-12.4
흐	-12.4001
퇴	-12.4002
밌	-12.4003
픔	-12.4004
짧	-12.4005
승	-12.4006
졸	-12.4007
덤	-12.4008
핸	-12.4009
풍	-12.401
뭔	-12.4011
똑	-12.4012
몇	-12.4013
슴	-12.4014
뻐	-12.4015
꽃	-12.4016
씀	-12.4017
닐	-12.4018
0	-12.4019
맨	-12.402
긋	-12.4021
평	-12.4021
써	-12.4022
챙	-12.4023
멋	-12.4024
덜	-12.4025
픈	-12.4026
풀	-12.4027
존	-12.4028
갔	-12.4029
첫	-12.403
격	-12.4031
죽	-12.4032
럼	-12.4033
최	-12.4034
엄	-12.4035
슨	-12.4036
떤	-12.4037
뭘	-12.4038
쁘	-12.4039
업	-12.404
앞	-12.4041
,	-12.4042
쉽	-12.4043
택	-12.4044
걱	-12.4045
겼	-12.4046
떠	-12.4047
믿	-12.4048
닌	-12.4049
접	-12.405
군	-12.4051
랄	-12.4052
막	-12.4053
몰	-12.4054
럴	-12.4055
술	-12.4056
련	-12.4057
얼	-12.4058
놀	-12.4059
잡	-12.406
억	-12.4061
싫	-12.4062
쓰	-12.4063
맞	-12.4064
왔	-12.4065
떻	-12.4066
렇	-12.4067
편	-12.4068
잊	-12.4069
괜	-12.407
끝	-12.4071
찮	-12.4072
뭐	-12.4073
!	-12.4074
받	-12.4075
습	-12.4076
혼	-12.4077
썸	-12.4078
헤	-12.4079
쁠	-12.408
모	-12.408
않	-12.4081
많	-12.4082
덥	-12.4083
깝	-12.4083
힘	-12.4083
봇	-12.4083
싶	-12.4084
혹	-12.4084
욜	-12.4084
없	-12.4085
낭	-12.4086
뜰	-12.4086
생	-12.4086
턴	-12.4086
람	-12.4087
닿	-12.4088
?	-12.4088
첨	-12.4088
좋	-12.4089
칭	-12.409
획	-12.409
냄	-12.409
긍	-12.409
묵	-12.409
딘	-12.409
률	-12.409
j	-12.409
k	-12.409
겜	-12.409
꽁	-12.409
챗	-12.409
힙	-12.409
딨	-12.409
뱄	-12.409
뽀	-12.409
펨	-12.409
O	-12.409
ᄎ	-12.409
갇	-12.409
갯	-12.409
걍	-12.409
곗	-12.409
굽	-12.409
귐	-12.409
균	-12.409
귤	-12.409
깃	-12.409
깡	-12.409
꺽	-12.409
껀	-12.409
꼿	-12.409
뀐	-12.409
넥	-12.409
뇨	-12.409
늪	-12.409
닦	-12.409
닭	-12.409
덴	-12.409
뎠	-12.409
듀	-12.409
듦	-12.409
딧	-12.409
떄	-12.409
뗄	-12.409
뜩	-12.409
뜸	-12.409
랠	-12.409
랩	-12.409
럿	-12.409
령	-12.409
롤	-12.409
롯	-12.409
룰	-12.409
륵	-12.409
몹	-12.409
뭇	-12.409
뭣	-12.409
밭	-12.409
밸	-12.409
뱉	-12.409
벋	-12.409
뻘	-12.409
뻣	-12.409
뻥	-12.409
뿍	-12.409
섰	-12.409
셥	-12.409
쇠	-12.409
숍	-12.409
숏	-12.409
쌤	-12.409
썰	-12.409
쎈	-12.409
쎌	-12.409
쏜	-12.409
씬	-12.409
앙	-12.409
얄	-12.409
엘	-12.409
엣	-12.409
옇	-12.409
잌	-12.409
잦	-12.409
젹	-12.409
좁	-12.409
쥬	-12.409
즉	-12.409
쩐	-12.409
찝	-12.409
챔	-12.409
쳇	-12.409
촌	-12.409
츤	-12.409
칙	-12.409
칫	-12.409
컹	-12.409
콘	-12.409
쾌	-12.409
큐	-12.409
킴	-12.409
텄	-12.409
펜	-12.409
퓨	-12.409
픕	-12.409
핀	-12.409
핍	-12.409
핏	-12.409
햐	-12.409
헉	-12.409
혜	-12.409
훨	-12.409
굶	-12.409
뜁	-12.409
섣	-12.409
펼	-12.409
협	-12.409
흰	-12.409
.	-12.409
렁	-12.409
빗	-12.409
섹	-12.409
텻	-12.409
