<unk>	0
<s>	0
</s>	0
▁	-3.42723
.	-3.42929
을	-3.87737
의	-3.94284
에	-4.21331
이	-4.28833
를	-4.32999
는	-4.38843
가	-4.45142
은	-4.5753
,	-4.64238
고	-4.67149
에서	-4.95976
로	-5.06343
한	-5.06951
▁“	-5.26854
인	-5.31011
”	-5.31258
일	-5.34622
)	-5.42839
과	-5.43058
(	-5.4378
▁이	-5.48452
으로	-5.5807
와	-5.61066
지	-5.63693
▁있다	-5.67064
도	-5.73815
▁수	-5.74415
할	-5.76833
했다	-5.82573
▁밝혔다	-5.897
▁말했다	-5.91693
다	-5.9313
하고	-5.9323
년	-5.9594
하는	-6.04625
리	-6.07854
▁있는	-6.10048
기	-6.10504
스	-6.13332
▁전	-6.15424
▁그	-6.16677
자	-6.17911
해	-6.19159
며	-6.19386
▁2	-6.29148
▁1	-6.29518
▁그는	-6.30736
만	-6.33975
된	-6.39053
▁대한	-6.40025
월	-6.41253
▁위해	-6.42045
사	-6.48583
▁전했다	-6.48776
▁미	-6.49959
▁미국	-6.51322
▁한	-6.52414
▁중	-6.52758
시	-6.52784
▁3	-6.53999
라	-6.55408
▁이번	-6.56022
▁지난	-6.5772
어	-6.58236
현지시간	-6.5947
나	-6.61458
주	-6.63636
에게	-6.67112
▁대해	-6.67593
"	-6.69352
드	-6.73641
▁것으로	-6.74623
s	-6.74768
게	-6.75098
트	-6.75157
대	-6.752
▁‘	-6.7564
들이	-6.76539
르	-6.77863
명이	-6.79508
▁것이라고	-6.80237
▁것	-6.80484
이라고	-6.80787
▁"	-6.82431
수	-6.83221
아	-6.83442
▁4	-6.83841
▁있다고	-6.86512
하기	-6.87809
▁주	-6.88768
서	-6.89468
▁것을	-6.89778
적인	-6.9048
▁6	-6.90882
▁이라크	-6.91668
하지	-6.91873
세	-6.91982
▁5	-6.93795
히	-6.94936
상	-6.95076
’	-6.95277
부	-6.95662
들은	-6.95849
치	-6.96711
▁더	-7.00059
▁그러나	-7.00426
▁대통령	-7.00779
하게	-7.03838
▁다른	-7.04594
운	-7.05152
▁중국	-7.06812
비	-7.07479
원	-7.07529
정	-7.07725
장	-7.07969
소	-7.09377
▁아	-7.10342
명	-7.11253
▁내	-7.12171
라고	-7.12927
성	-7.1343
▁10	-7.13452
적	-7.13529
▁한편	-7.13533
전	-7.13584
던	-7.14841
프	-7.14861
됐다	-7.15417
▁후	-7.15771
▁북한	-7.16831
크	-7.17668
-	-7.1814
▁바	-7.18781
명의	-7.1891
니	-7.19
했다고	-7.19328
미	-7.20315
e	-7.2146
선	-7.22255
▁유	-7.23194
진	-7.23668
보	-7.23973
▁이후	-7.24096
▁정부	-7.24547
▁한국	-7.25067
▁제	-7.25606
▁영국	-7.26052
▁7	-7.27175
▁일	-7.27839
마	-7.28787
▁통해	-7.29206
▁대	-7.30055
위	-7.31262
▁많은	-7.32311
▁두	-7.32465
▁또	-7.32753
화	-7.32844
▁8	-7.33011
이다	-7.33235
▁위한	-7.33424
될	-7.33602
▁대통령은	-7.33666
야	-7.33667
바	-7.33919
▁알	-7.3427
하	-7.35075
▁비	-7.35108
▁부시	-7.35617
오	-7.36394
제	-7.36905
▁등	-7.37607
▁가장	-7.37771
들을	-7.38767
분	-7.39056
▁동안	-7.39127
까지	-7.39246
조	-7.396
당	-7.40003
▁같은	-7.40461
▁것이다	-7.4047
▁부	-7.4094
에는	-7.41635
▁지	-7.41699
▁대변인은	-7.41844
▁시	-7.42665
구	-7.43434
▁나	-7.43497
▁약	-7.43879
면	-7.44324
국	-7.44428
내	-7.44532
개	-7.45859
하며	-7.46934
▁정	-7.47133
▁사	-7.47214
2	-7.48061
했으며	-7.48458
▁세계	-7.4847
즈	-7.48997
▁보	-7.49536
디	-7.50675
▁말	-7.50899
▁주장했다	-7.51189
▁문제	-7.51627
파	-7.51837
▁조사	-7.52481
적으로	-7.52547
▁마	-7.52567
▁오바마	-7.52755
단	-7.52797
우	-7.52876
▁오	-7.52954
▁일본	-7.53246
▁때	-7.53755
▁될	-7.53808
타	-7.5384
용	-7.54203
a	-7.54573
▁것은	-7.54704
d	-7.5533
▁19	-7.55534
▁공격	-7.55621
▁영화	-7.55966
▁불	-7.55988
간	-7.56176
A	-7.56564
▁할	-7.56685
▁경제	-7.56699
▁뒤	-7.56775
▁또한	-7.56779
▁한다	-7.56803
여	-7.57233
▁9	-7.5726
▁12	-7.57621
차	-7.57716
▁무	-7.57854
식	-7.57929
들	-7.58091
한다	-7.58502
▁현재	-7.58528
▁관련	-7.5862
유	-7.58671
▁해	-7.59202
▁것이	-7.59506
▁최근	-7.60174
▁반	-7.6021
러	-7.604
려	-7.6052
레	-7.61186
▁경우	-7.612
관	-7.6123
▁보도했다	-7.61302
약	-7.61367
o	-7.61933
에서는	-7.621
▁덧붙였다	-7.6238
1	-7.62425
었다	-7.62431
▁기	-7.62785
▁이상	-7.62879
안	-7.62947
▁않았다	-7.63343
▁있었다	-7.63444
및	-7.63514
그	-7.64334
▁국가	-7.6445
권	-7.64518
▁공	-7.64846
티	-7.6517
▁안	-7.65255
계	-7.65306
▁다	-7.6577
▁20	-7.65787
호	-7.6604
▁조	-7.66371
했던	-7.66589
S	-7.67914
'	-7.68066
하다	-7.68487
▁11	-7.6879
▁모	-7.68898
카	-7.68917
체	-7.69362
모	-7.69485
▁일부	-7.69701
▁자신의	-7.70838
m	-7.71049
▁재	-7.72074
▁상	-7.72305
문	-7.73031
▁후보	-7.73036
브	-7.73409
물	-7.73585
▁자	-7.73762
▁함께	-7.73773
▁거	-7.74297
신	-7.74333
▁신	-7.74697
▁파	-7.7498
점	-7.75096
▁하	-7.75618
회	-7.75855
코	-7.75957
▁당시	-7.76056
노	-7.76442
▁'	-7.76696
▁했다	-7.76883
▁계속	-7.77516
방	-7.78219
▁새로	-7.78285
▁모든	-7.78572
▁그리고	-7.78687
▁없다	-7.79779
▁때문에	-7.8044
▁지원	-7.8068
직	-7.80686
실	-7.80719
▁구	-7.8104
해야	-7.81104
보다	-7.81137
연	-7.81279
산	-7.81503
억	-7.81535
▁미군	-7.8169
▁세	-7.81708
질	-7.81905
무	-7.81909
린	-7.822
▁파키스탄	-7.8225
버	-7.82338
▁도	-7.8239
토	-7.82725
▁예정이다	-7.82771
C	-7.82892
▁수도	-7.83209
터	-7.84144
▁프랑스	-7.84391
▁모두	-7.84584
▁있습니다	-7.8467
▁카	-7.84752
▁설명했다	-7.84835
t	-7.84858
▁몇	-7.85721
▁결과	-7.85793
▁러시아	-7.8613
동	-7.86711
▁있으며	-7.86756
▁계획	-7.86901
법	-7.87065
▁이스라엘	-7.87105
들의	-7.87559
중	-7.88008
▁경찰은	-7.88051
력	-7.88059
n	-7.88344
군	-7.88936
i	-7.89126
▁지역	-7.89142
감	-7.89196
y	-7.89351
심	-7.89698
▁발표	-7.89731
▁선거	-7.89795
▁클린턴	-7.89795
데	-7.89941
경	-7.90165
▁유엔	-7.90379
▁피	-7.90791
u	-7.91287
▁정부는	-7.91497
3	-7.91498
▁연구	-7.91946
▁민주당	-7.92294
c	-7.92455
피	-7.92803
▁강	-7.93654
▁테러	-7.93685
▁큰	-7.93718
되는	-7.94002
▁성	-7.94115
▁우리	-7.94115
▁경찰	-7.94209
▁스	-7.94413
▁사고	-7.94691
▁결정	-7.94828
▁발	-7.95006
했습니다	-7.95129
▁여성	-7.95237
▁핵	-7.9525
공	-7.95557
▁군	-7.95817
명을	-7.96229
▁30	-7.96245
p	-7.96369
재	-7.96536
교	-7.96546
▁방문	-7.96927
▁데	-7.97021
▁노	-7.97069
▁위	-7.97255
더	-7.97426
▁줄	-7.98074
▁지난해	-7.9833
▁물	-7.98822
에도	-7.98884
에따르면	-7.98898
란	-7.99049
▁연	-7.99068
▁시작	-7.99274
▁않을	-7.99281
▁소	-7.99453
▁이들	-7.99974
루	-8.00545
▁열린	-8.00585
▁코	-8.01303
▁달러	-8.0141
▁달	-8.01478
▁당	-8.01588
▁경기	-8.01827
▁외	-8.01835
들에게	-8.01853
▁총	-8.01918
라는	-8.01946
▁A	-8.01961
▁대통령이	-8.02035
학	-8.02075
▁이란	-8.02819
행	-8.029
▁포	-8.02965
▁올해	-8.03347
▁양	-8.0486
▁배	-8.05155
▁발생한	-8.05383
▁이날	-8.05478
▁있을	-8.05621
▁총리는	-8.05707
▁하는	-8.06252
6	-8.06427
민	-8.06561
석	-8.06605
▁the	-8.06641
▁원	-8.06739
하여	-8.06819
l	-8.06968
키	-8.07247
D	-8.07278
▁발표했다	-8.07352
f	-8.07398
았다	-8.07429
지만	-8.0756
으며	-8.07931
▁15	-8.0804
시간	-8.08184
되고	-8.08442
▁초	-8.09314
▁받고	-8.09584
▁존	-8.09669
r	-8.09837
▁입	-8.10281
▁서	-8.10559
▁리	-8.10631
살	-8.11195
▁(	-8.11283
이나	-8.11293
▁회담	-8.11459
P	-8.116
하면서	-8.11709
▁채	-8.11972
▁국제	-8.12036
▁라	-8.12242
▁총리	-8.12262
4	-8.12571
건	-8.1259
▁열	-8.12642
M	-8.12908
▁유럽	-8.13176
▁개	-8.13374
번	-8.13971
저	-8.14012
▁차	-8.14328
▁관계	-8.14365
▁to	-8.14849
포	-8.14876
▁매	-8.14943
난	-8.14975
▁S	-8.14989
임	-8.14994
▁가운데	-8.15272
5	-8.15396
▁16	-8.15465
▁간	-8.15506
든	-8.15569
▁미국의	-8.1562
▁피해	-8.15655
길	-8.15929
▁아프간	-8.1667
▁뉴욕	-8.16948
▁우	-8.16995
▁조치	-8.17203
▁기록	-8.1735
▁타	-8.17431
▁중단	-8.17486
▁주장	-8.17928
종	-8.18031
부터	-8.18083
▁첫	-8.1816
입니다	-8.18313
들과	-8.18381
▁of	-8.18723
ed	-8.18803
래	-8.19073
▁의해	-8.19294
▁투표	-8.19371
▁시장	-8.19471
면서	-8.19674
▁동	-8.19683
▁18	-8.19724
▁아이	-8.19936
▁된다	-8.2
▁인도	-8.20194
▁주요	-8.20208
.”	-8.203
▁사람들이	-8.20377
▁사건	-8.20437
거	-8.20561
▁정부가	-8.20692
론	-8.20753
▁프로그램	-8.20849
형	-8.20974
스트	-8.21672
▁시위	-8.21802
)’	-8.21945
▁다시	-8.22191
ar	-8.22219
요	-8.22286
▁감독	-8.22437
였다	-8.22452
▁선	-8.22492
두	-8.22527
되어	-8.22678
7	-8.22712
▁인해	-8.22738
▁차량	-8.22855
▁승리	-8.22904
▁실	-8.2306
설	-8.2308
▁여	-8.23206
워	-8.23238
되지	-8.23409
▁보고	-8.23427
통	-8.23663
N	-8.2424
▁회사	-8.24364
▁않은	-8.24477
▁명	-8.24583
역	-8.24626
품	-8.24639
네	-8.24914
▁13	-8.25379
금	-8.25495
병	-8.2575
▁경	-8.25983
▁있다는	-8.26497
▁어	-8.26583
발	-8.26669
▁예정	-8.26782
돼	-8.26957
▁혐의로	-8.27109
▁메	-8.27289
▁탈레반	-8.27398
▁하고	-8.27746
al	-8.28015
▁합의	-8.28439
슨	-8.28583
▁시간	-8.28833
▁활동	-8.28866
▁지지	-8.28996
▁혐의	-8.29039
너	-8.29311
er	-8.29397
▁반대	-8.29489
배	-8.2961
▁14	-8.29843
▁협상	-8.29951
▁전쟁	-8.29964
▁독일	-8.29977
I	-8.30003
▁맞	-8.30096
▁생각	-8.30211
반	-8.30252
천	-8.30286
ing	-8.30311
▁in	-8.30433
▁산	-8.30477
습니다	-8.30574
▁사용	-8.30737
장은	-8.30847
범	-8.30949
▁상원의원	-8.31035
E	-8.31303
▁됐다	-8.31388
▁도시	-8.31487
▁장	-8.31604
▁새	-8.31658
생	-8.3174
▁W	-8.31882
▁이미	-8.31888
▁대학	-8.32094
▁남	-8.32479
▁호	-8.32593
료	-8.32651
km	-8.32654
▁관리	-8.32738
▁위치한	-8.32842
▁포함	-8.33038
▁받았다	-8.33049
▁대선	-8.33178
▁이용	-8.33298
▁페	-8.33599
됐다고	-8.3376
▁상태	-8.33764
▁우려	-8.33912
▁버	-8.33986
/	-8.34033
년간	-8.34144
했지만	-8.34255
메	-8.34282
▁팔레스타인	-8.34429
F	-8.34457
▁비난	-8.34487
▁발생	-8.34493
▁레	-8.34894
▁없는	-8.35094
판	-8.3516
출	-8.35386
달러	-8.35514
류	-8.35636
▁부상	-8.35654
▁우주	-8.35969
▁석방	-8.3618
▁적	-8.36289
▁최고	-8.36715
스는	-8.36787
▁아직	-8.36852
▁판매	-8.36917
▁호주	-8.37029
에따라	-8.37061
▁내용	-8.37067
▁조지	-8.37136
▁TV	-8.37399
▁저	-8.37886
다고	-8.37974
지는	-8.38106
▁소속	-8.38232
이라며	-8.38237
▁잘	-8.38787
겨	-8.38928
▁추가	-8.39225
작	-8.39231
급	-8.39338
▁발견	-8.39377
▁연방	-8.3939
▁25	-8.39512
▁사실을	-8.39618
or	-8.39653
▁심	-8.39713
로부터	-8.39915
%	-8.40017
▁위협	-8.40067
▁가족	-8.40178
T	-8.40216
▁M	-8.40255
색	-8.40294
▁폭탄	-8.40491
▁점	-8.40576
온	-8.40617
▁매케인	-8.40636
▁단	-8.40863
▁관계자는	-8.40872
청	-8.40894
▁김	-8.41054
속	-8.41129
▁않고	-8.41305
▁17	-8.41701
▁확인	-8.41755
▁이어	-8.4177
▁노력	-8.42024
▁방송	-8.42161
▁많	-8.42331
릴	-8.42453
▁여러	-8.42558
▁인터넷	-8.42695
▁지적했다	-8.42806
▁''	-8.4284
an	-8.42966
증	-8.43484
▁한다고	-8.43647
량	-8.43736
▁지금	-8.43874
▁B	-8.43896
▁올	-8.43924
▁이슬람	-8.44188
▁남부	-8.44504
?	-8.44509
이며	-8.44655
매	-8.44753
▁사람	-8.44778
▁정치	-8.44794
▁사이	-8.44817
▁인근	-8.44917
했었다	-8.44919
명은	-8.45225
▁매우	-8.45368
g	-8.45621
B	-8.45914
▁폭발	-8.45921
친	-8.45944
렌	-8.46295
▁올림픽	-8.46358
en	-8.46428
▁기술	-8.46494
결	-8.46559
▁하나	-8.46588
▁집	-8.46776
했고	-8.46788
▁치	-8.46789
▁개발	-8.46819
▁당국은	-8.46828
▁보도	-8.46978
▁입장	-8.47185
▁볼	-8.47216
▁오늘	-8.47285
▁대부분	-8.47383
츠	-8.4748
b	-8.47658
▁사망	-8.47754
▁증가	-8.47978
언	-8.4837
in	-8.48462
개월	-8.48558
립	-8.48596
▁없다고	-8.48969
양	-8.4901
된다	-8.49065
K	-8.49135
▁감	-8.49259
▁살	-8.49395
▁정책	-8.49437
▁명의	-8.49462
베	-8.49679
위원회	-8.49838
▁받은	-8.49864
달	-8.49943
▁자동차	-8.50175
▁백악관	-8.50195
▁2006	-8.50408
되었다	-8.50455
처럼	-8.50513
▁않는다	-8.50689
날	-8.50747
▁손	-8.50833
처	-8.50844
▁못했다	-8.50911
▁본	-8.51076
퍼	-8.5116
0	-8.51197
클	-8.51253
▁100	-8.51262
▁이는	-8.51303
on	-8.51659
▁준비	-8.51913
▁24	-8.51965
8	-8.52006
▁토	-8.52051
▁다음	-8.5232
▁루	-8.52451
▁교	-8.52482
▁정보	-8.52732
강	-8.52757
업	-8.5287
▁만	-8.52962
▁추	-8.53035
▁날	-8.53194
G	-8.53273
▁남자	-8.53419
▁어떤	-8.53469
▁생산	-8.53498
▁평화	-8.53499
▁성명	-8.5351
▁살해	-8.53646
L	-8.53947
했으나	-8.53984
합	-8.54013
편	-8.5411
▁금융	-8.54128
▁기자	-8.54296
▁진	-8.54415
▁건물	-8.54516
기를	-8.54561
▁21	-8.54746
▁하지만	-8.55172
▁앞	-8.55181
▁이름	-8.55365
▁베	-8.5537
▁있던	-8.55402
울	-8.55645
▁지도자	-8.5568
졌다	-8.55701
▁오후	-8.55828
개의	-8.55862
번째	-8.55881
하기로	-8.56138
▁해결	-8.56429
▁C	-8.56433
▁예	-8.56644
▁언론	-8.56934
열	-8.57034
▁P	-8.57132
▁의사	-8.57249
머	-8.57417
▁당국	-8.57429
▁50	-8.57434
▁제작	-8.57445
▁방법	-8.57678
▁영	-8.57737
ic	-8.57784
▁T	-8.57862
▁검찰	-8.58017
이었다	-8.58038
▁군사	-8.58092
O	-8.58196
h	-8.58266
▁27	-8.58552
령	-8.58633
▁23	-8.58771
하는데	-8.58952
▁미얀마	-8.59122
지역	-8.59142
▁얻	-8.59144
▁취	-8.59153
와의	-8.59161
▁자신	-8.59286
집	-8.5932
▁법원	-8.59436
▁공개	-8.59724
▁공화당	-8.59732
▁앞서	-8.59735
▁변화	-8.59735
▁22	-8.59845
▁필요	-8.59916
▁행사	-8.59938
▁법	-8.59998
▁대표	-8.60022
테	-8.6004
투	-8.60069
▁안전	-8.60159
영	-8.60252
층	-8.60303
▁북부	-8.60353
▁방	-8.60466
▁분	-8.60526
▁밀	-8.60554
▁있어	-8.60627
▁보호	-8.60771
복	-8.60772
▁이에	-8.61097
9	-8.61105
▁종	-8.61296
k	-8.6136
▁건강	-8.61481
격	-8.61568
▁아시아	-8.6164
le	-8.61673
R	-8.61701
▁치료	-8.61732
▁인터뷰에서	-8.61772
w	-8.61782
▁병원	-8.61789
입	-8.61959
▁하지	-8.62178
절	-8.62219
▁컴퓨터	-8.62405
▁인	-8.62581
:	-8.62642
예	-8.62681
▁강조했다	-8.62764
▁상승	-8.62851
거나	-8.62896
▁단체	-8.62978
탄	-8.63284
▁생	-8.63316
▁갖고	-8.63392
▁결	-8.63678
▁이러	-8.6369
▁그들은	-8.63777
▁납치	-8.63858
▁처음	-8.63873
▁현	-8.63884
각	-8.63936
족	-8.63939
▁들어	-8.64183
▁사람들	-8.64221
v	-8.64288
는데	-8.64372
측	-8.64487
▁떨어진	-8.64554
▁것에	-8.64583
▁요구	-8.64716
▁학교	-8.6483
▁힐러리	-8.65037
▁반군	-8.65209
▁원문기사보기	-8.6528
▁있도록	-8.6529
▁2005	-8.65392
하도록	-8.6558
▁오전	-8.65587
▁a	-8.6562
▁사태	-8.65729
▁거래	-8.65885
▁마지막	-8.66012
▁N	-8.66267
팀	-8.66515
▁여행	-8.66639
▁비난했다	-8.66758
▁F	-8.668
등	-8.66801
져	-8.66864
▁논의	-8.66931
▁잡	-8.6697
함	-8.66981
▁터키	-8.67163
▁발언	-8.67287
▁금지	-8.67305
승	-8.67488
▁상황	-8.67645
▁북한이	-8.67662
▁가진	-8.67736
▁지구	-8.67792
and	-8.67821
▁문	-8.6785
▁은행	-8.67934
먼	-8.67975
▁경찰이	-8.68061
하면	-8.68618
▁투자	-8.68993
▁오는	-8.69015
▁최대	-8.69095
▁팀	-8.69176
▁요청	-8.69387
▁미국과	-8.69597
이라는	-8.69787
박	-8.69854
하자	-8.69888
re	-8.69911
▁현지	-8.70207
▁인정	-8.7029
▁처음으로	-8.7041
▁장관은	-8.70411
▁각	-8.70689
자들은	-8.70726
▁진행	-8.7073
▁자신이	-8.70839
▁그녀는	-8.71002
▁걸	-8.71006
▁그녀	-8.71071
▁번	-8.71143
▁막	-8.71177
▁충돌	-8.71294
▁판결	-8.71306
▁출신	-8.71326
▁연기	-8.71381
▁이를	-8.71468
으로부터	-8.71515
▁온	-8.71669
▁사회	-8.71812
▁버락	-8.71831
▁규모	-8.71832
음	-8.7223
▁지난달	-8.72239
▁용의자	-8.72243
▁친	-8.72331
▁담	-8.72395
됐으며	-8.7242
▁불법	-8.72449
른	-8.7272
▁없었다	-8.72733
▁눈	-8.72741
▁이탈리아	-8.7285
▁26	-8.72861
▁행동	-8.72878
▁최소	-8.7306
▁밤	-8.73154
▁국민	-8.73278
▁40	-8.73423
▁난	-8.73492
▁보내	-8.73581
▁폴	-8.73616
한다고	-8.7372
▁H	-8.73725
▁성공	-8.73763
▁자금	-8.73867
리는	-8.73883
▁위험	-8.74094
커	-8.74138
▁앞으로	-8.74268
케	-8.74272
▁있지만	-8.74281
▁영향	-8.74347
하던	-8.7438
▁유지	-8.74499
▁야당	-8.74501
▁없이	-8.74702
▁발사	-8.74768
▁서울	-8.74849
▁지역에서	-8.74919
▁CNN	-8.74951
▁공항	-8.74986
▁보인다	-8.751
후	-8.75186
▁패	-8.75303
▁독	-8.75359
받	-8.75368
▁̋	-8.75506
▁알카에다	-8.75514
상을	-8.75573
축	-8.75592
정부	-8.75645
▁된	-8.75689
▁사망했다	-8.75816
▁주둔	-8.75817
▁관한	-8.75893
▁들	-8.75919
▁공급	-8.76116
▁참석	-8.76145
림	-8.76349
런	-8.76445
▁스페인	-8.76868
▁환경	-8.76886
추	-8.7692
▁죽	-8.7713
▁속	-8.77151
▁부족	-8.77207
▁G	-8.7724
락	-8.77242
▁통	-8.77243
▁의회	-8.77392
~	-8.77414
▁참여	-8.77448
위를	-8.77478
5%	-8.77619
▁않다	-8.77653
▁좋은	-8.77683
▁사망자	-8.77752
▁29	-8.77955
▁검사	-8.77982
해서	-8.77995
▁공식	-8.78065
un	-8.78164
골	-8.78199
▁미사일	-8.78242
▁제공	-8.78293
초	-8.7837
▁사진	-8.78374
▁지방	-8.78429
말	-8.78552
▁가격	-8.78653
it	-8.78664
_	-8.78792
▁회장	-8.78891
▁만에	-8.7892
▁돈	-8.78968
우리는	-8.79058
▁무기	-8.7907
주의	-8.79075
▁무샤라프	-8.79254
▁돌	-8.79351
포인트	-8.79356
▁D	-8.79383
▁출연	-8.79665
▁미국이	-8.79715
▁조직	-8.79721
▁하루	-8.79726
▁수사	-8.79753
ch	-8.7984
있는	-8.80153
▁런던	-8.80261
▁선수	-8.80307
▁공동	-8.80312
▁야	-8.80342
▁L	-8.80396
▁비행기	-8.80409
▁가능성	-8.80506
▁관심	-8.80513
▁팔	-8.80566
▁사람들은	-8.80967
▁동영상	-8.8104
▁28	-8.81164
▁코리아	-8.81359
외	-8.81429
미국	-8.81658
article	-8.81897
▁행위	-8.81979
록	-8.82006
▁곳	-8.82086
▁변	-8.82144
자가	-8.82198
▁범죄	-8.82256
▁인질	-8.82276
▁잠	-8.82359
▁관	-8.82359
▁알려졌다	-8.82479
▁애	-8.82529
회의	-8.8258
랜드	-8.82605
▁언급	-8.82707
▁이들은	-8.82918
▁AP	-8.82974
독	-8.83049
▁있	-8.83057
긴	-8.83118
리아	-8.83122
▁우승	-8.83377
준	-8.83384
레이	-8.83391
▁하락	-8.83412
▁평	-8.8364
▁벌이	-8.83686
▁표	-8.83894
혀	-8.8392
▁불구하고	-8.8422
본	-8.84281
▁중요한	-8.84399
▁정상	-8.84529
▁오바마는	-8.8477
▁아프가니스탄	-8.84958
태	-8.8505
▁바그다드	-8.85146
es	-8.85182
▁말했습니다	-8.85241
▁정치적	-8.85524
▁빌	-8.85537
▁박사는	-8.85548
▁나라	-8.85583
▁남성	-8.85591
▁장관	-8.85593
▁체포	-8.85594
▁게임	-8.85728
▁실시	-8.858
▁발생했다	-8.85884
▁독립	-8.8602
▁대통령과	-8.86098
▁사망한	-8.86099
▁고위	-8.86105
했을	-8.86245
▁이전	-8.86292
▁천	-8.86329
▁미국은	-8.86362
▁자살	-8.86404
있다	-8.86437
▁것입니다	-8.86517
▁헤	-8.86762
H	-8.868
▁의원	-8.87003
▁통과	-8.87096
▁이런	-8.87108
▁시도	-8.87177
하겠다고	-8.87295
▁여부	-8.87305
▁인용	-8.87329
곳	-8.87336
▁역할	-8.87412
간의	-8.87501
50	-8.87623
▁반면	-8.87719
렸다	-8.87852
▁병력	-8.87868
▁운동	-8.87875
▁2008	-8.87974
▁워싱턴	-8.87996
▁강화	-8.88014
자인	-8.88027
▁정도	-8.8806
시켰다	-8.88098
▁폐쇄	-8.88112
▁보안	-8.88252
▁s	-8.88307
쳐	-8.88356
표	-8.88609
at	-8.88707
▁직접	-8.88728
▁역사	-8.89006
▁이야기	-8.8905
▁부토	-8.89217
▁예상	-8.89326
사는	-8.89395
’’	-8.89418
▁기업	-8.89515
▁자유	-8.89521
▁부인	-8.89909
▁사실	-8.89913
▁회의	-8.89927
▁드	-8.89946
▁K	-8.89964
▁번째	-8.90028
▁요	-8.90211
2005.08	-8.90255
▁골	-8.90399
장을	-8.9054
▁복	-8.90594
▁사망했다고	-8.90858
플	-8.90939
목	-8.90966
▁딸	-8.91292
자들이	-8.91328
▁서비스	-8.91355
남	-8.91439
CNN	-8.9155
백	-8.91625
▁&	-8.9172
▁누	-8.91746
▁for	-8.91855
성을	-8.91856
▁격	-8.91988
▁출	-8.92049
▁보다	-8.92145
▁기간	-8.92169
▁의하면	-8.9224
▁모습을	-8.92301
▁c	-8.92439
마리	-8.92462
▁확보	-8.92481
▁재판	-8.9263
▁투	-8.92855
검	-8.9286
▁감소	-8.92912
▁해안	-8.93084
으나	-8.93113
▁사업	-8.93152
▁것이라는	-8.93166
ri	-8.93173
▁맥	-8.93215
시킬	-8.93215
만명	-8.93253
씨	-8.93351
됐	-8.93378
▁2005.08	-8.93461
▁힘	-8.93601
is	-8.93671
억원	-8.93698
▁뉴스	-8.93719
평	-8.93774
▁못	-8.93823
▁키	-8.93882
▁자신들	-8.94026
▁높은	-8.94089
▁더욱	-8.94094
▁청	-8.94096
▁가능성이	-8.94178
망	-8.94205
▁아이들	-8.94302
▁통신	-8.9431
▁뜻	-8.9444
▁국경	-8.94571
▁지나	-8.94691
▁되	-8.94709
▁네	-8.9474
▁크	-8.94786
▁길	-8.94826
▁전체	-8.94826
▁상원	-8.94849
▁지난주	-8.94871
’(	-8.95
리스	-8.95043
▁소유	-8.95209
렸	-8.95377
▁보고서	-8.95473
▁별	-8.95494
▁개인	-8.95531
환	-8.95547
▁하마스	-8.95724
▁성명에서	-8.95811
▁출전	-8.9582
▁b	-8.95847
애	-8.95889
▁건	-8.95998
▁개최	-8.96061
▁아버지	-8.96086
▁왔다	-8.96198
▁비행	-8.96202
▁참가	-8.96209
엔	-8.96211
▁의견	-8.96419
500	-8.96482
만달러	-8.96614
나는	-8.96699
▁위기	-8.96719
▁석유	-8.9672
▁구조	-8.96859
▁호텔	-8.96884
차례	-8.96952
졌	-8.97011
▁신문	-8.97013
as	-8.97062
밀	-8.97064
▁아침	-8.97121
▁지역에	-8.97129
블	-8.97158
였던	-8.97413
▁농	-8.97414
▁아니다	-8.97583
탈	-8.97638
▁인쇄	-8.97719
▁것이며	-8.97737
▁승인	-8.97756
하려	-8.9776
▁변호사	-8.97907
▁거리	-8.97929
▁베이징	-8.97939
이번	-8.97939
▁2004	-8.98081
▁않는	-8.98209
튼	-8.98385
▁E	-8.98403
▁말을	-8.98468
▁총리가	-8.98479
▁알고	-8.98521
합니다	-8.9861
▁전화	-8.98619
▁한나라당	-8.98632
글	-8.98641
▁마을	-8.98993
▁아들	-8.99085
▁마련	-8.99093
▁태	-8.99152
▁이와	-8.99295
▁않았다고	-8.99339
ro	-8.99403
▁I	-8.9941
▁폭탄테러	-8.99431
▁주택	-8.99471
us	-8.99508
▁제안	-8.9965
율	-8.99654
세의	-8.99748
▁캘리포니아	-8.99854
맨	-9.00099
▁화재	-9.00132
th	-9.00164
현	-9.00308
▁건설	-9.00476
▁철수	-9.00499
▁시신	-9.00675
▁기자회견에서	-9.00739
▁핵무기	-9.00792
▁어제	-9.0098
돌	-9.01166
에서도	-9.01174
▁국회	-9.01291
▁보였다	-9.01621
▁시작했다	-9.01644
설명	-9.01687
▁맡	-9.01846
▁사람이	-9.01905
▁되는	-9.01949
▁갈	-9.01958
▁디	-9.02018
▁필요한	-9.02085
▁라이스	-9.02113
기로	-9.02121
▁관련된	-9.02189
▁아니라	-9.02382
▁휴	-9.02404
▁용	-9.02408
▁운영	-9.02425
▁올라	-9.02477
▁결혼	-9.02499
▁너무	-9.02542
▁수행	-9.02707
▁테	-9.02729
폭	-9.0288
극	-9.02884
▁선택	-9.02909
▁참	-9.02911
“	-9.02935
▁국방부	-9.02947
▁생활	-9.02949
▁증거	-9.02951
담	-9.02993
자들	-9.03017
▁도로	-9.0302
▁해외	-9.03317
하라	-9.0353
▁재개	-9.03629
왔다	-9.03808
▁박	-9.03908
▁사르코지	-9.03961
JO	-9.03973
도록	-9.03994
그러나	-9.04039
▁쓰	-9.04211
▁도착	-9.04245
단체	-9.04441
▁전에	-9.04449
▁시설	-9.04532
년대	-9.0459
▁우리는	-9.04627
▁협력	-9.04679
▁브라운	-9.0468
▁교육	-9.04932
▁타고	-9.04933
들에	-9.05031
INS	-9.0504
사를	-9.05051
▁남편	-9.0508
▁인권	-9.05168
▁산업	-9.05206
▁넘	-9.05241
▁받을	-9.05345
▁원문	-9.05531
▁티베트	-9.05656
불	-9.05726
▁민간인	-9.0576
년까지	-9.05769
▁연합	-9.05806
▁이동	-9.05809
광	-9.05854
▁있고	-9.05868
&	-9.05911
▁시위대	-9.06093
▁노무현	-9.06131
▁직원	-9.06182
▁작전	-9.06219
ur	-9.06221
▁결국	-9.0623
▁콜롬비아	-9.06315
▁거부	-9.06608
스타	-9.06682
규	-9.06765
찰	-9.06936
▁역시	-9.06985
▁re	-9.07002
▁삼	-9.07004
ation	-9.0719
▁주변	-9.0733
▁에너지	-9.07604
▁허	-9.07687
▁비용	-9.07865
▁친구	-9.07974
링	-9.07975
▁찾아	-9.07976
st	-9.08064
센터	-9.08245
▁목표	-9.08312
년에	-9.08373
▁2003	-9.08384
▁내년	-9.08424
▁여자	-9.08442
▁곧	-9.08452
▁이유로	-9.08473
▁빈	-9.08482
▁열리는	-9.08515
▁경쟁	-9.08555
람	-9.08566
▁숨졌다	-9.08743
액	-9.09088
엄	-9.09096
▁수준	-9.09142
▁숨	-9.09165
▁체	-9.09173
항	-9.09249
▁몰	-9.09271
기도	-9.09298
별	-9.09323
혈	-9.09476
▁인도네시아	-9.09477
▁국무부	-9.09516
갈	-9.09613
▁사건에	-9.09653
▁기소	-9.09777
씨는	-9.09803
▁타임즈	-9.0986
▁몸	-9.09861
▁60	-9.099
▁Korea	-9.10059
습	-9.1012
▁암	-9.10334
총	-9.10451
쿠	-9.10534
▁연설	-9.10706
회사	-9.10718
▁편	-9.10945
장이	-9.11023
▁탄	-9.11304
▁문제에	-9.11433
▁왕	-9.11596
자는	-9.11605
▁U	-9.11607
▁예정이라고	-9.11646
▁이제	-9.11679
▁어떻게	-9.11771
▁최초	-9.11923
ter	-9.11991
▁행	-9.12087
▁판사	-9.12123
▁훈련	-9.12159
▁화요일	-9.12159
▁비디오	-9.12178
▁광	-9.12246
▁전망	-9.12266
▁극	-9.12627
측은	-9.12792
▁항공	-9.12812
▁시스템	-9.12849
틀	-9.12857
▁회복	-9.12957
▁경선	-9.12982
페	-9.13246
누	-9.13273
▁같다	-9.13411
▁대회	-9.13427
▁근	-9.13518
▁레바논	-9.13593
▁한국인	-9.13603
▁경고	-9.13615
▁절	-9.1373
되기	-9.13734
▁동물	-9.1374
▁알리	-9.13793
30	-9.13816
하려는	-9.13862
▁여론조사	-9.14125
U	-9.1413
▁전문가들은	-9.14211
▁또는	-9.14294
▁학생	-9.14322
앙	-9.14368
▁원인	-9.1438
침	-9.14387
일간	-9.14427
▁성장	-9.14447
곡	-9.14512
흐	-9.14516
▁임무	-9.14558
▁국영	-9.14642
▁방안	-9.14806
▁지명	-9.14811
익	-9.14834
힌	-9.14911
▁기념	-9.14952
▁태국	-9.15005
▁인구	-9.15103
만원	-9.15132
com	-9.15187
독해	-9.15191
랑	-9.152
▁일정	-9.15247
et	-9.15333
▁요구했다	-9.15375
W	-9.15381
▁정보를	-9.1539
▁만나	-9.15454
명과	-9.15477
▁있게	-9.15479
▁사임	-9.15485
▁음악	-9.1551
▁이같	-9.15541
▁커	-9.15559
잡	-9.15705
▁멕시코	-9.15716
▁데이비드	-9.15717
▁대선후보	-9.15723
ra	-9.15765
▁포기	-9.15799
▁있기	-9.15888
변	-9.15922
것	-9.15922
▁게	-9.16024
▁벌	-9.1614
로서	-9.16233
▁200	-9.16263
▁2000	-9.16307
▁f	-9.1631
▁제재	-9.1636
▁대신	-9.16408
▁p	-9.16429
▁31	-9.16463
▁권	-9.16514
▁어린이	-9.16533
시키는	-9.16563
▁중심	-9.16925
▁국민들	-9.17074
▁주말	-9.17086
▁아프리카	-9.17161
▁받아	-9.17202
이자	-9.17204
▁계	-9.17221
▁수상	-9.17244
▁앞두고	-9.1734
▁무장	-9.1743
▁과학자들	-9.17451
하거나	-9.17546
▁수술	-9.17548
대로	-9.176
▁정권	-9.17617
▁대변인	-9.17653
▁질	-9.17675
▁여객기	-9.17749
▁비롯	-9.17755
▁칼	-9.17762
▁파괴	-9.17778
▁사망하고	-9.17871
▁양국	-9.17955
▁면	-9.1803
ir	-9.18033
▁까지	-9.18071
▁폭	-9.18109
▁추락	-9.18191
우리	-9.18194
▁배우	-9.18332
슈	-9.18391
▁생각한다	-9.18428
▁샤	-9.18521
▁바로	-9.18526
▁돌아	-9.18559
▁나타났다	-9.18653
▁구성	-9.18732
▁사과	-9.18758
▁발견했다	-9.1887
▁부분	-9.18953
▁악	-9.19013
▁대사관	-9.19081
▁스타	-9.19083
▁임	-9.19112
안을	-9.1921
름	-9.19289
▁관할	-9.19496
빌	-9.19625
▁동부	-9.19708
▁촬영	-9.19824
▁제품	-9.19965
▁US	-9.20024
▁전투	-9.20095
능	-9.20147
▁폭력	-9.20158
▁일이	-9.20254
▁전세계	-9.20292
▁있었던	-9.20296
▁w	-9.20333
스터	-9.20359
▁콜	-9.20366
거리	-9.20471
엘	-9.20486
▁금	-9.20534
▁감시	-9.20632
▁아기	-9.20655
▁작업	-9.20696
▁자리	-9.207
한다는	-9.20797
▁행정부	-9.20825
▁제시	-9.20875
빈	-9.20923
se	-9.2093
▁포함한	-9.2093
▁도움	-9.20934
▁정당	-9.20987
억달러	-9.21043
▁쿠	-9.21087
▁대규모	-9.21109
▁고려	-9.21237
▁주민	-9.21262
채	-9.21286
▁주도	-9.2134
▁소식	-9.2153
▁선고	-9.21736
냈다	-9.21739
ate	-9.21845
▁아닌	-9.2198
▁국내	-9.22011
패	-9.22055
▁만들어	-9.22061
업체	-9.22181
▁총격	-9.22299
사건	-9.22333
▁만들	-9.22396
있	-9.22396
▁약속	-9.22539
▁여전	-9.22596
▁회	-9.22623
월에	-9.22726
▁가지	-9.22763
▁로버트	-9.22803
▁처	-9.22837
▁기대	-9.22931
▁책임	-9.23041
기구	-9.23109
북	-9.23116
▁살고	-9.23143
기가	-9.23192
▁캐	-9.23332
▁교수는	-9.23375
▁특별	-9.23487
▁갖	-9.23573
▁작	-9.23575
▁브	-9.2366
펠	-9.2367
▁무장세력	-9.23674
하다고	-9.23755
▁가지고	-9.23795
▁장면	-9.23839
▁의원은	-9.23902
▁내려	-9.23914
송	-9.24057
▁촉구했다	-9.24074
▁국	-9.24107
▁밝혀졌다	-9.24121
퍼센트	-9.24134
▁0	-9.24309
▁보여주	-9.24321
센	-9.24325
비아	-9.24335
▁세력	-9.24517
▁온라인	-9.24547
▁작품	-9.24575
▁항의	-9.246
▁계약	-9.24606
▁2002	-9.24608
▁부대	-9.24664
톤	-9.24709
올	-9.24854
)'	-9.24887
il	-9.24947
la	-9.24956
▁규정	-9.2499
시켜	-9.25033
200	-9.25042
ion	-9.25159
시장	-9.25383
▁총선	-9.25419
▁가자지구	-9.25431
▁수단	-9.2546
▁제조	-9.2548
▁특히	-9.25506
▁순	-9.25515
▁선정	-9.25687
20	-9.25834
▁안보	-9.25844
▁붕괴	-9.25873
▁수치	-9.25886
▁연료	-9.25962
▁그들의	-9.26
▁최	-9.2604
▁수감	-9.26115
해왔다	-9.26178
▁인간	-9.26211
▁입었다	-9.26212
창	-9.26282
▁월요일	-9.2632
드는	-9.26325
ent	-9.26374
▁앤	-9.26421
▁수입	-9.26483
▁입은	-9.26485
▁LA	-9.26611
▁놓	-9.26645
관계	-9.26693
자회담	-9.26853
랜	-9.26926
▁경기에서	-9.27065
▁안에	-9.27189
▁말한다	-9.27207
▁부통령	-9.27219
▁설치	-9.27319
▁받았	-9.27332
테러	-9.27342
▁이상이	-9.27349
▁인수	-9.27401
▁책	-9.27497
척	-9.27654
▁홍콩	-9.27671
하겠다	-9.27779
술	-9.27808
▁차지	-9.27827
▁나이	-9.27848
경기	-9.2801
▁미국인	-9.28032
▁웹사이트	-9.28127
새	-9.2814
▁최종	-9.28155
▁북	-9.28183
샤	-9.28183
▁관계자가	-9.28185
▁시험	-9.28185
레스	-9.28191
쳤다	-9.2829
▁열차	-9.28291
▁퍼	-9.28378
▁작은	-9.28391
▁심각한	-9.28526
이어	-9.28582
▁푸틴	-9.28588
▁노동	-9.28687
▁판	-9.28722
▁부부	-9.28781
▁R	-9.28914
▁시민	-9.2893
▁증시	-9.29198
▁세금	-9.29221
션	-9.2927
▁창	-9.29282
▁담당	-9.29285
▁외교	-9.29334
▁시기	-9.29421
▁메시지	-9.29504
▁밝힌	-9.29507
▁필요하다	-9.29513
▁대의원	-9.29539
벨	-9.2961
▁경고했다	-9.29631
▁환자	-9.29675
▁증	-9.29826
▁없을	-9.29965
▁글	-9.30032
▁파업	-9.30061
▁가치	-9.30064
▁플로리다	-9.30175
▁개선	-9.30211
였	-9.30348
▁짐바브웨	-9.3043
▁반응	-9.30454
▁과거	-9.30471
▁축구	-9.30566
▁병	-9.30667
책	-9.30676
시키	-9.30686
▁아무	-9.30789
틴	-9.30834
▁설	-9.30853
▁주식	-9.31012
▁프로	-9.31026
되	-9.31061
줄	-9.31161
▁인기	-9.31311
▁엘	-9.31343
▁캐나다	-9.31367
▁중인	-9.31424
례	-9.31583
째	-9.31793
▁일을	-9.31804
▁외국인	-9.31829
▁마이클	-9.3184
▁움직임	-9.31845
▁암살	-9.31876
▁다양	-9.31966
슬	-9.32
▁문화	-9.32063
▁광고	-9.32069
▁발표한	-9.32085
▁가족들	-9.32106
▁학생들	-9.32108
향	-9.3216
▁화	-9.32169
▁벌였다	-9.3217
▁임명	-9.32186
수가	-9.32223
때	-9.32257
릭	-9.32265
▁비해	-9.32295
▁라디오	-9.32324
el	-9.32338
▁구속	-9.32418
로운	-9.32456
시키기	-9.32614
▁얼마	-9.32694
▁섬	-9.32718
률	-9.32755
허	-9.32969
트는	-9.33352
었	-9.33477
폐	-9.33514
▁보수	-9.33543
죄	-9.33597
▁대만	-9.33897
▁레이	-9.3409
▁서부	-9.34127
염	-9.34139
x	-9.34172
▁통제	-9.34278
턴	-9.34281
여명	-9.34326
녀	-9.3437
년부터	-9.34419
▁기록했다	-9.34434
▁강제	-9.3449
▁지역의	-9.34494
▁필	-9.34643
▁브라질	-9.34717
▁식량	-9.34761
▁위반	-9.34819
▁서로	-9.34841
▁힐	-9.3487
▁중동	-9.34898
쉬	-9.34936
▁진압	-9.34998
퇴	-9.35097
▁어머니	-9.35204
▁헬기	-9.35206
▁스미스	-9.35206
▁여름	-9.35237
▁이라크에서	-9.35282
▁넣	-9.35484
▁사라	-9.35556
▁국가들	-9.35604
▁씨	-9.35616
▁가스	-9.35626
▁케냐	-9.35699
스가	-9.357
▁실험	-9.35722
▁지지자들	-9.35749
▁지불	-9.35792
▁취소	-9.35877
▁유명	-9.35877
▁이유	-9.35952
▁머리	-9.35957
▁파리	-9.36029
겼다	-9.36068
인한	-9.36074
▁그런	-9.36077
▁수출	-9.36088
▁선언	-9.36122
칭	-9.36187
▁관광	-9.36197
▁외국	-9.36207
▁명령	-9.36248
▁국무장관	-9.36258
▁선출	-9.36268
▁울	-9.36291
이었던	-9.3631
▁내렸다	-9.36322
▁추진	-9.36355
▁했다고	-9.36434
▁기관	-9.36478
▁법안	-9.36496
럼	-9.36621
▁관리들	-9.36623
▁각각	-9.36717
▁위치	-9.36939
험	-9.36961
▁같이	-9.37072
▁장소	-9.37096
움	-9.3712
널	-9.37139
▁시아파	-9.37181
▁소송	-9.3722
국가	-9.37231
▁역	-9.37269
▁대변인이	-9.37537
▁밖에	-9.37559
▁해군	-9.3757
▁de	-9.3763
▁제출	-9.37634
▁감염	-9.37644
▁평균	-9.37693
▁시즌	-9.37697
▁탈	-9.37739
했다는	-9.37759
시키고	-9.37949
▁제한	-9.37983
이드	-9.38036
벌	-9.38077
▁후보가	-9.38109
킹	-9.38154
▁일반	-9.38201
▁권리	-9.38216
사가	-9.38347
은행	-9.38372
근	-9.38449
▁위성	-9.38465
▁배치	-9.38566
▁하원	-9.38599
▁수십	-9.38636
▁접근	-9.38695
▁경험	-9.38715
▁g	-9.38769
▁전달	-9.38781
=2	-9.38805
▁쇼	-9.3885
적이	-9.38862
▁목적	-9.38872
▁미국에서	-9.38899
▁차례	-9.3892
ce	-9.39068
▁제기	-9.39071
협회	-9.3911
▁인상	-9.39129
▁프리	-9.3917
▁과정에서	-9.39295
▁나온	-9.39363
▁않아	-9.39407
▁텍사스	-9.39475
착	-9.39505
동안	-9.39591
▁on	-9.39647
▁향	-9.39711
로스	-9.39882
▁처리	-9.40009
논	-9.40154
▁버스	-9.40292
▁파병	-9.40357
▁사건이	-9.40413
▁급	-9.40442
▁차이	-9.40508
▁전시	-9.40588
일까지	-9.40633
▁합의했다	-9.40636
▁발견됐다	-9.40638
▁거주	-9.40684
텔	-9.40707
▁사원	-9.40725
▁내무부	-9.40734
▁결의안	-9.40745
▁식	-9.40797
▁나는	-9.40825
▁사형	-9.40939
▁공연	-9.40973
▁신고	-9.4113
▁걸쳐	-9.41279
니다	-9.41282
▁당신	-9.4133
▁경찰에	-9.41376
▁일본의	-9.41397
대가	-9.414
▁귀	-9.41463
▁파견	-9.41812
경찰	-9.41823
개국	-9.41941
▁무역	-9.41996
하지만	-9.42084
▁O	-9.4217
었습니다	-9.42237
▁2007	-9.4233
▁의미	-9.4241
▁항공사	-9.42476
im	-9.42522
▁자료	-9.42537
이란	-9.4258
▁상황이	-9.42704
곤	-9.42774
▁헌법	-9.42847
▁음식	-9.42851
▁80	-9.42996
5000	-9.43001
▁사이에	-9.43131
▁살인	-9.43192
▁사실이	-9.43235
▁설명	-9.43252
▁주재	-9.4328
ck	-9.43324
얼	-9.43347
▁다리	-9.43356
스카	-9.43358
▁개혁	-9.43364
▁설립	-9.43376
▁허용	-9.43428
▁사랑	-9.43434
▁집중	-9.43453
▁센터	-9.43546
▁대비	-9.43559
▁대상으로	-9.4357
▁긴장	-9.43619
지도	-9.43774
폰	-9.43854
▁이에앞서	-9.43883
▁논쟁	-9.43883
▁안정	-9.43901
▁수요일	-9.43905
10	-9.43955
▁전국	-9.43997
▁부모	-9.44045
▁평가	-9.44089
▁위원회	-9.44124
▁J	-9.44161
▁불안	-9.44176
▁발전	-9.44192
▁대피	-9.44248
▁주지사	-9.44256
me	-9.44312
하였다	-9.44338
가지	-9.44365
▁바이러스	-9.44421
▁사퇴	-9.44486
40	-9.44501
lo	-9.44509
▁의료	-9.44533
중인	-9.44659
▁/	-9.44668
▁것과	-9.44697
▁넘어	-9.44882
ow	-9.44926
▁관계자들은	-9.44936
▁측	-9.44954
▁성폭행	-9.44955
▁500	-9.44967
▁공습	-9.45024
▁그룹	-9.45103
▁따	-9.45134
▁명이	-9.45182
▁교통	-9.45195
▁희망	-9.4528
했	-9.45325
▁부상했다	-9.45337
▁교수	-9.45409
황	-9.45424
▁목	-9.45463
냐	-9.45483
▁교황	-9.45517
▁대해서는	-9.45518
▁알려진	-9.45539
델	-9.45548
▁아내	-9.45579
▁전반	-9.45638
▁The	-9.45642
▁받는	-9.45708
▁인물	-9.45815
쪽	-9.45902
▁결정했다	-9.45921
▁학	-9.45965
▁차베스	-9.4604
▁환영	-9.46055
▁혼란	-9.46069
▁후세인	-9.46077
명으로	-9.46078
ol	-9.46085
▁압력	-9.46087
었다고	-9.46158
▁발견된	-9.46187
▁집회	-9.46204
▁한다는	-9.46257
십	-9.4649
▁단계	-9.46549
장에서	-9.46552
▁완전	-9.46579
▁관해	-9.46613
▁조건	-9.4663
킨	-9.46656
조사	-9.46787
까	-9.47019
낼	-9.47078
▁당선	-9.47095
▁부상자	-9.47104
세기	-9.47137
▁바란다	-9.47139
▁EU	-9.47156
▁유일	-9.47195
▁상대로	-9.47216
▁익명	-9.47261
알	-9.47282
통신	-9.47318
금을	-9.47353
ID	-9.47376
성이	-9.47406
▁요청했다	-9.47421
▁신원	-9.47447
▁교전	-9.47463
▁마약	-9.47496
▁교회	-9.47508
▁황	-9.47527
▁기지	-9.47584
▁그들이	-9.47595
희	-9.47662
균	-9.47672
손	-9.47799
▁구호	-9.47938
▁상당	-9.47945
이라크	-9.47952
▁터	-9.48041
라며	-9.48042
▁변호사는	-9.4807
sp	-9.48137
▁야후	-9.48279
▁대응	-9.48284
▁집단	-9.48396
▁주민들	-9.48406
▁예상된다	-9.48435
▁죽음	-9.48455
완	-9.48499
칠	-9.48639
▁질문	-9.48654
문제	-9.48681
2%	-9.48683
▁되어	-9.4874
▁이래	-9.48808
▁복귀	-9.48813
▁시리아	-9.4893
▁전역	-9.48989
▁왕자	-9.49075
하기도	-9.49187
▁좋아	-9.49364
▁이명박	-9.49364
▁밝혔습니다	-9.4937
악	-9.49476
▁구매	-9.49485
수를	-9.49523
▁로마	-9.49545
▁아직까지	-9.49554
▁크게	-9.49604
▁기사	-9.49694
▁후보는	-9.49753
▁m	-9.49807
▁남북	-9.49827
▁불만	-9.49828
▁탑승	-9.49904
▁미래	-9.49929
▁북핵	-9.49932
인들이	-9.49958
▁끝	-9.49977
▁고통	-9.50033
▁업체	-9.50099
▁중앙	-9.50131
▁고용	-9.50138
▁있지	-9.50187
3%	-9.50225
▁접	-9.50246
▁정신	-9.50289
▁받지	-9.50313
▁승	-9.50362
▁특	-9.50465
▁일어나	-9.50503
▁폭력사태	-9.50504
었으며	-9.50565
되었습니다	-9.5059
▁이곳	-9.50698
▁가정	-9.50755
볼	-9.50764
▁저장	-9.50766
▁나가	-9.50824
▁남한	-9.50825
방송	-9.50831
▁인터뷰	-9.50892
▁부정	-9.50903
▁심장	-9.51073
자와	-9.51099
리고	-9.51131
ut	-9.51203
▁사람은	-9.51208
▁뇌	-9.51216
▁임시	-9.51306
▁중국은	-9.51426
대의	-9.5145
서는	-9.51548
일부터	-9.5155
되었다고	-9.5158
▁베네수엘라	-9.51643
▁이집트	-9.51645
▁효과	-9.51657
▁표현	-9.51668
▁따라	-9.51678
▁연결	-9.51742
▁허가	-9.51763
학자	-9.51802
▁아니라고	-9.52106
롭	-9.52182
▁비밀	-9.52189
▁관계자	-9.52218
▁민주주의	-9.52234
▁따른	-9.52239
ig	-9.52242
견	-9.52414
충	-9.52538
기관	-9.52565
▁위해서는	-9.52642
으로서	-9.5269
▁사람들을	-9.52728
효	-9.52782
▁목요일	-9.52803
▁교도소	-9.52803
▁홍수	-9.52809
▁마크	-9.52812
60	-9.52857
▁홀	-9.52881
▁여론	-9.529
존	-9.5296
ist	-9.52961
▁때까지	-9.5297
▁내리	-9.53016
었던	-9.53023
▁정부와	-9.53074
ers	-9.53362
싱	-9.53387
▁검토	-9.53389
▁시카고	-9.53391
▁머	-9.53396
▁사이트	-9.53396
▁최악	-9.53397
치는	-9.53402
▁모델	-9.53438
▁쿠바	-9.5348
▁받게	-9.53481
▁실패	-9.53484
▁권력	-9.53486
리자	-9.53743
▁슈	-9.538
▁준	-9.53817
만이	-9.53844
욕	-9.53915
▁여사	-9.53924
▁여기	-9.54021
▁과정	-9.54033
자로	-9.54056
▁2001	-9.54113
▁합니다	-9.54124
▁팬들	-9.54183
시아	-9.54205
▁비판	-9.54296
▁블	-9.54325
으	-9.54403
▁라이	-9.54421
이지만	-9.54452
▁임기	-9.5446
혼	-9.54523
랄	-9.5456
▁높이	-9.54567
▁프라이머리	-9.54567
▁무장단체	-9.54585
되면서	-9.54642
▁슬	-9.5474
▁분야	-9.54756
ve	-9.54771
압	-9.54868
▁깊	-9.54871
▁가졌다	-9.54888
몬	-9.54902
▁병사	-9.54944
낸	-9.54995
▁매년	-9.55047
숙	-9.5505
▁동료	-9.55065
인들은	-9.55095
▁내부	-9.55105
▁못하고	-9.55204
▁상원의원이	-9.55208
▁진출	-9.55235
순	-9.55422
▁입원	-9.55521
그는	-9.55554
▁시민들	-9.55573
▁수색	-9.55575
▁h	-9.55627
득	-9.55673
▁두고	-9.55683
▁계획이다	-9.5569
념	-9.55705
▁철	-9.55706
지에	-9.55728
▁일요일	-9.55763
▁이해	-9.55765
▁백	-9.55766
▁분쟁	-9.55778
▁사무실	-9.55785
▁웨	-9.55822
북한	-9.5583
▁뿐	-9.55882
▁거대	-9.55892
▁해리	-9.55896
▁예측	-9.55957
▁시행	-9.5606
▁자체	-9.56084
▁보냈다	-9.56112
헌	-9.56187
▁언급했다	-9.56188
▁사는	-9.5628
▁강력한	-9.56283
▁공격으로	-9.56304
▁보건	-9.56314
▁필리핀	-9.56364
▁이끄는	-9.56367
▁완	-9.5638
▁근처	-9.56396
▁선박	-9.56433
▁수많은	-9.56472
4%	-9.56475
▁분석	-9.56501
▁be	-9.56525
▁소방	-9.56566
▁도움이	-9.56646
▁나왔다	-9.56653
▁들어가	-9.56746
▁밝혀	-9.56783
▁못한	-9.56789
베이	-9.56858
위로	-9.56896
찬	-9.56898
시티	-9.56902
거래	-9.56958
▁버지니아	-9.5697
객	-9.57116
▁유권자들	-9.57144
▁적이	-9.57242
▁밝히지	-9.57273
물을	-9.57274
▁달리	-9.57305
다면	-9.57383
▁보고서는	-9.57486
‘	-9.57489
▁사항	-9.57518
▁않았	-9.57534
느	-9.5754
좌	-9.57563
▁뉴	-9.57574
셔	-9.57579
▁오른	-9.57703
▁마리	-9.57731
기간	-9.5778
-1	-9.57789
▁향해	-9.57822
▁의장	-9.57838
▁장기	-9.5785
▁합	-9.57886
▁벤	-9.57929
▁바다	-9.58123
▁한반도	-9.58195
▁추정	-9.58259
▁선두	-9.58306
▁보여	-9.58309
▁폐	-9.5832
ge	-9.58322
▁관광객	-9.58348
▁강한	-9.5839
르는	-9.58409
▁떠나	-9.58413
▁때문	-9.5844
▁지도자들	-9.58565
▁이루	-9.58573
▁풍	-9.58603
▁형	-9.58609
▁항공기	-9.58621
800	-9.58665
법원	-9.58683
▁수익	-9.58695
▁관계자들	-9.58701
봉	-9.58731
다른	-9.58745
▁국립	-9.58845
▁UN	-9.58854
▁전력	-9.58861
▁주가	-9.58907
▁과학	-9.58914
겠다	-9.58991
▁확인했다	-9.58992
▁민	-9.59099
▁근거	-9.59133
▁상대	-9.59234
▁군대	-9.59287
▁심리	-9.59381
ho	-9.59381
철	-9.59395
▁되고	-9.59427
▁비슷	-9.59431
딘	-9.59431
▁빠져	-9.59433
▁흑인	-9.59444
▁긴급	-9.59449
▁힘들	-9.59461
주의자	-9.59489
기에	-9.59505
▁가져	-9.5953
▁누구	-9.5955
▁약물	-9.59562
▁정부에	-9.59775
관리	-9.598
였으며	-9.59906
▁타이	-9.59936
▁나머지	-9.60057
▁제거	-9.60091
▁칸	-9.60141
▁종교	-9.60145
id	-9.60153
이것은	-9.60224
▁저지	-9.60248
▁작년	-9.60263
▁주지사는	-9.60278
▁전략	-9.60302
▁않	-9.60388
필	-9.60476
▁유권자	-9.60513
ment	-9.6058
스크	-9.60587
ne	-9.60591
원은	-9.60595
▁지진	-9.60605
▁올랐다	-9.60685
▁전자	-9.60687
▁사우디	-9.60705
▁맺	-9.60717
▁범인	-9.60806
▁소비자	-9.61069
인지	-9.61153
괴	-9.61199
▁막기	-9.61205
▁소년	-9.61264
▁목숨	-9.61319
▁숨지고	-9.61324
사회	-9.61419
▁육	-9.61427
안에	-9.61471
▁희생자	-9.61481
▁소재	-9.61507
▁대중	-9.6171
스톤	-9.61718
여명이	-9.61855
컵	-9.61952
▁도쿄	-9.61955
리가	-9.61969
▁소리	-9.61977
#	-9.62009
▁진행되	-9.62013
▁다음달	-9.62016
▁만든	-9.62063
이라	-9.62181
▁오르	-9.62239
▁1000	-9.62363
▁정상회담	-9.62605
스와	-9.62608
몰	-9.62671
▁선수들	-9.62697
▁분리	-9.62699
▁국방장관	-9.62702
웨	-9.62758
▁녹	-9.62855
들도	-9.62955
택	-9.62982
징	-9.63178
▁제임스	-9.63242
▁감사	-9.63253
▁어느	-9.63274
▁근무	-9.6331
▁대사	-9.63326
섬	-9.63337
▁집행	-9.63341
▁제외	-9.63407
음을	-9.63431
부는	-9.63444
▁북한에	-9.63448
▁오래	-9.63479
▁받았다고	-9.63524
▁없었	-9.6353
▁악화	-9.63538
▁소식통	-9.63554
되며	-9.63662
▁사람들에게	-9.63696
▁주장하고	-9.63726
▁있다며	-9.63726
▁가능한	-9.63753
op	-9.63814
▁st	-9.64022
ive	-9.64061
▁올리	-9.64115
▁법정	-9.64147
▁혼	-9.6435
▁놀	-9.64468
한다면	-9.64517
▁경찰관	-9.6454
▁싶다	-9.64544
▁외무부	-9.64545
▁충격	-9.64563
▁출발	-9.646
▁만큼	-9.64613
▁착륙	-9.64646
▁즐	-9.6477
▁질문에	-9.64797
▁넘는	-9.64839
▁이라크전	-9.64936
▁노조	-9.64986
▁항	-9.65003
▁총기	-9.65081
취	-9.65083
▁현대	-9.65146
▁인질들	-9.65204
▁적어도	-9.65204
▁뛰어	-9.65204
▁군부	-9.65274
분기	-9.65277
▁아니	-9.65285
▁정도로	-9.65289
▁충	-9.65407
행위	-9.65646
▁끝에	-9.65649
▁것이라	-9.65776
▁되었다	-9.65806
럽	-9.65811
자금	-9.65884
▁동의	-9.65921
▁보낸	-9.65928
당한	-9.65981
▁냉	-9.66099
▁곳에서	-9.66121
▁여당	-9.66133
▁가까	-9.66204
▁재정	-9.66259
마다	-9.66355
즈는	-9.66395
▁붙	-9.6642
우스	-9.6643
▁작가	-9.66476
▁작업을	-9.66485
스러운	-9.66509
▁어떠한	-9.66531
▁허리케인	-9.66531
젠	-9.66531
▁의혹	-9.66581
▁패배	-9.66595
▁수천	-9.66789
만한	-9.66795
선거	-9.66856
▁자국	-9.66922
장관	-9.66982
▁공장	-9.67044
70	-9.67065
▁접촉	-9.67206
관은	-9.67222
▁떠	-9.67288
▁수천명	-9.6732
▁동결	-9.67326
▁직	-9.67366
였습니다	-9.67473
▁공공	-9.67473
▁인사	-9.67492
▁후에	-9.6755
▁발생했다고	-9.67597
▁하기	-9.67661
▁전문가	-9.67678
Y	-9.67751
▁티	-9.6783
▁무엇	-9.67855
위에	-9.6786
씩	-9.67878
▁쿠르드	-9.67878
▁35	-9.67885
Ch	-9.67936
▁일자리	-9.67938
▁출마	-9.68031
▁응	-9.68044
둔	-9.68068
▁승객	-9.68107
▁직원들	-9.6821
▁보장	-9.68221
▁중에	-9.68229
▁다이애나	-9.68291
브라	-9.68306
▁지속	-9.68348
어질	-9.68456
▁끌어	-9.68558
▁없어	-9.68558
▁확대	-9.68558
▁모른다	-9.68559
▁폭풍	-9.68567
▁압박	-9.68572
▁삶	-9.68658
▁이달	-9.68693
▁여성이	-9.68707
▁양측	-9.68717
▁유명한	-9.68749
었고	-9.68835
귀	-9.68841
▁푸	-9.68941
▁나와	-9.68979
▁되지	-9.69047
▁300	-9.69138
▁발생해	-9.69173
all	-9.69203
홍	-9.6923
렬	-9.69231
7%	-9.6925
▁전기	-9.69272
▁증언	-9.69276
▁주의	-9.69278
▁고문	-9.69452
대통령	-9.69494
▁쉬	-9.69621
▁입고	-9.69711
스키	-9.69827
빙	-9.6987
제를	-9.69931
▁어려움	-9.69937
▁사상	-9.69983
▁유죄	-9.70038
▁완화	-9.7005
▁등의	-9.70065
▁여성들	-9.70082
▁피해자	-9.70201
▁방문한	-9.70202
▁찰스	-9.70209
J	-9.70241
▁자연	-9.70268
▁사진을	-9.70294
▁깨	-9.70323
▁동원	-9.70328
겠다고	-9.70403
ap	-9.70473
▁오바마가	-9.70481
▁외무장관	-9.70628
▁확신	-9.70658
▁환	-9.70695
▁기후	-9.70772
▁수백	-9.70784
▁미군이	-9.70834
▁작성	-9.7084
ot	-9.70863
▁묻	-9.70866
었지만	-9.70909
▁지배	-9.70923
니스	-9.7094
▁대표는	-9.70982
▁십	-9.71038
▁아주	-9.71045
▁유로	-9.71123
▁군인	-9.71133
▁듯	-9.7124
ly	-9.71261
▁로켓	-9.71317
▁소말리아	-9.71326
▁목소리	-9.71327
▁홍보	-9.71332
▁소녀	-9.71379
▁경매	-9.71422
였다고	-9.71484
▁지도자인	-9.71505
▁것인지	-9.71515
▁병원에	-9.71606
▁대해서	-9.71626
암	-9.71698
▁끝나	-9.71785
▁마음	-9.71859
▁그리스	-9.71994
▁주민들이	-9.7202
▁시상식	-9.72031
백만	-9.72032
▁능력	-9.72036
▁않았지만	-9.72067
마일	-9.72097
▁대화	-9.72159
▁바람	-9.72179
▁체포됐다	-9.72238
▁가질	-9.72277
센트	-9.72279
▁현장	-9.72305
▁바라	-9.72513
▁존스	-9.72531
▁시간이	-9.7261
▁공군	-9.72612
해졌다	-9.72681
ay	-9.7273
j	-9.7274
▁신뢰	-9.72756
▁평양	-9.72791
ill	-9.72797
월부터	-9.72802
▁숨진	-9.72878
▁나오	-9.7289
▁등록	-9.72897
▁심각	-9.72898
운동	-9.72914
▁총재	-9.72933
▁적용	-9.72972
▁망명	-9.72991
▁연장	-9.73044
▁해제	-9.73191
▁언론은	-9.73192
▁모르	-9.73377
켓	-9.73434
▁게이츠	-9.73456
▁취임	-9.73491
▁머물	-9.73513
왔	-9.73515
▁절차	-9.7355
▁연구소	-9.7356
니아	-9.73571
80	-9.73594
▁카운티	-9.73595
타임	-9.73804
막	-9.73805
▁의원들	-9.73829
주는	-9.73832
표를	-9.73856
▁관련해	-9.73879
힐	-9.73927
▁카메라	-9.73958
▁사건은	-9.74011
▁대법원	-9.74023
옥	-9.74115
▁말레이시아	-9.74174
▁프로젝트	-9.74174
▁휴대폰	-9.74174
싼	-9.74174
▁걱정	-9.74174
▁트럭	-9.74179
▁목격	-9.74207
▁법적	-9.74218
up	-9.74265
슨은	-9.74304
▁잔	-9.74329
했는데	-9.74351
▁존재	-9.74355
▁목표로	-9.74394
▁그것은	-9.74431
조치	-9.74452
▁반대하는	-9.74463
▁아베	-9.74466
▁바이	-9.74478
▁서명	-9.74488
▁강력	-9.74504
est	-9.74525
▁기억	-9.74559
▁벨	-9.74632
쇼	-9.74656
▁최고의	-9.74659
▁소비	-9.74678
갑	-9.74786
▁유세	-9.74786
드로	-9.74803
▁보이는	-9.74819
닝	-9.74898
▁느끼	-9.74898
▁청와대	-9.749
▁아무런	-9.74923
▁여왕	-9.74925
▁물론	-9.75065
6%	-9.75201
▁당선인	-9.7524
▁크리스	-9.75297
▁신용	-9.753
스턴	-9.75442
▁못하	-9.7547
영화	-9.75494
▁젊은	-9.75526
▁힐튼	-9.75648
▁순간	-9.75715
▁항상	-9.75741
▁등을	-9.75851
▁영어	-9.76081
제도	-9.76132
▁촉구	-9.76143
▁지점	-9.76162
The	-9.76165
폭탄	-9.76222
▁술	-9.7626
중국	-9.7627
▁운전	-9.76292
▁전문	-9.76339
도시	-9.76361
▁신화통신	-9.76363
웰	-9.76363
▁마드리드	-9.76364
▁이라크에	-9.76637
으려	-9.76678
활동	-9.76962
▁지역을	-9.76972
셀	-9.76993
연합	-9.7702
▁들고	-9.77033
정책	-9.77061
텐	-9.77097
젤	-9.77104
▁박물관	-9.77104
▁밝혀지지	-9.77106
▁운행	-9.7712
▁오픈	-9.77133
▁투입	-9.77148
▁지하	-9.77153
▁놓고	-9.77202
▁신청	-9.77277
▁옷	-9.77293
▁사기	-9.77302
▁그린	-9.77382
▁수석	-9.77394
▁자주	-9.77523
전에	-9.7759
▁경제적	-9.77607
▁수용	-9.77739
X	-9.7785
▁법률	-9.77882
▁국제사회	-9.77889
▁상징	-9.77905
▁법안을	-9.77935
▁고래	-9.77996
세트	-9.78159
▁해야	-9.7817
▁도중	-9.78179
장에	-9.78414
궁	-9.78426
시설	-9.78472
들로	-9.78485
▁만약	-9.78486
뉴	-9.78495
11	-9.78502
럴	-9.7857
공격	-9.78576
▁챔피언	-9.78602
▁나타나	-9.78604
▁수니파	-9.78605
▁있음을	-9.78621
▁이수지	-9.78634
▁같	-9.78642
▁시작된	-9.78672
대표	-9.78685
▁판단	-9.78697
▁집권	-9.78728
쟁	-9.78775
▁좀	-9.78787
▁도전	-9.78854
ia	-9.789
▁확산	-9.78982
▁비상	-9.7899
▁굴	-9.7909
der	-9.79117
▁선거에서	-9.7916
왕	-9.79211
▁90	-9.79242
▁미군은	-9.79245
접	-9.79263
짓	-9.79315
뤄	-9.79355
팅	-9.7936
▁얼굴	-9.7936
▁베컴	-9.79373
▁본부	-9.79388
▁토론	-9.79403
19	-9.79416
스코	-9.7947
▁연속	-9.79499
▁이전에	-9.79513
▁헌	-9.79543
▁집계	-9.79545
▁비자	-9.79554
국장은	-9.79561
te	-9.79562
75	-9.79586
▁피터	-9.79627
▁윌리엄	-9.79656
)/	-9.79717
▁벌금	-9.79759
▁늘어	-9.80045
▁수반	-9.80048
▁회담에서	-9.80091
으면	-9.80093
회사인	-9.80094
▁민주	-9.80117
▁동시	-9.80118
닐	-9.80123
▁올메르트	-9.80123
▁잉글랜드	-9.80123
▁아파트	-9.80125
▁억류	-9.80129
▁애플	-9.80161
로써	-9.80213
▁전까지	-9.80219
▁부패	-9.80237
자들의	-9.8024
▁구입	-9.80263
▁정말	-9.80287
학교	-9.80294
▁가수	-9.80456
▁진정	-9.80456
▁프	-9.80473
▁워	-9.80624
▁자녀	-9.80716
산업	-9.80732
만명이	-9.80809
▁미국인들	-9.80821
핑	-9.80881
▁연설에서	-9.80885
▁스포츠	-9.80893
▁전통	-9.8092
▁기회	-9.80929
▁아랍	-9.8093
달러를	-9.80969
▁찬성	-9.81026
▁물질	-9.81027
▁분노	-9.81053
장관은	-9.8111
▁연합군	-9.81127
▁영상	-9.81154
지역에서	-9.81195
▁정부군	-9.81214
객들	-9.81261
▁차기	-9.81366
▁사상자	-9.81367
▁부문	-9.81395
▁지연	-9.81423
▁마르	-9.81502
잉	-9.8161
해진	-9.81656
▁겪고	-9.81668
뿐만아니라	-9.81668
▁크리스마스	-9.81668
▁직후	-9.81691
▁확실	-9.81729
▁마무리	-9.81773
▁대형	-9.82016
con	-9.82194
▁한미	-9.82236
▁개의	-9.82283
▁낮	-9.82284
▁땅	-9.82316
V	-9.82417
▁블레어	-9.82449
▁블랙	-9.82453
▁강조	-9.82457
▁축하	-9.82508
▁주민들은	-9.82527
▁체포했다	-9.82544
니는	-9.82588
시킨	-9.82639
▁핵심	-9.82691
▁대처	-9.82712
700	-9.82714
▁곳에	-9.82736
보호	-9.82764
▁외교부	-9.82778
▁모여	-9.82896
9%	-9.82986
킬	-9.83006
▁마감	-9.83016
cat	-9.83043
▁선포	-9.83161
▁고양이	-9.83238
윈	-9.83241
폴	-9.83245
▁늘	-9.83287
▁임신	-9.83326
▁영국의	-9.83389
ak	-9.83438
▁휴전	-9.83471
▁경계	-9.83478
▁한국은	-9.83519
▁수정	-9.83546
▁있는지	-9.83546
했는지	-9.83559
▁밝히	-9.83576
▁사살	-9.83585
▁가능	-9.83592
▁시대	-9.83665
▁동맹	-9.83704
활	-9.83752
작전	-9.83791
드리	-9.83834
트리	-9.83868
mo	-9.83917
놓	-9.83967
▁구제	-9.83973
▁찬	-9.83986
▁당했다	-9.84029
▁협의	-9.8403
▁비상사태	-9.84035
라운드	-9.84036
▁몇몇	-9.84037
▁언제	-9.84038
▁스스로	-9.84041
▁원자로	-9.84086
▁산불	-9.84088
ver	-9.84199
▁그러	-9.84275
▁나토	-9.84361
▁난민	-9.84572
군이	-9.846
▁성인	-9.84633
▁요원	-9.84633
▁병원에서	-9.84634
▁팬	-9.8465
▁약간	-9.84672
빠	-9.84722
▁씨는	-9.84757
▁있었	-9.84797
롤	-9.8482
▁이밖에	-9.8483
▁빠른	-9.8483
▁클럽	-9.84831
▁탁신	-9.84831
▁빠르	-9.84834
▁보이고	-9.84839
▁맞아	-9.84839
▁BBC	-9.84844
▁처벌	-9.84846
▁감축	-9.84895
▁최신	-9.84909
▁노출	-9.84991
▁소지	-9.85175
▁클라	-9.85187
어진	-9.85207
▁전해	-9.85353
▁풀	-9.85407
▁문서	-9.8542
▁소장	-9.85456
▁헬	-9.85501
▁무사	-9.85504
ee	-9.85552
▁보안관	-9.85608
▁떨어져	-9.85636
▁협정	-9.85636
▁높다	-9.85637
▁할리우드	-9.85637
▁일어난	-9.85637
▁업무	-9.85641
력이	-9.85648
▁고속도로	-9.8565
TA	-9.85654
함으로써	-9.85664
▁절반	-9.85689
트로	-9.85743
특	-9.85759
끼	-9.85785
상의	-9.85852
▁단지	-9.85855
▁조금	-9.85876
▁대기	-9.85972
▁현상	-9.85975
▁실시된	-9.86016
이었다고	-9.86057
▁유사	-9.86099
▁보이지	-9.86109
사의	-9.86163
▁차지했다	-9.86163
▁대책	-9.86195
▁이란이	-9.86201
▁이틀	-9.86276
ies	-9.86314
▁트레	-9.86355
joins	-9.86448
▁스피어스	-9.86449
겐	-9.86449
▁코소보	-9.8645
국인	-9.86469
▁케	-9.86483
혹	-9.86508
▁나타냈다	-9.86523
▁오랜	-9.86552
하길	-9.86585
▁돌아가	-9.86614
▁엔	-9.86616
기업	-9.86639
▁조작	-9.86662
▁실수	-9.86704
▁내각	-9.86732
▁알려지	-9.86786
▁중이다	-9.8679
▁의원이	-9.86814
▁강타	-9.86821
▁나무	-9.86855
▁가량	-9.86877
▁장군	-9.86916
월까지	-9.86978
▁치안	-9.87033
선수	-9.87051
▁발생할	-9.87054
▁받	-9.87128
▁컨	-9.8717
▁받기	-9.87178
▁아마	-9.8718
▁이와같	-9.87231
▁대화를	-9.87252
▁북한과	-9.87266
렉	-9.87269
▁찾기	-9.87269
▁크리스토퍼	-9.87269
▁샤리프	-9.87269
▁민병대	-9.8727
ight	-9.87278
▁결론	-9.87368
▁이미지	-9.87418
▁사망했으며	-9.87509
▁부인했다	-9.87535
▁낮은	-9.8754
▁개정	-9.87568
▁보좌관	-9.87577
▁그에게	-9.87647
▁않겠다	-9.87683
▁지켜	-9.877
▁윌리엄스	-9.87774
▁실제	-9.87799
▁이송	-9.87823
▁70	-9.87852
▁놀라	-9.87992
▁압	-9.88059
경제	-9.88086
▁아카데미	-9.88096
▁오랫동안	-9.88096
꺼	-9.88096
햄	-9.88096
cnn	-9.88097
헤	-9.88115
▁방향	-9.88131
▁개봉	-9.88137
▁초기	-9.88143
▁태양	-9.88148
▁Korean	-9.88178
▁확실히	-9.88198
▁공원	-9.88288
▁노래	-9.88291
뉴스	-9.8832
▁매일	-9.88369
▁납	-9.88461
▁의심	-9.88505
▁원조	-9.88513
▁소식을	-9.887
▁알게	-9.88754
되었	-9.88833
▁그렇게	-9.88929
▁지지율	-9.88991
▁대표팀	-9.88992
▁파악	-9.88995
▁개입	-9.89039
▁위기에	-9.89039
▁추방	-9.89094
▁고든	-9.89098
ht	-9.89117
▁생존자	-9.89274
▁트	-9.89289
▁상황에서	-9.89308
▁후반	-9.89315
co	-9.89353
화를	-9.89439
▁수백명	-9.89462
▁케이	-9.89522
▁말하고	-9.89558
▁150	-9.8962
▁이용해	-9.89631
지르	-9.89707
▁약속했다	-9.89709
라이트	-9.89714
상태	-9.89742
딩	-9.89754
▁해당	-9.89764
덕	-9.89766
▁나섰다	-9.89769
▁네덜란드	-9.89769
피트	-9.8986
▁다쳤다	-9.89874
▁민간	-9.89877
▁기자회견	-9.89897
tp	-9.89946
▁화성	-9.89998
▁기반	-9.90046
▁블로그에	-9.90058
▁지도	-9.90066
▁보유	-9.90079
▁집에서	-9.90104
▁원유	-9.90121
▁왔	-9.90131
▁둔	-9.90148
▁손상	-9.9016
▁지키	-9.90215
▁목사	-9.90234
▁소식통은	-9.90259
▁보기	-9.9028
▁수백만	-9.90292
▁데이	-9.9031
▁경찰과	-9.90368
▁대통령에게	-9.90417
▁이혼	-9.90426
▁단어	-9.90435
한국	-9.90439
▁월드컵	-9.90449
25	-9.90542
://	-9.90615
▁확정	-9.90617
▁무가베	-9.90619
▁먼저	-9.9062
▁하워드	-9.90637
▁담배	-9.90701
풍	-9.90707
▁보험	-9.90715
전에서	-9.90757
▁즉	-9.90773
▁예산	-9.90775
▁증가했다	-9.90775
▁탐사	-9.90793
▁그들	-9.90804
업자	-9.9081
▁부르	-9.91064
▁실종	-9.91073
▁희생	-9.91081
▁시점	-9.91176
▁성적	-9.91182
▁니	-9.91232
▁기회를	-9.91238
▁32	-9.91281
▁알아	-9.91341
▁수는	-9.91372
▁방해	-9.91446
▁찾는	-9.91471
▁캠프	-9.91471
▁세르비아	-9.91471
Total	-9.91475
code	-9.91477
겠지만	-9.91485
사인	-9.91489
▁배럴	-9.91509
▁있었으며	-9.91527
▁철회	-9.91535
▁모습	-9.91536
▁사례	-9.91585
▁외교관	-9.91714
▁쥐	-9.91774
둘	-9.91774
TV	-9.91794
짐	-9.91837
▁속에	-9.91927
▁후보에	-9.91938
▁대북	-9.91966
▁연구진	-9.92002
▁날씨	-9.92052
ma	-9.92053
▁대체	-9.92108
▁베이	-9.92109
▁증명	-9.92134
▁금리	-9.92142
사태	-9.92168
항공	-9.92179
▁구성된	-9.92179
▁크기	-9.92182
▁후보로	-9.92192
해주	-9.92204
명에	-9.92206
탕	-9.92217
▁박사	-9.9222
▁요구한	-9.92246
어야	-9.92263
▁조정	-9.92305
▁못할	-9.92319
▁우크라이나	-9.92334
▁펜실베이니아	-9.92334
▁태풍	-9.92347
▁알려져	-9.9235
하려고	-9.92362
▁통합	-9.92399
됐지만	-9.92419
▁위원장은	-9.92494
▁사용하는	-9.92518
▁교체	-9.92528
위원회는	-9.92537
▁대표단	-9.92538
▁연루	-9.92573
줬다	-9.9262
▁그것	-9.92631
▁위험한	-9.9264
▁명단	-9.92642
▁지급	-9.92668
주년	-9.92678
▁함	-9.92712
▁45	-9.92763
▁휴가	-9.9279
라스	-9.92837
웨이	-9.92854
버그	-9.92904
age	-9.92956
▁남성이	-9.93004
▁참석한	-9.9304
▁의한	-9.93066
▁보상	-9.9311
자들에게	-9.93195
촌	-9.93198
▁있는데	-9.93201
▁모하메드	-9.93203
▁스티븐	-9.93203
▁침체	-9.93206
▁피랍	-9.93222
파운드	-9.93229
▁1999	-9.93236
▁남아있	-9.9326
▁2009	-9.9326
▁진입	-9.93284
▁휘	-9.93374
▁손실	-9.93374
▁벌인	-9.93471
▁재산	-9.93582
▁윤	-9.93643
▁이행	-9.9366
▁니콜라	-9.93731
▁폐기	-9.93777
▁다수	-9.93885
▁중국이	-9.93899
▁#	-9.94003
▁시작됐다	-9.94048
헨	-9.94072
▁웹사이트에	-9.94079
몽	-9.9408
▁빨리	-9.9408
▁정확한	-9.9408
▁조종사	-9.94081
▁분위기	-9.94083
▁400	-9.94083
▁쇼핑	-9.9409
▁마이크	-9.94092
▁경찰서	-9.94106
▁질병	-9.94144
▁진술	-9.94164
▁해변	-9.94201
▁견	-9.9422
▁궁	-9.94286
참	-9.94299
▁삼성	-9.94308
▁그래	-9.94314
▁분명	-9.94336
달하는	-9.94341
▁어린	-9.94389
▁영향력	-9.94405
필드	-9.94417
▁진전	-9.94485
이션	-9.94492
▁군인들	-9.94495
▁표시	-9.94536
▁NASA	-9.94592
▁기자는	-9.94933
닉	-9.94964
쯤	-9.94965
▁스티브	-9.94967
▁부동산	-9.94967
▁엄마	-9.9497
▁흔들	-9.94972
▁규제	-9.94978
▁국왕	-9.94979
▁경영	-9.94999
짜리	-9.95109
클레	-9.95117
▁회원	-9.95129
으로써	-9.95139
▁특사	-9.95252
▁실시한	-9.9528
▁In	-9.95282
▁현장에	-9.95401
같은	-9.95414
▁인정했다	-9.95473
▁둘	-9.95485
▁얻었다	-9.95511
▁St	-9.95563
▁들었다	-9.95616
▁당선자	-9.95651
▁그중	-9.95736
▁않기	-9.95746
▁사무총장은	-9.95794
탑	-9.95858
▁저녁	-9.95858
컬	-9.95858
▁자살폭탄테러	-9.95858
▁장난감	-9.95858
▁콘돌	-9.9587
▁대답	-9.95905
▁긴	-9.95998
▁알려	-9.96069
▁테러로	-9.9607
▁위원장	-9.96091
세계	-9.96136
▁승무원	-9.96189
▁통치	-9.96202
▁충분	-9.96216
▁스테	-9.96299
▁하락했다	-9.96322
▁무력	-9.96348
▁위해서	-9.96353
▁왜	-9.9639
ab	-9.96409
▁말한	-9.96617
멘	-9.96739
▁태도	-9.96748
렛	-9.96759
▁줄어들	-9.9676
▁아바스	-9.96763
▁며칠	-9.9677
▁형태	-9.96783
ant	-9.96795
▁장애	-9.96834
▁가격이	-9.96837
비치	-9.96874
라도	-9.96904
▁예방	-9.96932
▁기울	-9.96989
▁지도부	-9.97048
▁이웃	-9.97052
▁인식	-9.97129
소를	-9.97137
잔	-9.972
2008.0	-9.97204
AN	-9.97273
▁도착했다	-9.97441
▁시청	-9.9748
▁아부	-9.97566
대에	-9.97571
▁토요일	-9.9767
2009.06	-9.97676
▁네팔	-9.97677
개월간	-9.97718
프라	-9.9786
▁않으면	-9.9799
▁전망이	-9.98016
▁최소한	-9.98021
푸	-9.98027
▁떨어졌다	-9.98138
▁문제로	-9.9815
휴	-9.98168
▁방어	-9.98263
▁강도	-9.98357
▁자신들이	-9.9836
진다	-9.98374
▁아직도	-9.98374
▁수사관	-9.98381
▁살해한	-9.98416
▁콘	-9.9849
▁공정	-9.98556
뜨	-9.98559
▁징역	-9.98559
▁청소년	-9.98586
▁테이프	-9.98588
▁시리즈	-9.98589
▁파타	-9.98612
더라도	-9.98624
▁노대통령	-9.98634
▁점령	-9.98683
졌으며	-9.9873
▁FBI	-9.9876
▁하며	-9.9877
▁반발	-9.9887
▁돼	-9.9889
▁지출	-9.98955
15	-9.99039
개발	-9.99045
▁낙	-9.99098
▁입국	-9.99119
▁기타	-9.9923
▁무시	-9.99304
▁색	-9.9938
대회	-9.994
▁지휘	-9.99413
꾸	-9.99432
▁가자	-9.99503
;	-9.99511
▁순찰	-9.99536
▁장악	-9.99557
▁노벨	-9.99584
ity	-9.99645
▁형성	-9.99679
리오	-9.99684
65	-9.99722
▁만들었다	-9.99857
▁생명	-9.99909
국민	-9.99936
▁결승	-10.0003
▁내린	-10.0007
▁사용할	-10.0024
구역	-10.0026
되면	-10.0036
▁살아	-10.0039
▁송	-10.004
▁일본은	-10.0041
▁쉽게	-10.0045
▁침해	-10.0046
▁탈출	-10.0049
▁솔	-10.0051
▁타격	-10.0057
▁감행	-10.006
▁즉시	-10.0061
ry	-10.007
련	-10.0083
▁대상	-10.0083
혔다	-10.0083
▁통화	-10.0096
걸	-10.0103
주간	-10.0105
▁요구하는	-10.0106
계획	-10.0107
오바마	-10.0107
▁싸	-10.0109
▁상황에	-10.0112
▁오하이오	-10.0113
▁끼	-10.0119
덴	-10.0135
州	-10.0139
셰	-10.0139
▁나타내	-10.0139
▁유럽연합	-10.0143
▁자택	-10.0146
▁실망	-10.0147
▁직면	-10.015
▁연락	-10.0151
▁한번	-10.0155
▁기준	-10.0157
▁몰아	-10.0167
▁사령관	-10.0168
▁당한	-10.0172
▁추측	-10.0174
▁웹	-10.0174
▁복제	-10.0188
▁것처럼	-10.019
▁호소	-10.0191
응	-10.0195
▁의문	-10.0199
44	-10.0199
콜	-10.0202
▁전문가들	-10.0208
▁지지자	-10.0209
그룹	-10.0209
400	-10.0209
ha	-10.0216
▁방식	-10.0219
▁소수	-10.0232
딜	-10.0234
Z	-10.0234
▁엘리자베스	-10.0234
램	-10.0234
픽	-10.0234
▁폭격	-10.0239
▁선거운동	-10.0239
▁의장은	-10.0241
▁만족	-10.0244
▁복용	-10.0251
ess	-10.0252
47	-10.0254
▁남북한	-10.0261
▁상품	-10.0262
▁중요하다	-10.0265
▁한국과	-10.0266
64	-10.027
▁우주선	-10.0273
▁연관	-10.0273
준다	-10.0274
된다고	-10.0274
▁토니	-10.0277
▁공화당의	-10.028
린다	-10.0281
달러에	-10.0305
53	-10.0306
▁주에서	-10.0312
▁말라	-10.0315
▁봉	-10.0317
▁소프트웨어	-10.033
▁협조	-10.033
▁스위스	-10.0331
▁활용	-10.0331
▁론스타	-10.0331
▁잭슨	-10.0331
▁차관	-10.0334
▁예술	-10.0334
▁끝난	-10.0335
▁육군	-10.0337
▁화산	-10.034
▁구글	-10.0342
▁MS	-10.0355
량이	-10.0357
▁회담은	-10.0364
쳤	-10.0365
▁현장에서	-10.0366
▁대출	-10.0368
▁영국군	-10.0372
▁자산	-10.0377
▁속에서	-10.0386
▁결과가	-10.0387
육	-10.0391
들어	-10.0403
캐	-10.0404
▁실제로	-10.0405
▁총선에서	-10.0419
▁밝	-10.0419
out	-10.0424
▁이르는	-10.0427
▁페르베	-10.0427
▁핵실험	-10.0427
▁김정일	-10.0428
▁축제	-10.0429
▁매장	-10.043
▁갖추	-10.0431
함에따라	-10.0443
▁""	-10.0443
▁자격	-10.0449
▁대사는	-10.0454
주에서	-10.0464
▁신경	-10.0465
어스	-10.0473
▁우선	-10.0477
77	-10.0477
▁주로	-10.0479
▁짐	-10.0484
지수	-10.0485
▁모습이	-10.0487
▁일부는	-10.0491
▁홈	-10.0493
49	-10.0503
밤	-10.051
▁장치	-10.051
▁잘못	-10.0514
닌	-10.0517
▁일으키	-10.0525
▁기독교	-10.0525
▁사이클론	-10.0527
▁1997	-10.0528
▁킹	-10.0531
▁되면	-10.0531
▁가는	-10.0534
▁귀국	-10.0539
▁결혼식	-10.054
▁공식적으로	-10.0545
▁시위자들	-10.0547
▁신속	-10.0548
▁등이	-10.0549
46	-10.055
▁지적	-10.0564
▁동물원	-10.0571
52	-10.0571
▁상점	-10.0572
▁조사하고	-10.0579
▁아래	-10.058
베리	-10.0582
트라	-10.0609
600	-10.061
드라	-10.0619
▁Iraq	-10.0624
▁뉴질랜드	-10.0624
▁아르헨티나	-10.0624
▁헤럴드	-10.0624
▁매들린	-10.0624
▁North	-10.0624
qu	-10.0625
▁1998	-10.0627
12	-10.0631
▁내놓	-10.0635
▁체포된	-10.0642
측이	-10.0645
장인	-10.0649
▁구체적인	-10.0651
▁받아들이	-10.0653
▁유리	-10.0656
▁주는	-10.0668
▁요구를	-10.0674
▁파손	-10.0681
▁총리와	-10.0691
▁걸어	-10.0701
▁관광객들	-10.0702
▁길이	-10.0702
칸	-10.0711
홀	-10.0711
▁포함되어	-10.0712
생활	-10.072
to	-10.0721
▁CBS	-10.0724
▁드러났다	-10.0724
▁이끌어	-10.0724
7000	-10.0727
▁있으나	-10.0729
▁올렸다	-10.0732
▁의료진	-10.0738
▁가입	-10.074
▁압둘라	-10.0741
▁수용소	-10.0742
정보	-10.0745
려고	-10.0749
▁나달	-10.0755
▁지지하는	-10.0766
▁해산	-10.0778
▁사무	-10.079
리그	-10.0804
▁마치	-10.081
BA	-10.0812
▁대단	-10.0813
▁중이라고	-10.0815
만큼	-10.0816
▁기구	-10.0819
조직	-10.0824
▁V	-10.0824
▁얘기	-10.0825
▁캠페인	-10.0825
켄	-10.0825
`	-10.0825
PPP	-10.0826
▁해고	-10.0826
▁멜	-10.0827
▁빛	-10.083
▁벗어나	-10.0838
▁가르	-10.0838
▁변경	-10.0839
ear	-10.0843
▁성화	-10.0854
▁강경	-10.0858
▁즐기	-10.0862
▁이곳에서	-10.0866
▁보석	-10.0869
▁성공했다	-10.0887
▁의도	-10.089
ke	-10.09
▁중국과	-10.0907
▁인하	-10.0909
원들은	-10.0923
▁리버풀	-10.0928
▁싱가포르	-10.0928
▁좋지	-10.0928
▁케네디	-10.0928
꾼	-10.0928
▁착수	-10.0928
▁답변	-10.0928
▁루이스	-10.0931
▁주인공	-10.0931
▁행정	-10.0933
▁불참	-10.0934
▁에이즈	-10.0934
▁달성	-10.0934
-3	-10.0935
▁폭행	-10.0936
kg	-10.0937
▁지진으로	-10.0937
▁만드는	-10.0939
▁대부분은	-10.094
▁등장	-10.0942
▁민주화	-10.0944
▁관여	-10.0948
▁실행	-10.095
▁상업	-10.095
▁비교	-10.0955
▁경선에서	-10.0964
▁이민	-10.0964
ard	-10.0967
▁해결하기	-10.0974
▁국제적	-10.0977
▁학대	-10.0978
▁소개	-10.0979
▁중요	-10.0979
▁영국에서	-10.0981
▁포함해	-10.0981
▁높아	-10.0983
대사	-10.0984
▁투자자들	-10.1002
▁곳으로	-10.1007
▁주석	-10.1009
▁혹	-10.101
탁	-10.102
농	-10.1022
들로부터	-10.1023
훈	-10.1031
▁맨체스터	-10.1031
▁우라늄	-10.1031
▁DNA	-10.1031
▁열린우리당	-10.1031
▁드라마	-10.1031
▁벌어진	-10.1032
▁않도록	-10.1033
▁음반	-10.1033
▁방침	-10.1036
▁1980	-10.1038
po	-10.104
슬리	-10.1042
사고	-10.1045
▁반정부	-10.105
▁안보리	-10.1051
▁행진	-10.1052
▁소요	-10.1055
▁회담에	-10.1056
▁회원국	-10.1059
▁장식	-10.1065
4000	-10.1069
▁터키군	-10.1071
▁결승전	-10.1085
▁그와	-10.1091
▁기자들	-10.1093
▁수영	-10.1099
▁맞서	-10.1102
▁지수는	-10.1109
결과	-10.1111
분간	-10.1123
▁어린이들	-10.1127
▁포드	-10.1127
▁기본	-10.113
▁포르투갈	-10.1135
▁휘발유	-10.1135
▁페일린	-10.1135
▁첼시	-10.1135
▁질환	-10.1139
▁음모	-10.114
EU	-10.1141
▁가득	-10.1141
▁요구하고	-10.1145
▁때문이다	-10.1146
▁250	-10.1148
▁주고	-10.1152
▁화학	-10.1153
tor	-10.1155
▁조각	-10.1156
겼	-10.116
▁잔해	-10.1165
변화	-10.117
적이고	-10.1177
▁is	-10.1183
▁감정	-10.1185
▁언급하지	-10.1186
▁장비	-10.1193
▁자세	-10.1194
68	-10.1194
▁중에는	-10.12
▁트리	-10.1205
부시	-10.1211
▁덮	-10.1219
검사	-10.1224
▁음	-10.1225
▁거절	-10.1226
▁주인	-10.1229
▁테러가	-10.123
▁계획이	-10.1232
▁영화제	-10.124
▁훨씬	-10.124
▁믿고	-10.124
▁베트남	-10.124
죠	-10.124
해리포터	-10.124
▁국제유가	-10.124
당국	-10.1241
▁향후	-10.1243
▁1990	-10.1245
▁저는	-10.1249
67	-10.1255
▁문제는	-10.1256
ain	-10.1257
▁웃	-10.1259
ts	-10.1261
res	-10.1273
포드	-10.1284
▁거주하는	-10.1289
▁r	-10.1291
려는	-10.1294
▁카라	-10.1295
포트	-10.1301
▁유치	-10.1304
▁폐지	-10.1306
▁경기에	-10.1319
▁회담이	-10.1321
당국은	-10.1326
▁장관이	-10.1337
▁크리스티	-10.1342
흑	-10.1344
켈	-10.1345
▁샌프란시스코	-10.1346
▁페더러	-10.1346
▁획득	-10.1346
▁로봇	-10.1347
▁묘사	-10.1347
▁운항	-10.1347
▁전면	-10.1348
▁이것이	-10.1348
바르	-10.1349
국이	-10.1354
오늘	-10.1355
▁프레	-10.136
▁예정이며	-10.1362
▁밀란	-10.1362
▁내용이	-10.1363
▁공개했다	-10.1366
▁영토	-10.1366
▁tr	-10.1368
▁테러범	-10.1369
▁지목	-10.1371
▁불리는	-10.1371
man	-10.1372
▁지시	-10.1373
▁노동자	-10.1375
55	-10.1379
▁기상	-10.1382
56	-10.1389
▁추적	-10.1393
▁광장	-10.1396
▁한국군	-10.1404
▁외부	-10.1431
▁소니	-10.1434
▁입수	-10.1435
됐고	-10.1447
▁존슨	-10.1448
장치	-10.1449
▁초대	-10.1453
룰	-10.1454
!	-10.1454
▁밖으로	-10.1454
핀	-10.1454
▁모스크바	-10.1454
▁랭킹	-10.1454
▁콘서트	-10.1454
▁반기문	-10.1454
▁검색	-10.1454
▁얼음	-10.1454
▁맨유	-10.1454
회담	-10.1455
▁나쁜	-10.1456
▁pro	-10.1458
▁남쪽	-10.1459
▁빚	-10.1459
콘	-10.1464
▁작동	-10.1464
▁폭우	-10.1469
▁빅	-10.1475
▁병사들	-10.1478
▁단체는	-10.148
▁샌	-10.148
▁시절	-10.1484
▁중부	-10.1485
▁대결	-10.1491
▁주장하는	-10.1491
주일	-10.1492
▁워싱턴에서	-10.1495
▁치르	-10.1501
▁편지	-10.1502
▁집에	-10.151
▁고객	-10.151
ong	-10.1517
▁행성	-10.152
네스	-10.1521
▁학생들이	-10.1524
략	-10.1533
▁도달	-10.1546
▁전개	-10.1555
▁주간	-10.1556
z	-10.1557
ress	-10.1558
튜	-10.1563
▁South	-10.1563
둥	-10.1563
▁온난화	-10.1563
▁세계대전	-10.1563
▁금요일	-10.1563
▁이메일	-10.1564
▁접속	-10.1567
▁둘러	-10.1569
▁것보다	-10.157
▁목격자	-10.1571
▁토론회	-10.1571
▁흉	-10.1572
맥	-10.1573
▁야생	-10.1573
▁탐	-10.1574
▁소환	-10.1575
듯	-10.1576
원들이	-10.1577
▁밑	-10.1579
▁입양	-10.1579
▁협회	-10.1581
▁희생자들	-10.1585
▁중재	-10.1585
▁예비	-10.1595
었으나	-10.1597
되자	-10.1602
스티	-10.1607
▁잃었다	-10.1608
▁지정	-10.1609
▁당선인은	-10.161
년에는	-10.1611
▁방문할	-10.1622
▁속도	-10.1626
▁꿈	-10.1629
국은	-10.163
▁생존	-10.1631
""	-10.1635
▁방법으로	-10.1637
▁충분한	-10.1639
▁에이	-10.1641
um	-10.1644
▁방지	-10.1645
oo	-10.1651
대학	-10.1654
▁바그다드에서	-10.1657
▁심슨	-10.1661
위원	-10.1662
▁목격자들	-10.1663
얀	-10.1673
아메리칸	-10.1673
▁CIA	-10.1673
현지시각	-10.1673
▁특파원	-10.1673
▁9.11	-10.1673
▁측근	-10.1674
▁앨범	-10.1675
▁주식시장	-10.1675
▁영변	-10.1678
▁학살	-10.168
▁성향	-10.1682
▁주문	-10.1682
▁리비아	-10.1682
58	-10.1683
▁남아	-10.1684
▁무대	-10.1685
펜	-10.1689
▁말합니다	-10.1691
▁하이	-10.1697
▁Re	-10.1698
▁밖에서	-10.1699
▁부근	-10.1713
기술	-10.1714
▁잡지	-10.1718
모든	-10.1724
▁신체	-10.1725
▁생각하고	-10.1733
▁사법	-10.1735
▁의무	-10.1737
▁선물	-10.1747
ice	-10.175
▁38	-10.1755
▁의원들은	-10.1765
▁방문했다	-10.1772
미군	-10.1776
섭	-10.1781
-2	-10.1783
아메리카	-10.1784
▁미국에	-10.1787
▁이란은	-10.1788
▁리콜	-10.1788
▁허락	-10.1788
▁진행된	-10.1791
▁저항	-10.1791
▁합동	-10.1791
▁사무총장	-10.1792
▁카페	-10.1795
안전	-10.1796
100	-10.1808
그들은	-10.1809
▁조사에서	-10.1809
39	-10.1812
▁취할	-10.1819
▁주목	-10.1821
▁경기장	-10.1825
▁체니	-10.1827
▁예상했다	-10.1827
▁수집	-10.1829
더스	-10.183
▁공중	-10.1832
▁이들이	-10.1833
▁특별한	-10.1833
므로	-10.1837
▁출시	-10.1837
▁내전	-10.184
14	-10.1843
▁논란	-10.1844
러스	-10.1859
▁이사	-10.1874
▁Co	-10.1876
82	-10.1887
▁원하는	-10.1889
▁성과	-10.1893
컴	-10.1894
롬	-10.1896
▁유나이티드	-10.1896
밍	-10.1896
▁아일랜드	-10.1896
▁계획에	-10.19
▁않았으며	-10.1902
▁편집	-10.1902
▁이익	-10.1914
작업	-10.1917
▁모양	-10.1922
▁레이스	-10.1926
▁용의자들	-10.1942
▁자기	-10.1953
▁후임	-10.1957
▁대부분이	-10.1958
▁시작한	-10.1959
▁철도	-10.1959
시키려	-10.196
▁에어	-10.1967
▁보관	-10.1971
맹	-10.1973
▁사건과	-10.1995
▁에드	-10.1997
지구	-10.1997
▁마시	-10.2001
럭	-10.2009
넬	-10.2009
▁붉은	-10.201
▁찾고	-10.201
▁헤즈볼라	-10.201
롱	-10.201
짝	-10.201
▁쿠데타	-10.201
▁대다수	-10.2011
▁봄	-10.2012
▁회견	-10.2012
▁핵시설	-10.2015
▁다니	-10.2018
▁사건으로	-10.2021
▁기능	-10.2025
▁격차	-10.2029
놀	-10.2036
▁다우	-10.2037
싸	-10.2038
우드	-10.204
▁처음이다	-10.2043
▁서방	-10.2047
▁보면	-10.2061
▁이번주	-10.2077
사항	-10.2096
▁바라고	-10.21
85	-10.2101
tion	-10.2102
▁폭발물	-10.212
▁with	-10.2125
▁우주비행사	-10.2125
▁장례식	-10.2125
셉	-10.2125
첸	-10.2125
[	-10.2125
▁여자친구	-10.2125
▁멸종	-10.2125
▁아이오와	-10.2125
▁겨울	-10.2125
▁수요	-10.2127
▁가까이	-10.2131
▁걸릴	-10.2135
▁체결	-10.2136
▁만날	-10.2138
▁마틴	-10.2139
cm	-10.2139
▁복구	-10.2147
▁발표된	-10.2147
▁37	-10.2148
ang	-10.2149
▁전투기	-10.2158
▁나서	-10.2158
▁차드	-10.2161
▁교사	-10.2161
▁산타	-10.2163
▁의회의	-10.2165
어져	-10.217
▁어디	-10.2171
13	-10.2179
했기	-10.218
▁파티	-10.2183
▁린	-10.2185
300	-10.2185
지수는	-10.2186
▁톰	-10.2191
ial	-10.2198
▁프라	-10.2205
조차	-10.2205
▁현재까지	-10.2211
▁수감자	-10.2239
▁경찰서장	-10.224
▁알래스카	-10.2241
▁CEO	-10.2241
▁다이아몬드	-10.2241
▁떨어지	-10.2241
▁옮겨	-10.2241
▁적십자	-10.2241
엑	-10.2241
▁일환으로	-10.2241
▁다르푸르	-10.2241
되어야	-10.2244
▁웨스트	-10.2246
▁추정되는	-10.2248
▁특정	-10.2259
▁나누	-10.226
츠는	-10.2261
▁동반	-10.2261
▁중국에서	-10.2263
▁물러	-10.2266
▁심문	-10.227
ance	-10.227
연맹	-10.2272
쓰	-10.2275
▁신호	-10.2299
▁최초로	-10.2316
45	-10.2324
학생	-10.2328
자리	-10.2328
▁델	-10.2331
▁절대	-10.2332
져야	-10.2342
▁이스라엘군	-10.2345
▁다우존스	-10.2359
▁달라이라마	-10.2359
듀	-10.2359
▁업계	-10.2359
▁답	-10.236
▁설득	-10.236
▁FTA	-10.2361
▁교환	-10.2366
▁증권	-10.2372
▁오염	-10.2372
▁일주일	-10.2373
▁치러진	-10.2373
▁식당	-10.2376
▁평화적	-10.2383
▁자치	-10.2387
▁물건	-10.2388
▁36	-10.2394
▁보통	-10.2401
▁사실상	-10.2401
민주당	-10.2401
▁니콜	-10.2407
▁파산	-10.2409
▁잠시	-10.2419
▁생물	-10.2429
타르	-10.2438
▁요인	-10.2441
▁아이들이	-10.2443
▁보이	-10.2467
▁불과	-10.2468
▁이스라엘과	-10.2472
춘	-10.2474
딕	-10.2476
]	-10.2478
봐	-10.2478
퀴	-10.2478
▁더불어	-10.2478
▁발굴	-10.248
63	-10.2482
▁폭락	-10.2482
▁산악	-10.2483
▁않지만	-10.2484
▁행복	-10.2484
요원	-10.2484
▁달라	-10.2486
▁어려운	-10.2486
ational	-10.2486
▁바꾸	-10.2488
▁커피	-10.2489
▁50%	-10.249
▁통신은	-10.2504
▁강요	-10.2505
▁국회의원	-10.2507
▁세워	-10.2511
▁재건	-10.2515
▁그레	-10.2516
76	-10.2516
원제	-10.252
삼	-10.2521
▁기도	-10.2521
▁제안했다	-10.2524
▁경보	-10.2533
브레	-10.2535
▁광산	-10.2538
라이브	-10.2546
18	-10.2562
▁보고했다	-10.2567
our	-10.2569
▁목적으로	-10.2581
정부는	-10.2588
90	-10.2589
닥	-10.259
▁FARC	-10.2593
묘	-10.2596
▁됩니다	-10.2598
▁스리랑카	-10.2598
▁앉아	-10.2598
▁에드워즈	-10.2598
▁코미디	-10.2598
▁갑자	-10.2599
▁사냥	-10.2601
▁북극	-10.2601
▁담당자	-10.2606
▁출석	-10.2611
▁매각	-10.2613
PA	-10.2617
▁밝히고	-10.2619
▁배출	-10.262
▁도입	-10.2624
▁항소	-10.2625
▁조합	-10.2625
했음	-10.2627
▁거두	-10.2632
▁신임	-10.2635
▁계속되고	-10.2635
▁적절한	-10.2638
후드	-10.264
▁그리	-10.2645
뿐	-10.2649
▁내에	-10.2649
벤	-10.265
▁친구들	-10.2652
▁투어	-10.2653
▁확산되	-10.2659
▁선보	-10.2659
유럽	-10.2661
▁결정은	-10.2662
▁열리	-10.2663
▁의회는	-10.267
▁된다고	-10.2673
라면	-10.2679
▁의식	-10.2688
▁고대	-10.2688
▁지상	-10.269
▁있어서	-10.2695
▁기분	-10.2696
▁고소	-10.2701
▁벽	-10.2703
▁윈	-10.271
원인	-10.2712
룬	-10.2714
부대	-10.2716
님	-10.2718
멸	-10.272
쇠	-10.272
▁방글라데시	-10.272
떼	-10.272
렐	-10.272
콤	-10.272
▁오스트리아	-10.272
▁48	-10.272
▁칠레	-10.272
▁NBC	-10.2722
▁것이라며	-10.2722
▁단순	-10.2725
▁데이터	-10.2726
▁기업들	-10.2728
▁시장에서	-10.2729
년이	-10.273
▁성관계	-10.2731
빠진	-10.2731
▁기존	-10.2732
차전	-10.2734
▁자본	-10.2741
▁서울에서	-10.2749
▁북측	-10.2759
최	-10.2759
▁협상이	-10.2766
▁테러리스트	-10.2768
▁소비자들	-10.2772
납	-10.2773
만약	-10.2774
이슬람	-10.2775
▁윌	-10.2776
84	-10.2776
▁호세	-10.2794
▁원한다	-10.2805
▁넓	-10.2806
▁아동	-10.2813
▁부근에서	-10.2814
▁그림	-10.2816
페이지	-10.2817
▁사전	-10.2819
▁사인	-10.2821
54	-10.2827
▁예상되	-10.2828
▁외교적	-10.2835
께	-10.2835
랭	-10.2843
▁노스캐롤라이나	-10.2843
▁봉쇄	-10.2843
▁배심원	-10.2844
▁공산당	-10.2844
▁합류	-10.2849
▁sh	-10.2851
▁취하	-10.2854
▁방영	-10.2854
스럽게	-10.2854
▁폭동	-10.2855
▁의존	-10.2857
▁치열	-10.2857
▁부담	-10.2866
▁화물	-10.2868
tr	-10.2874
▁피난	-10.2876
▁해양	-10.2877
▁美	-10.2878
▁시드	-10.2882
▁적은	-10.2887
▁각국	-10.2891
▁노력하고	-10.2891
▁버마	-10.2894
냈	-10.2896
900	-10.2901
▁회사들	-10.2902
파키스탄	-10.2903
조원	-10.2904
▁중독	-10.2907
됐을	-10.2907
▁해병대	-10.2909
▁후원	-10.291
BC	-10.2924
▁이하	-10.2924
▁제도	-10.293
▁시위에	-10.2935
▁수송	-10.2935
▁부여	-10.2939
▁스키	-10.2943
▁말까지	-10.2944
▁펜	-10.295
▁상승했다	-10.2955
ure	-10.2959
세력	-10.296
▁사용한	-10.296
혁	-10.2962
▁되기	-10.2964
▁su	-10.2965
흘	-10.2968
룩	-10.2968
▁없으며	-10.2968
▁카르자이	-10.2968
▁나이지리아	-10.2968
▁마카오	-10.2968
▁흡연	-10.2969
▁재무장관	-10.2969
▁검거	-10.2969
▁책임자	-10.2969
▁하늘	-10.2971
▁무장대원	-10.2974
▁농축	-10.2974
▁가옥	-10.2975
▁낸	-10.2976
▁식품	-10.2976
▁본사	-10.2981
ood	-10.2985
본부	-10.2985
▁나갈	-10.299
▁측정	-10.299
▁현실	-10.299
▁통계	-10.2992
▁대항	-10.2992
된다면	-10.2996
▁51	-10.2997
▁소설	-10.2998
▁묵	-10.2999
▁많다	-10.3001
▁어려	-10.3005
▁승리했다	-10.3015
16	-10.3015
▁골드	-10.3026
▁세상	-10.3028
됐었다	-10.3031
▁잇	-10.3036
▁세우	-10.3039
▁조성	-10.304
전문	-10.3043
▁소식이	-10.3047
▁공항에서	-10.3053
▁구조대	-10.3056
상황	-10.3057
▁노동자들	-10.3059
▁북쪽	-10.3059
아야	-10.3065
▁의회에	-10.3071
▁만화	-10.3074
관련	-10.3084
▁의지	-10.3084
▁로한	-10.3086
▁고등학교	-10.3095
▁네트워크	-10.3095
▁훌륭	-10.3095
큐	-10.3095
▁파예드	-10.3095
▁습격	-10.3095
▁카스트로	-10.3095
▁사드르	-10.3095
▁전날	-10.3097
▁혁명	-10.3098
▁목록	-10.3099
▁수상자	-10.3099
▁복잡	-10.3099
레나	-10.31
▁관람	-10.3101
▁극복	-10.3101
▁건축	-10.3102
▁시드니	-10.3104
▁연주	-10.3105
▁오브	-10.3111
▁취재	-10.3114
▁최선	-10.3116
▁인류	-10.3119
▁페루	-10.3119
▁망	-10.312
▁구출	-10.3125
▁보복	-10.3127
▁증가하고	-10.3133
▁개방	-10.3134
▁운영하	-10.3138
▁사용되	-10.3141
▁일본에서	-10.3144
▁내릴	-10.315
▁베르	-10.3157
칼	-10.316
▁기다리고	-10.3166
▁체제	-10.317
▁얻어	-10.3173
▁국경지역	-10.3174
▁이유는	-10.3177
러시아	-10.3178
▁자리에서	-10.3199
리스트	-10.3203
▁하다	-10.3205
▁야기	-10.3211
▁왕세자	-10.3215
끄	-10.3223
넷	-10.3223
덜	-10.3223
▁스웨덴	-10.3223
▁훼손	-10.3223
▁거뒀다	-10.3223
▁북동부	-10.3223
▁혜택	-10.3223
IOC	-10.3223
▁숫자	-10.3223
New	-10.3223
▁콩고	-10.3226
▁유대인	-10.3227
▁남아공	-10.3227
▁패션	-10.3228
▁출판	-10.3233
▁순방	-10.3236
▁말하는	-10.3236
▁움직이	-10.3237
▁지수	-10.324
▁풀어	-10.3243
▁돌려	-10.3247
정도	-10.3247
▁있었고	-10.325
▁의학	-10.3251
▁경쟁자	-10.3251
▁발병	-10.3252
▁상처	-10.3252
▁인종	-10.3253
▁모색	-10.3255
78	-10.3259
▁선언했다	-10.3259
IC	-10.327
▁모인	-10.3274
▁그동안	-10.3277
▁부과	-10.3281
▁태평양	-10.3289
값	-10.3296
▁일간	-10.3299
생물학	-10.3302
▁불러	-10.3303
▁유감	-10.3307
▁조기	-10.3308
43	-10.3316
해줄	-10.3317
▁맞이	-10.3318
▁방화	-10.3321
왔으며	-10.3325
▁털	-10.3328
▁분석가	-10.3334
지난	-10.3343
위원장	-10.3344
흔	-10.3349
전쟁	-10.3351
흥	-10.3353
첨	-10.3353
혜	-10.3353
나갔다	-10.3353
▁덴마크	-10.3353
▁이렇게	-10.3353
▁정확히	-10.3353
▁펼치	-10.3353
릿	-10.3353
FRB	-10.3353
▁이재민	-10.3353
닷컴	-10.3353
▁이뤄지	-10.3354
가격	-10.3354
▁타임스	-10.3358
▁고향	-10.3361
▁2010	-10.3365
▁명예	-10.3369
▁출동	-10.337
▁의회에서	-10.337
다시	-10.3372
▁지도자들은	-10.3373
▁사담	-10.3376
▁비율	-10.3379
▁진실	-10.3381
79	-10.3383
▁지진이	-10.3386
▁세포	-10.3393
▁AC	-10.3396
▁베이징에서	-10.34
▁로비	-10.3405
▁10%	-10.3408
▁경호원	-10.3413
▁실시되	-10.3414
▁현금	-10.3415
69	-10.3418
▁올린	-10.342
▁말해	-10.3423
답	-10.3428
하고자	-10.3435
플레	-10.344
현재	-10.3447
▁반군이	-10.3458
▁시내	-10.347
명에게	-10.347
▁플레이	-10.3475
콩	-10.3482
웅	-10.3483
틸	-10.3485
NATO	-10.3485
UEFA	-10.3485
▁마찬가지	-10.3485
▁챔피언스리그	-10.3485
슐	-10.3485
▁will	-10.3487
▁커플	-10.3489
▁레알	-10.3491
▁영업	-10.3497
▁일리노이주	-10.3502
▁자극	-10.3504
▁입증	-10.3505
▁대가로	-10.3506
▁만난	-10.3507
▁고발	-10.3509
▁말리키	-10.351
▁주제	-10.3511
▁선발	-10.3512
26	-10.3514
세인	-10.3515
31	-10.3519
▁인공	-10.3522
▁여러분	-10.3525
▁발생했으며	-10.3527
▁동맹국	-10.3534
▁시위대는	-10.3545
시위	-10.3559
▁거부했다	-10.3564
▁주최	-10.3566
연구소	-10.357
▁유력	-10.3572
▁메이	-10.3573
▁제공하는	-10.3576
▁앨	-10.3578
▁환자들	-10.3597
▁실패했다	-10.3605
ie	-10.3608
평화	-10.3609
▁마치고	-10.3611
▁예루살렘	-10.3618
갤	-10.3618
▁Japan	-10.3618
▁청문회	-10.3618
▁남동부	-10.3618
▁plan	-10.3618
▁엄청	-10.3618
2008.12	-10.3619
▁코커스	-10.3621
▁새끼	-10.3622
섹스	-10.3622
▁장착	-10.3625
ence	-10.3626
▁과격	-10.3626
▁체계	-10.3638
▁노예	-10.3639
▁숙	-10.3641
▁임금	-10.3652
oll	-10.3656
▁배경	-10.3656
▁초점	-10.366
▁공화국	-10.3666
▁보안군	-10.3671
▁가했다	-10.3671
▁진화	-10.3678
▁보인다고	-10.369
▁IAEA	-10.3701
스테	-10.3705
▁노리	-10.3706
팔	-10.3707
▁카드	-10.3712
▁있다면	-10.3714
지금	-10.3718
62	-10.3724
▁발생하지	-10.3727
드시	-10.3731
▁본선	-10.3734
IS	-10.3743
▁그것이	-10.375
▁활주로	-10.3753
웬	-10.3753
▁성화봉송	-10.3753
▁외교통상부	-10.3753
뱀	-10.3753
▁디즈니	-10.3753
▁폴란드	-10.3753
▁네바다	-10.3753
▁완벽	-10.3754
▁다니엘	-10.3754
▁민족	-10.3758
▁멀	-10.3759
▁600	-10.3763
▁분열	-10.3766
▁사장은	-10.3769
▁압수	-10.3772
▁셀	-10.3773
▁받아야	-10.3776
▁소매	-10.3778
▁노인	-10.378
▁봉사	-10.3781
▁이양	-10.3784
▁중순	-10.3787
▁향하	-10.3789
▁대회에서	-10.3795
de	-10.3805
▁달려	-10.3807
디아	-10.3816
▁권한	-10.382
▁수업	-10.3824
ell	-10.3824
안보	-10.3856
▁얻기	-10.3865
▁열대	-10.3866
▁대선에서	-10.3879
축구	-10.3881
▁인디애나	-10.389
렘	-10.389
▁크루즈	-10.389
▁아이디어	-10.389
▁리조트	-10.389
▁삭제	-10.389
▁납치된	-10.3891
▁모기지	-10.3891
▁싸움	-10.3891
학자들	-10.3891
▁타이틀	-10.3893
▁중간	-10.3896
▁관찰	-10.3896
▁합병	-10.3897
▁있었지만	-10.3899
▁생긴	-10.3899
▁관영	-10.39
▁보잉	-10.39
▁철군	-10.3902
▁아니면	-10.3903
▁빙하	-10.3903
▁무죄	-10.3905
▁분명히	-10.3905
▁복무	-10.3908
▁출산	-10.3909
▁고립	-10.391
6000	-10.3912
▁PC	-10.3916
▁군정	-10.3924
▁견해	-10.3924
▁드러	-10.3926
▁착용	-10.3927
▁연행	-10.3927
37	-10.3936
▁대량	-10.394
▁구금	-10.3946
▁따르	-10.3948
▁발간	-10.3951
▁높아지	-10.3954
▁캘리포니아주	-10.3966
▁유전자	-10.3967
mb	-10.3971
▁공유	-10.3971
수록	-10.3976
되었고	-10.3977
▁기차	-10.3983
▁과학자	-10.3988
천만	-10.3993
▁난사	-10.3994
▁런던에서	-10.3995
짜	-10.4001
범죄	-10.4001
행사	-10.4002
으면서	-10.4006
▁이중	-10.4017
▁수상했다	-10.4021
▁실적	-10.4023
쉽	-10.4024
곰	-10.4029
▁라스베이거스	-10.4029
▁봤다	-10.4029
▁크라이슬러	-10.4029
▁태어난	-10.4029
▁토마스	-10.4029
▁운송	-10.403
port	-10.4031
마르	-10.4035
▁채택	-10.4036
▁은퇴	-10.4038
ens	-10.404
▁방송국	-10.4041
▁계획이라고	-10.4042
▁회동	-10.4042
▁일반적으로	-10.4044
▁표했다	-10.405
▁돌아오	-10.405
▁위원회는	-10.4053
▁전통적	-10.4054
▁청구	-10.4056
▁주지사가	-10.4057
▁지시했다	-10.4058
▁갖게	-10.4067
▁인사들	-10.407
▁총격전	-10.4073
▁제조업체	-10.4074
▁처해	-10.4076
▁서신	-10.4077
금지	-10.4082
웃	-10.4098
ide	-10.4102
▁위조	-10.4102
74	-10.4109
▁재단	-10.411
▁기대하고	-10.4116
디오	-10.4125
▁승객들	-10.4126
▁보고서에서	-10.4128
▁안전한	-10.4134
앤	-10.4138
디스	-10.4141
▁의미한다	-10.4149
▁크레	-10.4155
▁부서	-10.416
▁뉴욕에서	-10.416
영국	-10.4162
▁고어	-10.4164
캔	-10.4168
▁사우디아라비아	-10.417
▁쏟아	-10.417
▁협박	-10.417
댄	-10.417
▁이루어지	-10.417
▁심지어	-10.417
▁보여줬다	-10.4171
▁하원의원	-10.4173
▁빈곤	-10.4173
▁매춘	-10.4173
▁면담	-10.4175
▁응급	-10.4175
▁2012	-10.4177
ca	-10.4182
▁명백	-10.4183
▁항구	-10.4183
▁보낼	-10.4185
▁누리	-10.4185
▁카불	-10.4186
▁거쳐	-10.4191
▁지역으로	-10.4195
▁실종된	-10.4198
ti	-10.4202
av	-10.421
▁대학교	-10.4211
▁재난	-10.4214
▁보유하고	-10.4215
▁수감자들	-10.4217
▁사장	-10.4222
일본	-10.4222
▁주지	-10.4232
▁유발	-10.4233
었는지	-10.4248
▁돼지	-10.4251
▁42	-10.4251
99	-10.4255
▁자세한	-10.4256
ail	-10.4258
▁기금	-10.4262
현지	-10.4281
타운	-10.4281
▁나오는	-10.4281
김	-10.4283
카운티	-10.4285
해지고	-10.429
▁이사회	-10.4295
▁무선	-10.4297
▁치러	-10.4298
명도	-10.4299
▁뼈	-10.4303
받았다	-10.4307
담당	-10.4312
겸	-10.4313
▁바르셀로나	-10.4313
▁펼쳐	-10.4313
▁휴대전화	-10.4313
▁1994	-10.4313
▁논평	-10.4313
▁누군가	-10.4313
▁엄격	-10.4313
▁베를린	-10.4313
느냐	-10.4315
▁케이블	-10.4315
미터	-10.4316
▁해결책	-10.4319
▁철저	-10.432
▁하와이	-10.432
▁마쳤다	-10.4331
▁단속	-10.4331
▁CD	-10.4335
▁형제	-10.4336
있었다	-10.4338
▁생각하는	-10.4341
▁기부	-10.4348
▁추정된다	-10.4351
▁신발	-10.4352
▁무료	-10.4356
▁승리한	-10.4358
22	-10.4371
▁만들어진	-10.4373
▁값	-10.4374
▁못하게	-10.4375
17	-10.4392
▁호텔에서	-10.4392
되었던	-10.44
▁리그	-10.4422
pa	-10.4425
시대	-10.4436
▁동성애자	-10.444
▁영장	-10.4449
자료	-10.4453
▁동티모르	-10.4458
끈	-10.4458
쓸	-10.4458
좁	-10.4458
춤	-10.4458
▁펼쳤다	-10.4458
▁쓰나미	-10.4458
▁에어버스	-10.4458
WHO	-10.4458
▁파트너	-10.4458
▁주한미군	-10.4458
▁외환은행	-10.4458
▁바스라	-10.4459
▁두바이	-10.446
스타인	-10.4461
▁급등	-10.4463
▁디자인	-10.4465
방위	-10.4471
기록	-10.4473
▁사령관은	-10.4474
▁3000	-10.4485
▁요리	-10.4485
▁대학생	-10.4487
95	-10.4488
되었으며	-10.4491
▁알라	-10.4495
▁골프	-10.4496
▁시각	-10.4497
▁중심부	-10.4502
▁여권	-10.4505
▁한때	-10.451
▁간단	-10.4515
▁신중	-10.4515
▁책임이	-10.4517
▁의석	-10.4524
▁논란이	-10.4525
병원	-10.4542
▁회의에서	-10.4543
▁기계	-10.455
차량	-10.4551
▁말하며	-10.4568
28	-10.4575
달간	-10.4579
팬	-10.4586
▁공간	-10.4592
아버지	-10.4592
픈	-10.4599
뛰	-10.4604
엠	-10.4605
틱	-10.4605
▁그렇지	-10.4605
▁이루어졌다	-10.4605
▁일으킨	-10.4605
밥	-10.4605
쌀	-10.4605
킬로미터	-10.4605
▁불능화	-10.4605
▁차관보는	-10.4605
▁송환	-10.4607
▁(=	-10.4608
▁저지른	-10.4609
▁당신이	-10.4614
▁바닥	-10.4614
스케	-10.4617
▁첫번째	-10.4624
▁발생하는	-10.4624
무역	-10.4625
▁나올	-10.4626
▁기밀	-10.463
▁초래	-10.4635
연구원	-10.4635
▁맛	-10.4636
슬러	-10.4643
▁존중	-10.4645
▁점차	-10.4648
해왔	-10.4648
돼있다	-10.4652
▁공포	-10.4654
▁130	-10.4666
▁응답자	-10.4677
▁지켜보	-10.4682
▁운전자	-10.4682
▁우리당	-10.4682
▁자문	-10.4682
▁못한다	-10.4684
▁케리	-10.469
▁사회적	-10.4694
▁보트	-10.4694
▁마비	-10.4697
슈퍼	-10.4715
▁마감했다	-10.472
▁이곳에	-10.4722
▁리처드	-10.4739
이스라엘	-10.4739
솔	-10.474
▁참석했다	-10.474
▁예수	-10.4745
따	-10.4746
규모	-10.4747
훔	-10.4754
▁레스토랑	-10.4754
▁선거캠프	-10.4754
▁휩싸	-10.4754
꽃	-10.4754
▁김대중	-10.4754
▁흥분	-10.4754
▁벌어지	-10.4755
▁우리나라	-10.4755
▁적극적	-10.4756
▁여학생	-10.4758
8000	-10.4759
▁못해	-10.4764
▁받았으며	-10.4764
▁고고학	-10.4766
▁유전	-10.4769
▁검은	-10.4769
▁종류	-10.477
▁북미	-10.477
▁세계은행	-10.4772
▁노동당	-10.4774
▁개표	-10.4776
교회	-10.4776
▁특수	-10.4788
▁표명	-10.4791
▁발전소	-10.4796
▁두번째	-10.48
▁답했다	-10.4807
▁상공	-10.4813
▁유출	-10.4816
▁아니었다	-10.4824
▁신부	-10.4826
▁가구	-10.4836
▁제기했다	-10.4837
▁공약	-10.484
▁그곳에	-10.4841
▁불가능	-10.4856
▁국방	-10.486
▁라고	-10.4873
35	-10.4876
▁비판했다	-10.488
▁압둘	-10.4882
▁일리노이	-10.4885
달라고	-10.4894
빛	-10.4899
촉	-10.4904
첩	-10.4905
0,000	-10.4905
▁곤잘레스	-10.4905
▁만났다	-10.4905
▁콜로라도	-10.4905
▁구제금융	-10.4906
▁핵프로그램	-10.4907
▁헨리	-10.4907
▁숀	-10.4908
▁고위관리	-10.4909
▁백인	-10.4911
▁강풍	-10.4912
▁1970	-10.4918
▁경영진	-10.4918
▁테스트	-10.4918
▁생일	-10.492
▁그래서	-10.4923
▁것이었다	-10.4927
▁도망	-10.4929
▁보도에따르면	-10.4932
▁이슬람교	-10.4933
▁인생	-10.4935
▁총장은	-10.4936
▁벗	-10.4937
▁따라서	-10.4937
▁뇌물	-10.4955
▁기자들에게	-10.4958
▁불길	-10.496
▁예전	-10.4961
▁서울시	-10.4962
▁나이트	-10.4965
▁차단	-10.4965
▁근로자	-10.4967
▁다루	-10.4973
▁미국측	-10.4975
▁전원	-10.4984
▁상어	-10.4985
▁요소	-10.499
▁34	-10.4997
▁신분	-10.5004
▁부정적	-10.5005
▁지질	-10.501
▁사망자수	-10.5015
베나	-10.5016
이었으며	-10.5017
▁De	-10.5017
국제	-10.5025
제대로	-10.503
▁당수	-10.5039
스탄	-10.5045
흡	-10.5056
▁들어갔다	-10.5059
▁나스닥	-10.5059
▁북서부	-10.5059
▁와인하우스	-10.506
▁침입	-10.506
▁방콕	-10.506
48	-10.5062
▁화장실	-10.5062
▁자유롭	-10.5063
▁ABC	-10.5064
▁법안이	-10.5064
▁직업	-10.5065
iz	-10.5067
▁과도	-10.5068
▁출입	-10.5069
▁40%	-10.5073
▁사막	-10.5073
▁진영	-10.5074
▁산림	-10.5074
총리	-10.5075
▁쓴	-10.5082
▁화면	-10.5083
▁개장	-10.5084
▁돌파	-10.5091
▁자원	-10.5093
▁올려	-10.51
▁미술	-10.5112
노동	-10.5113
▁사용될	-10.5117
▁논의하기	-10.5118
▁해임	-10.5119
▁가능하다	-10.513
▁칼리	-10.5131
▁해적	-10.5145
ast	-10.5149
▁가해	-10.5149
mm	-10.5158
▁가졌	-10.5159
▁사용자	-10.5169
▁세대	-10.5189
ther	-10.5193
▁주기	-10.5193
▁선전	-10.5196
▁집으로	-10.5206
▁경비	-10.5211
멜	-10.5213
핵	-10.5213
▁요르단	-10.5214
랙	-10.5215
▁President	-10.5216
▁떠났다	-10.5216
▁블라디미	-10.5216
▁스코틀랜드	-10.5216
▁없지만	-10.5216
갱	-10.5216
룸	-10.5216
▁두려워	-10.5216
▁법무부	-10.5216
▁촉발	-10.5216
▁활약	-10.5216
▁둘러싸	-10.5216
▁성직자	-10.5217
▁축소	-10.5217
▁라이벌	-10.5218
▁자치정부	-10.5219
▁언어	-10.5219
▁대륙	-10.522
▁필립	-10.5222
▁급증	-10.5223
▁동쪽	-10.5224
▁환호	-10.5227
▁맞추	-10.523
▁왕실	-10.5233
▁체중	-10.5234
▁자랑	-10.5236
▁성격	-10.5242
▁다우지수	-10.5242
▁약화	-10.5243
▁리드	-10.5243
▁승부	-10.5246
▁불편	-10.5254
▁꼭	-10.5254
▁직전	-10.5265
▁열어	-10.5267
▁정전	-10.527
연방	-10.5276
▁엘리	-10.5289
▁일어났	-10.5293
페이스	-10.5296
▁상호	-10.5298
▁공모	-10.5299
베르	-10.5299
▁동성	-10.5301
▁자신에게	-10.5305
▁고객들	-10.5306
▁보호하기	-10.5306
▁맥주	-10.5307
티아	-10.5314
▁연금	-10.532
발전	-10.5326
▁120	-10.5341
▁감지	-10.5343
즉각적인	-10.5356
▁진술했다	-10.5367
▁생각했다	-10.5369
▁연안	-10.5371
옹	-10.5374
템	-10.5374
▁샤라포바	-10.5374
넨	-10.5374
퀸	-10.5374
Q	-10.5374
▁가택연금	-10.5374
▁패트릭	-10.5374
▁겨냥	-10.5374
▁남서부	-10.5374
▁받아들일	-10.5374
▁리차드	-10.5374
▁촉진	-10.5375
▁월스트리트	-10.5375
▁천주교	-10.5375
▁거듭	-10.5375
▁수석대표	-10.5376
▁봉송	-10.5376
▁붙잡	-10.5377
▁소득	-10.5384
▁개시	-10.5384
붙	-10.5386
▁여행객	-10.5388
▁즉각	-10.539
▁낸시	-10.5394
▁벌여	-10.5395
▁몰려	-10.5396
▁구축	-10.54
여성	-10.5401
▁월드	-10.5401
▁독도	-10.5407
▁들여	-10.5409
▁리치	-10.5422
act	-10.5423
매우	-10.5423
▁주장하며	-10.5435
▁대상이	-10.5437
됐으나	-10.5438
후보	-10.5449
▁걸리	-10.5449
투표	-10.5455
▁날아	-10.5458
▁조약	-10.5466
▁전환	-10.5479
▁사람에게	-10.548
우주	-10.5496
▁대치	-10.5501
위성	-10.5512
▁농장	-10.5515
▁지내	-10.5533
삭	-10.5535
겁	-10.5536
*	-10.5536
▁쌍둥이	-10.5536
▁오사마빈라덴	-10.5536
▁알코올	-10.5536
▁탄핵	-10.5537
▁스파이	-10.5537
▁다섯	-10.5537
▁상하이	-10.5537
▁케빈	-10.5538
▁영웅	-10.5538
▁다르	-10.5539
▁서쪽	-10.5546
풀	-10.5546
동맹	-10.5552
▁감염된	-10.5554
▁정착	-10.5555
▁포함된	-10.5555
▁주었다	-10.5556
▁인원	-10.5558
▁폭파	-10.5558
▁것인가	-10.556
▁애도	-10.5562
▁나토군	-10.5565
▁초반	-10.5565
▁스타일	-10.5568
83	-10.5575
▁일제	-10.5576
▁성공적	-10.5576
▁들어오	-10.5579
▁카터	-10.5597
▁하락세	-10.5602
헤드	-10.5606
▁역사적	-10.5608
▁국민들에게	-10.5608
▁레드	-10.5613
▁비난하고	-10.5615
▁떨어졌	-10.5615
였지만	-10.5618
▁던지	-10.562
돼야	-10.5632
▁자제	-10.564
▁33	-10.5653
▁입법	-10.5657
▁평가했다	-10.5661
▁확실한	-10.5666
파르	-10.5676
때문에	-10.5687
컷	-10.5698
▁마이애미	-10.57
빼	-10.57
▁디지털	-10.57
▁미시시피	-10.57
▁애리조나	-10.57
▁천연가스	-10.57
▁캄보디아	-10.57
왓	-10.57
턱	-10.57
▁유튜브	-10.57
▁사찰단	-10.57
▁비타민	-10.57
▁침몰	-10.57
▁중앙일보	-10.57
▁오딩가	-10.57
▁로이터	-10.57
▁졸업	-10.57
▁지하철	-10.5701
ish	-10.5702
▁새벽	-10.5702
▁날짜	-10.5702
▁산사태	-10.5705
▁급격	-10.5706
▁소련	-10.5706
▁채널	-10.571
▁공개된	-10.571
▁취임식	-10.5711
▁종합	-10.5714
버렸다	-10.5714
▁엔진	-10.5716
▁폭스	-10.5716
자동차	-10.5716
▁분류	-10.5719
▁게재	-10.5719
▁전세계적으로	-10.5721
▁감금	-10.5721
▁연구팀	-10.5724
▁완전한	-10.5724
▁연예	-10.5724
▁추모	-10.5736
▁미칠	-10.5745
부르크	-10.5754
▁향상	-10.5755
나무	-10.5755
제품	-10.5757
▁와인	-10.5758
▁상승세	-10.5768
▁자사	-10.5768
▁전부터	-10.5771
▁이라크군	-10.5774
▁도착한	-10.5791
▁경력	-10.5792
▁원화	-10.5806
▁가리	-10.5806
재판소	-10.5821
▁증상	-10.5821
PS	-10.5836
▁경호	-10.584
Ma	-10.5842
▁정신적	-10.5862
낭	-10.5866
▁결선투표	-10.5866
▁쓰촨성	-10.5866
놈	-10.5866
쌍	-10.5866
▁비핵화	-10.5866
▁이뤄졌다	-10.5866
▁뉴저지	-10.5866
▁가즈니	-10.5866
▁호랑이	-10.5866
▁재무부	-10.5866
▁흥미	-10.5867
▁over	-10.5867
▁근육	-10.5868
▁받으며	-10.5873
▁부총리	-10.5873
▁걸린	-10.5875
해야만	-10.5877
▁돌입	-10.5877
▁다윈	-10.5878
벽	-10.5881
▁오늘날	-10.5883
▁끝내	-10.5884
컨	-10.5886
▁부채	-10.5891
lu	-10.5892
▁소집	-10.5893
년만에	-10.5893
▁가상	-10.5905
▁공개적으로	-10.5906
▁포경	-10.5908
▁조류	-10.5912
▁2-1	-10.5918
▁가동	-10.5922
▁대립	-10.5924
▁방식으로	-10.5934
▁마무	-10.5934
▁기다리	-10.5945
▁들어있	-10.5964
▁변호인	-10.5964
▁형사	-10.5973
▁프레스	-10.5979
▁당국자	-10.5983
당신	-10.5994
첼	-10.6019
▁나오지	-10.6025
▁전복	-10.6027
쁘	-10.6036
▁늦게	-10.6036
▁브라이언	-10.6036
▁블라고예비치	-10.6036
▁알렉산더	-10.6036
▁에베레스트	-10.6036
▁인플레이션	-10.6036
▁토네이도	-10.6036
▁필라델피아	-10.6036
▁골키퍼	-10.6036
줘	-10.6036
▁키바키	-10.6036
▁원숭이	-10.6036
▁리히터	-10.6036
▁스캔들	-10.6036
▁오히려	-10.6036
▁2-0	-10.6036
▁효율	-10.6036
.8%	-10.6036
▁최저	-10.6036
▁합법적	-10.6037
▁갖춘	-10.6037
▁탄압	-10.6039
▁국가안보	-10.6042
▁무엇보다	-10.6046
▁보스턴	-10.6049
▁만남	-10.6049
렸으며	-10.6052
▁무리	-10.6056
Al	-10.6058
비용	-10.6062
업체들	-10.6067
▁구조대원들	-10.607
CC	-10.607
▁만들기	-10.6071
▁들어간	-10.6073
▁물품	-10.6074
▁반영	-10.6074
per	-10.6085
감독	-10.6085
물질	-10.6087
카드	-10.6088
▁소문	-10.61
▁표명했다	-10.6112
▁일간지	-10.6112
▁정치인들	-10.6126
▁그대로	-10.6131
여행	-10.6141
▁노선	-10.6142
써	-10.6147
▁것임	-10.6167
▁ex	-10.6175
▁간부	-10.6195
즘	-10.6207
▁소위	-10.6207
잭	-10.6208
▁마이크로소프트	-10.6208
▁은신처	-10.6208
▁이슬라마바드	-10.6208
▁남자친구	-10.6208
▁피닉스	-10.6208
▁아름다	-10.6208
▁통일부	-10.6209
▁화이트	-10.6209
▁보여준다	-10.6209
▁주연	-10.621
▁순례	-10.6212
▁중대한	-10.6213
▁징역형	-10.6213
▁있었으나	-10.6213
▁라이언	-10.6215
▁벗어	-10.6217
▁블루	-10.6218
▁상상	-10.6219
▁종결	-10.6224
▁다음날	-10.6225
▁클리	-10.6231
▁지휘관	-10.6231
▁체코	-10.6232
▁로저	-10.6232
▁젊은이들	-10.6232
▁결심	-10.6236
▁초청	-10.6237
▁경찰청	-10.6241
털	-10.6241
▁기각	-10.6249
▁소형	-10.6249
▁벌였	-10.625
▁키스	-10.6261
언론	-10.6264
▁투르	-10.6273
수술	-10.6283
▁조사에따르면	-10.6285
▁기소됐다	-10.6287
na	-10.629
▁게시	-10.6294
▁매력	-10.6301
▁호수	-10.6311
▁시체	-10.6329
▁해병	-10.633
▁정식	-10.6333
▁동기	-10.6334
▁공대	-10.6335
▁국무	-10.6359
ting	-10.6361
랍	-10.6371
펀	-10.6383
븐	-10.6384
▁국제공항	-10.6384
▁후진타오	-10.6384
숲	-10.6384
▁법무장관	-10.6384
▁선관위	-10.6384
▁펀드	-10.6384
▁불가피	-10.6384
▁원칙	-10.6386
▁가게	-10.6387
▁성장률	-10.6388
▁1996	-10.6388
▁소탕	-10.6391
▁황금	-10.6394
▁사육	-10.6395
▁남극	-10.6396
▁출생	-10.6398
▁가담	-10.6402
▁보고서에따르면	-10.6402
▁배후	-10.6405
▁제공할	-10.6406
▁브랜드	-10.6406
▁음주	-10.6413
▁피고인	-10.6418
▁물러나	-10.642
시스템	-10.6424
▁일으켰다	-10.6426
속도로	-10.6427
시킨다	-10.643
▁진단	-10.6433
▁기온	-10.6436
역사적인	-10.6458
▁비행사	-10.6459
▁날개	-10.6461
▁주최측	-10.6468
▁일어났다	-10.6474
▁화해	-10.6479
▁부산	-10.6491
▁근로자들	-10.6494
▁받는다	-10.6499
▁양국간	-10.6519
되거나	-10.6523
▁확인됐다	-10.6534
▁직장	-10.6536
▁뭄바이	-10.6562
▁탱크	-10.6562
얄	-10.6562
톱	-10.6562
▁섭취	-10.6562
▁줄리아니	-10.6562
▁롤링	-10.6562
▁할머니	-10.6562
▁감바리	-10.6562
▁택시	-10.6563
▁교통사고	-10.6564
▁구멍	-10.6564
▁캐롤	-10.6564
겠습니다	-10.6564
▁투쟁	-10.6565
▁플라	-10.6566
▁소규모	-10.6567
▁1993	-10.6567
▁인권단체	-10.6568
▁라덴	-10.6569
▁벨기에	-10.6572
▁사생활	-10.6573
▁폭설	-10.6574
많은	-10.6577
▁영양	-10.6579
▁보존	-10.658
▁브리	-10.6581
▁GM	-10.6582
▁관측	-10.6586
ank	-10.6592
▁화상	-10.6607
▁신문사	-10.6609
▁기대한다	-10.6609
ian	-10.662
▁악어	-10.6624
▁가방	-10.6627
▁살아있	-10.663
▁급속	-10.664
않게	-10.6652
생산	-10.6652
▁제공한	-10.6667
▁기원	-10.6675
▁국장	-10.6693
사업	-10.6705
켜	-10.6717
▁피부	-10.6717
긍정적인	-10.6733
즌	-10.6737
▁1%	-10.6741
조건	-10.6743
▁China	-10.6744
▁무슬림	-10.6744
▁재검토	-10.6744
▁횡령	-10.6744
퀘	-10.6744
▁기쁘다	-10.6744
▁테일러	-10.6744
▁쓰레기	-10.6744
▁다시한번	-10.6744
▁플래	-10.6744
▁침공	-10.6744
▁가벼	-10.6745
민감한	-10.6746
▁예멘	-10.6748
▁지붕	-10.6748
▁1991	-10.6749
▁감옥	-10.6749
▁his	-10.675
▁생기	-10.6751
▁아이폰	-10.6754
▁농업	-10.6755
▁포럼	-10.6756
폴리스	-10.6758
▁총상	-10.6758
▁결함	-10.6758
▁초안	-10.676
▁에릭	-10.6762
▁관중	-10.6771
▁적발	-10.6773
커스	-10.6775
▁나왔	-10.6776
▁진행자	-10.6779
▁판정	-10.6781
▁반복	-10.6785
▁종식	-10.6786
▁조직원	-10.6787
▁곳이다	-10.679
▁개정안	-10.6791
▁마친	-10.6796
▁비교적	-10.6796
▁선포했다	-10.6798
▁북쪽으로	-10.6799
▁재임	-10.6801
▁늘어나	-10.682
▁극장	-10.6822
▁방송사	-10.683
▁사용하지	-10.6842
▁국적	-10.6843
▁부실	-10.6856
▁모아	-10.6874
▁세계적으로	-10.6877
▁총회	-10.6878
신문	-10.688
=	-10.6882
▁구체적	-10.6885
구조	-10.6886
▁순위	-10.6896
▁지속적	-10.6904
만개	-10.691
▁대피했다	-10.6913
통제	-10.6919
▁DVD	-10.6929
▁뉴햄프셔	-10.6929
▁사우스캐롤라이나	-10.6929
▁안전보장이사회	-10.6929
▁협약	-10.6929
셸	-10.6929
슛	-10.6929
툼	-10.6929
팝	-10.6929
헐	-10.6929
▁광범위	-10.6929
▁메르켈	-10.6929
▁원주민	-10.6929
▁파나마	-10.6929
▁스트레스	-10.693
▁미디어	-10.693
▁거짓말	-10.693
▁세인트	-10.6931
▁발휘	-10.6932
▁호흡	-10.6932
ber	-10.6935
▁억제	-10.6935
▁재판관	-10.6939
▁싸우	-10.694
▁차별	-10.6944
▁로드	-10.6948
▁금연	-10.6949
▁신규	-10.6952
잘못된	-10.6952
▁치명적인	-10.6953
▁갑작스	-10.6956
▁정찰	-10.696
▁이륙	-10.696
▁중이었다	-10.6962
▁반박	-10.6967
▁제목	-10.6973
▁관계당국	-10.6979
등급	-10.6983
▁미치는	-10.6986
교육	-10.6995
▁자행	-10.7002
▁정상화	-10.7007
▁실업	-10.7009
폭력	-10.7018
▁제출했다	-10.7022
▁혼자	-10.7025
▁최고치	-10.7026
09	-10.703
▁고장	-10.703
91	-10.7031
▁성당	-10.7034
▁많아	-10.7034
▁생각하지	-10.7036
▁do	-10.7037
▁차지하고	-10.704
▁계속될	-10.7051
▁사용했다	-10.7056
▁수십명	-10.7058
▁적절	-10.7076
▁Ca	-10.708
▁dis	-10.7103
단계	-10.7103
▁nuclear	-10.7118
▁검문소	-10.7118
▁다큐멘터리	-10.7118
▁스타디움에서	-10.7118
▁식료품	-10.7118
▁왼쪽	-10.7118
▁쿠웨이트	-10.7118
왈	-10.7118
▁불러일으	-10.7118
▁전당대회	-10.7118
▁과반수	-10.7118
▁위안부	-10.7118
▁일어날	-10.7118
▁데이비스	-10.7118
▁옹호	-10.7118
▁연구원들	-10.7118
▁균형	-10.7118
▁공산주의	-10.7118
▁롬니	-10.7119
▁승려들	-10.7119
▁난민촌	-10.7119
97	-10.7122
▁귀환	-10.7123
▁1995	-10.7125
▁완료	-10.7126
▁탑승객	-10.7126
▁표준	-10.7128
day	-10.7128
▁선원	-10.7131
분만에	-10.7133
▁출두	-10.7135
코프	-10.7136
▁화려	-10.7143
▁동생	-10.715
380	-10.7158
▁조언	-10.7163
▁인민	-10.7166
▁서안	-10.7167
▁있어야	-10.7175
굴	-10.7179
▁모임	-10.7179
않	-10.7185
돈	-10.7186
킨스	-10.7188
▁문제들	-10.7217
▁주장한다	-10.7218
▁보냈	-10.7232
▁조용	-10.7235
▁부상당	-10.7249
▁달린	-10.7258
▁달러화	-10.7263
▁하미	-10.7268
ary	-10.727
▁AT	-10.7272
겠	-10.7276
동물	-10.728
▁매사추세츠	-10.731
▁어렵다	-10.731
▁에콰도르	-10.731
▁이산화탄소	-10.731
▁캐릭터	-10.731
▁국제원자력기구	-10.731
▁펠로시	-10.731
▁확장	-10.731
▁받아들여	-10.731
▁매니저	-10.731
▁코끼리	-10.731
▁나타난	-10.731
▁조지아주	-10.731
▁퇴임	-10.731
▁득표율	-10.7311
▁범행	-10.7313
▁낮추	-10.7314
▁침대	-10.7314
워드	-10.7315
▁급락	-10.7316
▁쉽지	-10.7317
▁친척	-10.7318
▁떠난	-10.7319
▁당황	-10.7323
▁레이건	-10.7323
▁복역	-10.7327
▁일련	-10.7328
예비선거	-10.7329
▁당초	-10.7335
▁경관	-10.7335
▁않았던	-10.7335
니까	-10.7338
▁케이트	-10.7344
아시아	-10.735
▁상영	-10.7351
▁신조	-10.7356
ound	-10.7369
▁매체	-10.7372
▁계속되는	-10.7379
▁포함돼	-10.7383
▁생산량	-10.7385
IAEA	-10.7385
뇌	-10.7392
▁창문	-10.7397
▁텍사스주	-10.7398
▁요금	-10.74
▁다르다	-10.7401
그녀	-10.7406
▁아난	-10.7423
▁인력	-10.7425
▁단체들	-10.7426
▁운전사	-10.7435
▁공개됐다	-10.7446
우디	-10.7477
▁발견되었다	-10.7493
▁확신한다	-10.7497
엇	-10.7501
▁군사적	-10.7501
ite	-10.7503
▁from	-10.7506
▁샌디에이고	-10.7506
▁일으킬	-10.7506
▁마라톤	-10.7506
▁외무성	-10.7506
▁이뤄진	-10.7506
▁여겨지	-10.7507
93	-10.7507
▁어깨	-10.7507
▁드러냈다	-10.7508
▁용납	-10.7508
▁상륙	-10.751
▁테니스	-10.751
▁생방송	-10.7513
▁끝날	-10.7513
▁늘리	-10.7515
▁창출	-10.7517
▁최저치	-10.7518
▁탄생	-10.7519
▁분석가들은	-10.7521
▁부활	-10.7522
▁1960	-10.7524
▁추구하	-10.7526
▁분량	-10.7527
▁방출	-10.7528
▁음성	-10.7531
▁거부권	-10.7533
▁밝혀진	-10.7541
▁알렸다	-10.7549
▁발포	-10.7555
▁증세	-10.7558
reat	-10.756
▁오하이오주	-10.7561
▁비난하며	-10.757
▁모건	-10.7571
▁거절했다	-10.7571
▁진보	-10.758
▁예정이었다	-10.7581
▁마리아	-10.7583
▁상태이다	-10.7585
▁주위	-10.7586
▁피해자들	-10.7588
눈	-10.7589
NASA	-10.759
아프리카	-10.759
넣	-10.7591
▁투명	-10.7605
앞으로	-10.7605
ph	-10.762
▁전달했다	-10.7623
▁회원국들	-10.7685
뢰	-10.7696
▁느낄	-10.7706
▁유혈사태	-10.7706
▁자카르타	-10.7706
▁줄기세포	-10.7706
▁프리미어리그	-10.7706
▁휩쓸	-10.7706
쿨	-10.7706
▁앤드류	-10.7706
▁샘플	-10.7706
▁new	-10.7706
▁돌고래	-10.7706
▁축출	-10.7707
▁시달리	-10.7707
▁홈페이지	-10.7707
▁실업률	-10.7707
▁중동평화	-10.7708
▁탐험	-10.7708
▁특징	-10.7709
▁밝혔지만	-10.7709
▁로딕	-10.771
▁빌딩	-10.771
tions	-10.771
▁MBC	-10.771
▁계좌	-10.771
▁동일한	-10.771
▁다국적군	-10.7712
▁조명	-10.7718
▁표결	-10.7721
▁건너	-10.7723
▁처방	-10.7727
▁회계	-10.773
▁측면	-10.7731
▁서양	-10.7739
에이커	-10.7744
▁선임	-10.7747
▁원래	-10.7752
▁치러지	-10.7761
▁해당하는	-10.7764
▁발행	-10.7771
min	-10.7783
버린	-10.7796
힘	-10.7799
1000	-10.7802
▁식사	-10.7814
▁부위	-10.7816
진압	-10.7823
Com	-10.7836
대책	-10.7849
▁사용된	-10.7857
▁실종자	-10.7881
쾌	-10.7905
▁HIV	-10.791
2006.01	-10.791
▁멤버	-10.791
▁애완견	-10.791
▁윔블던	-10.791
▁프랭크	-10.791
▁항공우주국	-10.791
넌	-10.791
쏘	-10.791
햇	-10.791
▁노르웨이	-10.791
▁마흐디	-10.791
▁힘입어	-10.791
▁영화배우	-10.791
▁예를들어	-10.791
▁좌절	-10.791
▁정거장	-10.7911
▁검증	-10.7911
▁잇따	-10.7911
▁득점	-10.7911
▁경제성장	-10.7911
▁브리핑	-10.7911
2007.11	-10.7911
▁암컷	-10.7912
▁떠올	-10.7913
▁밝혔으며	-10.7913
▁손님	-10.7914
▁않았으나	-10.7915
▁불쾌	-10.7916
▁음료	-10.7916
▁오마르	-10.7919
▁내려졌다	-10.792
▁녹음	-10.792
▁쿠퍼	-10.792
▁화합	-10.7921
▁포착	-10.7924
▁통증	-10.7928
▁외환	-10.793
▁열렸다	-10.7931
▁리처드슨	-10.7931
▁종료	-10.7933
▁청사	-10.7939
▁매달	-10.794
▁개편	-10.794
▁키우	-10.7948
▁접전	-10.7951
▁동의했다	-10.7954
ese	-10.7958
▁고무	-10.7969
▁사설	-10.7993
▁88	-10.7999
▁재직	-10.8
▁추세	-10.8007
프랑스	-10.8012
태평양	-10.8013
윤	-10.8013
▁보이며	-10.8016
▁not	-10.802
때까지	-10.8039
▁화장	-10.8068
업자들	-10.8078
하우스	-10.8093
▁움직	-10.8094
ag	-10.8112
▁막아	-10.8117
▁포장	-10.8117
덩	-10.8119
붐	-10.8119
▁government	-10.8119
▁세웠다	-10.8119
▁없습니다	-10.8119
▁피라미드	-10.8119
팩	-10.8119
▁라파엘	-10.8119
▁비틀즈	-10.8119
▁자선단체	-10.8119
▁마돈나	-10.8119
▁1992	-10.8119
드립니다	-10.8119
▁침략	-10.8119
▁탈북자	-10.8119
▁배터리	-10.8119
▁객실	-10.8119
▁서식지	-10.8119
▁데이빗	-10.8119
▁여섯	-10.812
2005.09	-10.812
▁졸리	-10.8121
07	-10.8125
▁금액	-10.8125
▁탈락	-10.8126
▁빠지	-10.8126
▁테러조직	-10.8126
▁않는다면	-10.8127
▁산책	-10.813
▁긍정적	-10.8131
▁아마디	-10.8133
▁못했	-10.8135
ust	-10.8138
▁전국적으로	-10.814
▁통행	-10.8145
▁고급	-10.8152
▁상당히	-10.8156
▁30%	-10.8158
▁본토	-10.816
▁인형	-10.8165
▁운명	-10.8165
▁FA	-10.8165
▁국기	-10.817
▁피살	-10.8176
▁강행	-10.8178
▁밝혔	-10.8183
▁남용	-10.8183
▁보급	-10.8184
▁촉구하	-10.8198
▁지지한다	-10.8218
▁외국인들	-10.8227
탈레반	-10.8228
▁플로리다주	-10.8234
음악	-10.8235
혔	-10.8242
▁잃었	-10.8242
86	-10.8242
▁잡아	-10.826
프레드	-10.8263
Ro	-10.8264
졸	-10.8328
OPEC	-10.8331
▁경기부양책	-10.8331
▁관타나모	-10.8331
▁오토바이	-10.8331
▁우주왕복선	-10.8331
▁울포위츠	-10.8331
▁자유무역협정	-10.8331
▁준결승	-10.8331
▁파바로티	-10.8331
▁펜실베니아	-10.8331
▁플라스틱	-10.8331
社	-10.8331
툴	-10.8331
펄	-10.8331
▁퍼거슨	-10.8331
▁헌법재판소	-10.8332
▁벌써	-10.8333
▁오른쪽	-10.8334
▁낙태	-10.8335
▁의뢰	-10.8338
▁드러내	-10.834
▁저희	-10.8341
분께	-10.8344
▁풀려	-10.8345
▁넘겨	-10.8345
▁상대방	-10.8346
▁점검	-10.8348
▁백신	-10.8348
▁집권당	-10.8349
▁NK	-10.8351
▁놓여	-10.8357
▁군함	-10.8363
▁고속	-10.8365
▁군복	-10.8366
▁매출	-10.8367
▁멀리	-10.8367
▁표면	-10.8377
▁요구하며	-10.8383
▁운동가들	-10.8388
▁실린	-10.8389
▁존경	-10.8389
기위해	-10.839
▁부모들	-10.8414
▁연계	-10.8417
▁이틀간	-10.8418
몬드	-10.8426
▁내려진	-10.8438
▁중요성	-10.8441
금융	-10.8453
서비스	-10.8453
▁모금	-10.8461
포르	-10.8465
▁로브	-10.8468
▁승무원들	-10.8468
96	-10.8468
줬	-10.8475
칙	-10.8545
닷	-10.8548
▁1,000	-10.8549
▁Obama	-10.8549
▁루아얄	-10.8549
▁뮤지컬	-10.8549
랩	-10.8549
톨	-10.8549
▁경기침체	-10.8549
▁허커비	-10.8549
놨	-10.8549
딴	-10.8549
킴	-10.8549
펴	-10.8549
▁아테네	-10.8549
▁게릴라	-10.8549
▁테네시	-10.8549
▁옐친	-10.8549
▁징후	-10.8549
▁포르노	-10.8549
▁2005.10	-10.8549
▁시라크	-10.8549
▁불가리아	-10.8549
▁공룡	-10.8551
▁벽돌	-10.8551
▁살아남	-10.8552
▁본격적	-10.8552
▁데일리	-10.8553
▁탄광	-10.8556
베르토	-10.8559
▁있었습니다	-10.8562
해달라	-10.8562
▁함유	-10.8563
▁범위	-10.8564
▁국방성	-10.857
▁형식	-10.857
American	-10.8571
▁사망했	-10.8571
▁히트	-10.8572
▁점거	-10.8583
▁자신감	-10.8585
▁벌어졌다	-10.8589
▁한국은행	-10.859
▁얼마전	-10.8593
▁조절	-10.8595
▁접수	-10.8602
▁실무	-10.8608
▁공판	-10.8609
▁통보	-10.8611
▁소동	-10.8621
98	-10.8627
89	-10.863
▁희망한다	-10.8637
bu	-10.8638
BO	-10.864
▁정기적	-10.8651
늘	-10.8661
아프간	-10.8678
어떤	-10.8679
사령관	-10.8687
2000	-10.8688
내내	-10.8699
▁의사들	-10.8733
사무소	-10.875
▁선고받	-10.8763
덤	-10.8766
▁덧붙	-10.8768
2006.08	-10.8771
▁금메달	-10.8771
▁디자이너	-10.8771
▁루이지애나	-10.8771
▁아닙니다	-10.8771
▁지지선언	-10.8771
▁카트리나	-10.8771
▁멈추	-10.8771
▁앤더슨	-10.8771
▁알렉스	-10.8771
▁보이콧	-10.8771
▁흘러	-10.8771
▁징계	-10.8772
▁막대한	-10.8772
▁이자율	-10.8772
▁퇴원	-10.8772
▁잠재적	-10.8774
▁개막	-10.8776
▁기상청	-10.8776
▁흔적	-10.8776
▁디스크	-10.8777
강전에서	-10.8777
▁떠날	-10.8778
form	-10.8778
쳤으며	-10.8778
▁핵개발	-10.878
▁통과시켰다	-10.8782
▁않으며	-10.8782
▁래리	-10.8783
▁경향	-10.8784
▁양곤	-10.8785
▁미첼	-10.8791
▁사이클	-10.8792
▁플레이어	-10.8795
▁러드	-10.8795
▁오스카	-10.8795
▁상담	-10.8801
▁cont	-10.8803
기때문에	-10.8807
▁포함하여	-10.8812
▁서류	-10.8813
▁준수	-10.8815
▁한국인들	-10.8816
▁발발	-10.8821
▁감소했다	-10.8821
▁장교	-10.8822
▁도청	-10.883
▁실직	-10.8832
▁인터	-10.8841
▁대법원장	-10.8844
▁레바논군	-10.8846
▁탄소	-10.8856
▁di	-10.8875
way	-10.8878
▁테러리스트들	-10.8916
뒀	-10.8998
World	-10.8998
▁로드리게스	-10.8998
▁베네딕	-10.8998
▁빼앗	-10.8998
▁싶어하	-10.8998
▁아마디네자드	-10.8998
▁이브라힘	-10.8998
▁최첨단	-10.8998
▁평화유지군	-10.8998
▁히틀러	-10.8998
뚫	-10.8998
▁에티오피아	-10.8998
▁오클라호마	-10.8998
셨	-10.8998
▁심장마비	-10.8998
▁의약품	-10.8998
▁따뜻	-10.8998
▁압바스	-10.8998
PGA	-10.8998
▁중남미	-10.8998
▁2008.10	-10.8998
▁스크린	-10.8999
▁인터폴	-10.8999
▁품목	-10.8999
2007.12	-10.8999
▁농민들	-10.9
▁이루어진	-10.9
ncy	-10.9002
▁NBA	-10.9002
▁터널	-10.9003
▁1989	-10.9004
▁술집	-10.9004
▁가짜	-10.9004
▁새롭	-10.9008
▁세탁	-10.9008
▁채취	-10.9009
▁들어갈	-10.9009
▁거짓	-10.901
▁부탁	-10.9012
▁플로	-10.9013
▁연례	-10.9016
▁테러단체	-10.9022
▁구름	-10.9022
▁계산	-10.9024
▁뿐이다	-10.9026
▁암호	-10.9027
▁조항	-10.9028
▁풍부	-10.9034
▁단행	-10.9041
▁발급	-10.9043
old	-10.9065
▁대대적	-10.9076
▁변호	-10.9077
▁경비원	-10.9084
▁회수	-10.9086
▁보건부	-10.9109
죽	-10.9142
공화국	-10.9148
쥐	-10.9148
못	-10.915
US	-10.9174
융	-10.9227
뷰	-10.9231
2,000	-10.9231
5,000	-10.9231
▁고이즈미	-10.9231
▁뉴올리언스	-10.9231
▁느낌	-10.9231
▁불확실	-10.9231
▁저질렀다	-10.9231
▁조승희	-10.9231
샬	-10.9231
옳	-10.9231
칩	-10.9231
▁망원경	-10.9231
▁성추행	-10.9231
▁우울증	-10.9231
▁again	-10.9231
▁노트북	-10.9231
▁두려움	-10.9231
▁쇠고기	-10.9231
▁시나리오	-10.9231
▁기숙사	-10.9231
▁무승부	-10.9231
▁수류탄	-10.9231
▁허드슨	-10.9231
▁소행성	-10.9231
▁빠졌다	-10.9231
▁활발	-10.9231
▁무너지	-10.9231
▁저항세력	-10.9232
▁당부했다	-10.9232
▁맥캔	-10.9233
▁남아프리카	-10.9234
▁교섭	-10.9235
▁구호단체	-10.9236
▁무덤	-10.9236
▁받아왔다	-10.9238
푸르	-10.9239
▁박탈	-10.924
▁사라졌다	-10.924
▁아니지만	-10.9242
▁체류	-10.9248
▁고위급	-10.9249
▁붙여	-10.9249
▁바탕	-10.9252
▁타밀	-10.9252
▁are	-10.9252
▁모술	-10.9255
▁시인했다	-10.9256
같	-10.9257
▁경비대	-10.9262
▁동성애	-10.9262
▁낮아	-10.9264
연패	-10.9266
▁밀려	-10.9283
▁신도들	-10.9291
▁경쟁력	-10.9294
ease	-10.935
▁실종됐다	-10.9372
탐	-10.9392
▁부검	-10.9394
최근	-10.9395
스럽다	-10.9422
▁여행객들	-10.9461
깃	-10.9469
텍	-10.9469
▁talks	-10.9469
▁비서실장	-10.9469
▁빅토리아	-10.9469
▁살모넬라	-10.9469
▁위스콘신	-10.9469
▁유죄판결	-10.9469
▁출구조사	-10.9469
▁플루토늄	-10.9469
▁확률	-10.9469
찌	-10.9469
톡	-10.9469
▁뉴델리	-10.9469
▁알바니아	-10.9469
▁자르다리	-10.9469
박근혜	-10.9469
▁국립공원	-10.9469
▁1987	-10.9469
▁도요타	-10.9469
▁대서양	-10.9469
▁삭감	-10.9469
▁숨졌으며	-10.9472
▁남자아이	-10.9472
▁중앙은행	-10.9473
▁남학생	-10.9474
▁강진이	-10.9476
카를로스	-10.9478
▁부사장	-10.9478
됐는지	-10.9478
▁증강	-10.948
▁델타	-10.9481
▁하원의장	-10.9482
▁물고기	-10.9483
▁양쪽	-10.9484
▁압도적	-10.9485
▁왕세자비	-10.9485
▁교외	-10.9487
▁서장	-10.9489
▁맡았다	-10.9491
▁이내에	-10.9492
▁취급	-10.9492
▁For	-10.9493
▁예배	-10.9497
▁완성	-10.9508
▁업적	-10.9514
▁관객	-10.9526
has	-10.9601
올림픽	-10.9643
팔레스타인	-10.9643
▁악화되	-10.9643
옷	-10.9651
▁나타났	-10.9665
▁체포되었다	-10.9676
빗	-10.9712
head	-10.9713
▁visit	-10.9713
▁나눴다	-10.9713
▁메드베데프	-10.9713
▁앞섰다	-10.9713
▁온실가스	-10.9713
▁잃어버	-10.9713
▁최루탄	-10.9713
▁하이브리드	-10.9713
믹	-10.9713
벡	-10.9713
·	-10.9713
▁글로벌	-10.9713
▁이뤄질	-10.9713
▁Roh	-10.9713
▁국정원	-10.9713
▁해수면	-10.9713
▁우간다	-10.9713
▁오렌지	-10.9713
MDC	-10.9713
▁첩보	-10.9713
▁가난한	-10.9713
▁개체수	-10.9713
▁교착상태	-10.9713
▁에드워드	-10.9713
▁금융위기	-10.9713
▁염려	-10.9714
▁유명인사	-10.9714
됨에따라	-10.9714
▁수색작업	-10.9714
▁아마존	-10.9715
▁재미있	-10.9715
▁its	-10.9717
▁고조되	-10.9718
▁급습	-10.9719
▁권총	-10.972
▁워너	-10.9722
▁줄이기	-10.9723
▁않았습니다	-10.9723
▁갈등	-10.9725
▁금속	-10.9727
▁호송	-10.9728
▁60%	-10.9728
▁송금	-10.9728
▁지역사회	-10.9729
▁모욕	-10.9733
▁실현	-10.9733
▁데리고	-10.9733
▁추격	-10.9734
▁톰슨	-10.9736
▁밝혀내	-10.9737
▁둔화	-10.9742
ney	-10.9746
▁매매	-10.975
▁동료들	-10.9794
Pro	-10.9811
▁응답	-10.9841
▁남부지역	-10.9856
2005.1	-10.9863
▁때문이라	-10.9885
▁동물들	-10.9893
딸	-10.9899
▁참가자들	-10.9915
▁남측	-10.992
똑	-10.9962
숭	-10.9963
샘	-10.9963
FIFA	-10.9963
▁국가비상사태	-10.9963
▁국제우주정거장	-10.9963
▁서브프라임	-10.9963
▁IBM	-10.9963
▁디스커버리	-10.9963
▁메릴랜드	-10.9963
▁바티칸	-10.9963
▁파파라치	-10.9963
눌	-10.9963
▁미성년자	-10.9963
▁깨끗	-10.9963
▁무장괴한	-10.9963
▁재배치	-10.9963
▁윈도우	-10.9963
▁주유소	-10.9963
▁좌석	-10.9963
▁야생동물	-10.9963
▁똑같	-10.9964
▁자전거	-10.9964
▁치솟	-10.9964
▁퇴진	-10.9964
▁데뷔	-10.9965
▁국민투표	-10.9965
▁켈리	-10.9965
time	-10.9966
▁종교적	-10.9966
▁긴밀	-10.9967
▁행렬	-10.9967
▁바꿀	-10.9968
▁Ex	-10.997
▁동참	-10.9971
▁인접	-10.9974
▁다룬	-10.9975
▁가택	-10.9977
▁공무원	-10.9983
▁단독	-10.9984
▁서식하	-10.9987
▁설계	-10.999
▁유괴	-10.9992
ER	-11.0052
▁pre	-11.0165
▁해적들	-11.0177
▁당국자들	-11.0212
멈	-11.0219
▁Minister	-11.0219
▁믿는다	-11.0219
▁아웅산수치	-11.0219
▁인명피해	-11.0219
▁자원봉사	-11.0219
▁창기라이	-11.0219
굿	-11.0219
렁	-11.0219
팜	-11.0219
▁AIG	-11.0219
▁버몬트	-11.0219
▁선거관리위원회	-11.0219
▁재활용	-11.0219
랫	-11.0219
▁국세청	-11.0219
▁최우선	-11.0219
▁세속주의	-11.0219
▁시티그룹	-11.0219
▁모니터	-11.0219
휘	-11.0419
빅	-11.0432
잘	-11.0433
꼬	-11.0482
깁	-11.0482
껏	-11.0482
둑	-11.0482
뻐	-11.0482
섞	-11.0482
왁	-11.0482
캄	-11.0482
냥	-11.0746
궐	-11.0753
닭	-11.0753
쉐	-11.0753
킥	-11.0753
퓨	-11.0753
륙	-11.0971
잠	-11.0996
겔	-11.103
꿔	-11.103
닛	-11.103
잎	-11.103
헴	-11.103
前	-11.1316
뚜	-11.1316
빵	-11.1316
펙	-11.1316
또	-11.1594
셋	-11.1607
뮤	-11.161
뚱	-11.161
맘	-11.161
몸	-11.1906
끔	-11.191
옐	-11.1913
긋	-11.1913
늄	-11.1913
륜	-11.1913
셈	-11.1913
셜	-11.1913
쩌	-11.1913
캘	-11.1913
풋	-11.1913
쁜	-11.2219
댐	-11.2226
썩	-11.2226
홉	-11.2226
붕	-11.2541
돋	-11.2548
쉴	-11.2548
쯔	-11.2548
핏	-11.2548
윗	-11.2882
넘	-11.2904
뼈	-11.2905
멍	-11.3222
넥	-11.3227
엽	-11.3227
옵	-11.3227
쿼	-11.3227
팽	-11.3227
돔	-11.3227
흙	-11.3581
▶	-11.3584
꽤	-11.3584
팟	-11.3584
•	-11.3584
뻔	-11.3584
팍	-11.3584
띠	-11.3954
볍	-11.3954
삽	-11.3954
갓	-11.3954
깜	-11.3954
둬	-11.3954
팰	-11.3954
헬	-11.4016
땅	-11.4018
덮	-11.4028
겹	-11.4339
퉁	-11.4339
푼	-11.4339
놔	-11.4339
큰	-11.4419
콕	-11.4737
뇨	-11.4739
듬	-11.4739
룽	-11.4739
멧	-11.4739
힉	-11.4739
낫	-11.4739
딱	-11.4739
멕	-11.4739
찔	-11.4739
탬	-11.4739
획	-11.514
꿀	-11.5147
켐	-11.5155
쿤	-11.5155
뭉	-11.5155
솜	-11.5155
츨	-11.5155
캣	-11.5155
콥	-11.5155
펫	-11.5155
뭇	-11.5155
몇	-11.5266
앨	-11.5269
롯	-11.5583
옌	-11.559
짙	-11.559
촨	-11.559
튠	-11.559
즐	-11.5721
넓	-11.5723
됨	-11.6042
벳	-11.6044
뉘	-11.6045
앵	-11.6045
긍	-11.6045
덱	-11.6045
둠	-11.6045
밭	-11.6045
쥬	-11.6045
쳇	-11.6045
츄	-11.6045
훌	-11.6045
홈	-11.6197
윌	-11.62
톰	-11.62
므	-11.6289
뷔	-11.6517
봇	-11.6519
앗	-11.652
툰	-11.6521
꼈	-11.6521
덟	-11.6521
볕	-11.6521
봅	-11.6521
윙	-11.6521
뒤	-11.67
욱	-11.7012
맙	-11.7021
굽	-11.7021
낀	-11.7021
쩔	-11.7021
샴	-11.7021
콴	-11.7021
앞	-11.7186
꿈	-11.7226
왜	-11.7226
끝	-11.7227
룡	-11.7542
늬	-11.7547
뜯	-11.7547
럿	-11.7547
륭	-11.7547
벵	-11.7547
빔	-11.7547
폼	-11.7547
낙	-11.7779
떠	-11.778
깨	-11.7783
캇	-11.8103
흠	-11.8103
헝	-11.8103
잇	-11.837
反	-11.8691
뚝	-11.8691
英	-11.8691
띤	-11.8691
샨	-11.8691
쉘	-11.8691
팻	-11.8691
퐁	-11.8691
깅	-11.8691
깊	-11.8992
섯	-11.9307
콧	-11.9311
텀	-11.9316
늑	-11.9316
랏	-11.9316
셴	-11.9316
쑤	-11.9316
윅	-11.9316
팡	-11.9316
市	-11.9316
룻	-11.9316
펑	-11.9316
솟	-11.998
댈	-11.9983
쟈	-11.9983
줌	-11.9983
뎌	-11.9983
둡	-11.9983
엉	-11.9983
옴	-11.9983
녹	-12.037
숨	-12.0374
첫	-12.0377
껴	-12.0697
뜰	-12.0697
쿡	-12.0697
헥	-12.0697
눕	-12.0697
랴	-12.0697
뭘	-12.0697
샵	-12.0697
샹	-12.0697
셍	-12.0697
듭	-12.1462
性	-12.1466
故	-12.1466
뎀	-12.1466
륨	-12.1466
샷	-12.1466
싹	-12.1466
쏠	-12.1466
씬	-12.1466
쥔	-12.1466
쪼	-12.1466
퍽	-12.1466
챈	-12.1466
벗	-12.1978
웹	-12.1979
즉	-12.1979
횡	-12.2299
新	-12.2299
넛	-12.2299
젼	-12.2299
칫	-12.2299
쿵	-12.2299
랠	-12.2299
벙	-12.2299
싯	-12.2299
엣	-12.2299
엿	-12.2299
줍	-12.2299
삐	-12.2299
핼	-12.2299
냉	-12.2878
묻	-12.2888
q	-12.3205
궂	-12.3209
녕	-12.3209
렝	-12.3209
밧	-12.3209
쩍	-12.3209
쭉	-12.3209
텝	-12.3209
퓰	-12.3209
헛	-12.3209
벼	-12.4205
냅	-12.4209
훼	-12.4209
家	-12.4209
겟	-12.4209
덥	-12.4209
욜	-12.4209
對	-12.4209
뛸	-12.4209
릉	-12.4209
슘	-12.4209
텅	-12.4209
펭	-12.4209
힙	-12.4209
通	-12.4209
듈	-12.4209
딛	-12.4209
믈	-12.4209
볜	-12.4209
퀄	-12.4209
뎁	-12.4209
日	-12.4209
美	-12.4998
낮	-12.4999
곧	-12.5
섹	-12.5281
갠	-12.532
냄	-12.532
눅	-12.532
늙	-12.532
댜	-12.532
딧	-12.532
섀	-12.532
텟	-12.532
中	-12.532
省	-12.532
땀	-12.532
뜬	-12.532
렙	-12.532
밋	-12.532
쉰	-12.532
젯	-12.532
찮	-12.532
大	-12.532
큘	-12.532
갖	-12.6248
꼭	-12.6248
묵	-12.6248
샌	-12.6249
좀	-12.6249
戰	-12.657
솅	-12.657
껑	-12.657
댔	-12.657
딤	-12.657
샅	-12.657
쎄	-12.657
웽	-12.657
윰	-12.657
푹	-12.657
휠	-12.657
뜩	-12.657
맛	-12.7677
멀	-12.7677
國	-12.7998
햅	-12.7998
@	-12.7998
갸	-12.7998
뎅	-12.7998
볐	-12.7998
쁠	-12.7998
엥	-12.7998
젓	-12.7998
챠	-12.7998
텡	-12.7998
핌	-12.7998
海	-12.7998
삿	-12.7998
쭈	-12.7998
씰	-12.7998
탤	-12.7998
聖	-12.7998
촛	-12.9665
낄	-12.9665
쑥	-12.9665
캬	-12.9665
誌	-12.9665
귄	-12.9665
낯	-12.9665
낵	-12.9665
넴	-12.9665
딥	-12.9665
맣	-12.9665
웡	-12.9665
윕	-12.9665
쟝	-12.9665
젬	-12.9665
춥	-12.9665
킵	-12.9665
툭	-12.9665
홧	-12.9665
훙	-12.9665
흄	-12.9665
+	-12.9665
神	-12.9665
種	-12.9665
돗	-12.9665
섣	-12.9665
앱	-12.9665
욤	-12.9665
짱	-12.9665
첵	-12.9665
칵	-12.9665
폈	-12.9665
뽀	-12.9665
쓴	-13.1344
밑	-13.1344
삶	-13.1345
낱	-13.1665
쩡	-13.1665
軍	-13.1665
城	-13.1665
寶	-13.1665
紙	-13.1665
롄	-13.1665
뻑	-13.1665
옅	-13.1665
잖	-13.1665
쥘	-13.1665
짚	-13.1665
찐	-13.1665
쵸	-13.1665
꽁	-13.1665
빡	-13.1665
빤	-13.1665
맡	-13.384
큼	-13.4145
눠	-13.4159
숫	-13.4163
電	-13.4165
や	-13.4165
古	-13.4165
탭	-13.4165
>	-13.4165
ᆞ	-13.4165
同	-13.4165
旗	-13.4165
號	-13.4165
親	-13.4165
겜	-13.4165
뇽	-13.4165
덧	-13.4165
얏	-13.4165
윳	-13.4165
챤	-13.4165
촐	-13.4165
퀼	-13.4165
뚤	-13.4165
亞	-13.4165
子	-13.4165
胡	-13.4165
욘	-13.4165
溫	-13.4165
異	-13.4165
흉	-13.7179
뜻	-13.7179
룹	-13.7473
끗	-13.7498
걱	-13.7498
き	-13.7498
ざ	-13.7498
り	-13.7498
僞	-13.7498
ら	-13.7498
不	-13.7498
毛	-13.7498
生	-13.7498
女	-13.7498
촘	-13.7498
퇀	-13.7498
商	-13.7498
基	-13.7498
富	-13.7498
局	-13.7498
江	-13.7498
澤	-13.7498
灣	-13.7498
藥	-13.7498
갯	-13.7498
낍	-13.7498
냇	-13.7498
넒	-13.7498
듐	-13.7498
땐	-13.7498
떡	-13.7498
뮴	-13.7498
뺀	-13.7498
뿍	-13.7498
쉥	-13.7498
짢	-13.7498
쬐	-13.7498
찜	-13.7498
찻	-13.7498
쳄	-13.7498
켁	-13.7498
펍	-13.7498
死	-13.7498
民	-13.7498
냔	-13.7498
쌈	-13.7498
쳉	-13.7498
훗	-13.7498
°	-13.7498
交	-13.7498
光	-13.7498
正	-13.7498
田	-13.7498
福	-13.7498
草	-13.7498
道	-13.7498
陳	-13.7498
읍	-13.7498
勝	-13.7498
母	-13.7498
諡	-13.7498
邦	-13.7498
油	-13.7498
吳	-13.7498
빚	-14.2182
밝	-14.2182
맺	-14.2183
く	-14.2498
廣	-14.2498
影	-14.2498
播	-14.2498
視	-14.2498
웁	-14.2498
一	-14.2498
天	-14.2498
駐	-14.2498
뻣	-14.2498
쾅	-14.2498
혓	-14.2498
〕	-14.2498
い	-14.2498
し	-14.2498
す	-14.2498
ば	-14.2498
信	-14.2498
內	-14.2498
劉	-14.2498
印	-14.2498
卿	-14.2498
名	-14.2498
四	-14.2498
園	-14.2498
團	-14.2498
場	-14.2498
夫	-14.2498
姓	-14.2498
懷	-14.2498
手	-14.2498
文	-14.2498
料	-14.2498
案	-14.2498
毬	-14.2498
湖	-14.2498
火	-14.2498
現	-14.2498
理	-14.2498
産	-14.2498
登	-14.2498
發	-14.2498
總	-14.2498
群	-14.2498
肢	-14.2498
能	-14.2498
舊	-14.2498
航	-14.2498
葬	-14.2498
藻	-14.2498
識	-14.2498
路	-14.2498
進	-14.2498
都	-14.2498
醜	-14.2498
野	-14.2498
非	-14.2498
頭	-14.2498
類	-14.2498
食	-14.2498
걀	-14.2498
겡	-14.2498
깬	-14.2498
낑	-14.2498
넜	-14.2498
듦	-14.2498
땠	-14.2498
뤽	-14.2498
먀	-14.2498
뮐	-14.2498
뱌	-14.2498
뵈	-14.2498
붑	-14.2498
솀	-14.2498
쥴	-14.2498
즙	-14.2498
챗	-14.2498
쳴	-14.2498
춧	-14.2498
츰	-14.2498
쿱	-14.2498
퉈	-14.2498
훅	-14.2498
훤	-14.2498
힝	-14.2498
法	-14.2498
컥	-14.2498
햐	-14.2498
ん	-14.2498
三	-14.2498
仁	-14.2498
動	-14.2498
幹	-14.2498
方	-14.2498
物	-14.2498
花	-14.2498
東	-14.2498
父	-14.2498
京	-14.2498
圓	-14.2498
字	-14.2498
率	-14.2498
翔	-14.2498
많	-15.2105
핥	-15.2143
퓌	-15.2144
팁	-15.2145
탰	-15.2146
탯	-15.2147
퀵	-15.2148
컹	-15.2149
캅	-15.215
찡	-15.2151
쮸	-15.2152
쭐	-15.2153
쫑	-15.2154
쪘	-15.2155
잼	-15.2156
잤	-15.2157
웝	-15.2158
쉈	-15.2159
솥	-15.216
셤	-15.2161
뺏	-15.2162
뺌	-15.2163
붇	-15.2164
뭍	-15.2165
멎	-15.2166
맏	-15.2167
뙤	-15.2168
뗐	-15.2169
뗀	-15.217
둣	-15.2171
닻	-15.2172
뉜	-15.2173
냑	-15.2174
꺽	-15.2175
귤	-15.2176
괘	-15.2177
갉	-15.2178
〔	-15.2179
휫	-15.218
헹	-15.2181
푀	-15.2182
펐	-15.2183
퉜	-15.2184
텁	-15.2185
큉	-15.2186
쿰	-15.2187
켤	-15.2188
쨌	-15.2189
짠	-15.219
좇	-15.2191
엮	-15.2192
쌌	-15.2193
숴	-15.2194
뺐	-15.2195
믐	-15.2196
맬	-15.2197
닳	-15.2198
깰	-15.2199
긁	-15.22
숀	-15.2201
귓	-15.2201
봄	-15.2201
굵	-15.2202
麻	-15.2203
霧	-15.2204
煙	-15.2205
泰	-15.2206
^	-15.2207
훑	-15.2208
폄	-15.2209
컫	-15.221
짤	-15.2211
줏	-15.2212
죤	-15.2213
젱	-15.2214
잣	-15.2215
얗	-15.2216
앴	-15.2217
쁩	-15.2218
벚	-15.2219
밈	-15.222
띈	-15.2221
뗏	-15.2222
땄	-15.2223
뒹	-15.2224
뎠	-15.2225
뇰	-15.2226
녘	-15.2227
껌	-15.2228
껄	-15.2229
갛	-15.223
튿	-15.2231
튬	-15.2232
튕	-15.2233
텨	-15.2234
웜	-15.2235
뾰	-15.2236
뺑	-15.2237
뮈	-15.2238
떴	-15.2239
껐	-15.224
錦	-15.2241
濤	-15.2242
팠	-15.2243
짊	-15.2244
앳	-15.2245
밌	-15.2246
땔	-15.2247
넉	-15.2248
꿋	-15.2249
꿇	-15.225
濠	-15.2251
–	-15.2252
캉	-15.2253
씹	-15.2254
썰	-15.2255
뻤	-15.2256
뎃	-15.2257
늪	-15.2258
꽝	-15.2259
깼	-15.226
갬	-15.2261
▲	-15.2262
퀀	-15.2263
춀	-15.2264
엌	-15.2265
얽	-15.2266
쐐	-15.2267
썽	-15.2268
썬	-15.2269
쉼	-15.227
빴	-15.2271
뷸	-15.2272
멩	-15.2273
떳	-15.2274
늠	-15.2275
넸	-15.2276
괌	-15.2277
홋	-15.2278
뽐	-15.2279
뷴	-15.228
뱉	-15.2281
닦	-15.2282
껍	-15.2283
빽	-15.2284
몄	-15.2285
뛴	-15.2286
똥	-15.2287
덫	-15.2288
끽	-15.2289
꿰	-15.229
깡	-15.2291
팎	-15.2292
잿	-15.2293
얕	-15.2294
뿜	-15.2295
맴	-15.2296
끓	-15.2297
갚	-15.2298
쾰	-15.2299
찼	-15.23
찢	-15.2301
잰	-15.2302
웸	-15.2303
샐	-15.2304
깥	-15.2305
겉	-15.2306
팸	-15.2307
몹	-15.2308
꼴	-15.2309
씌	-15.231
맷	-15.2311
뀐	-15.2312
깎	-15.2313
콸	-15.2314
쏴	-15.2315
썹	-15.2316
슭	-15.2317
킷	-15.2318
챌	-15.2319
얇	-15.232
씀	-15.2321
뀔	-15.2322
꽉	-15.2323
꽂	-15.2324
±	-15.2325
뭐	-15.2326
댕	-15.2327
꿨	-15.2328
꾀	-15.2329
깐	-15.233
얹	-15.2331
쐈	-15.2332
뱃	-15.2333
긱	-15.2334
씻	-15.2335
뻗	-15.2336
렷	-15.2337
낚	-15.2338
꼼	-15.2339
$	-15.234
잦	-15.2341
엎	-15.2342
숍	-15.2343
뭔	-15.2344
맑	-15.2345
핫	-15.2346
핍	-15.2347
몫	-15.2348
짖	-15.2349
샀	-15.235
낡	-15.2351
곁	-15.2352
컸	-15.2353
캡	-15.2354
쏜	-15.2355
젭	-15.2356
싣	-15.2357
맵	-15.2358
닮	-15.2359
젖	-15.236
쁨	-15.2361
릅	-15.2362
궈	-15.2363
탓	-15.2364
캥	-15.2365
웍	-15.2366
굶	-15.2367
뮬	-15.2368
릇	-15.2369
횟	-15.237
췌	-15.2371
틈	-15.2372
댓	-15.2373
붓	-15.2374
́	-15.2375
챙	-15.2376
앰	-15.2377
닿	-15.2378
펌	-15.2379
흩	-15.238
뮌	-15.2381
뤼	-15.2382
뿔	-15.2383
괜	-15.2384
뤘	-15.2385
튀	-15.2386
꼽	-15.2387
굳	-15.2388
굉	-15.2389
녔	-15.239
랬	-15.2391
곱	-15.2392
픔	-15.2393
밸	-15.2394
닙	-15.2395
낌	-15.2396
띄	-15.2397
넹	-15.2398
밟	-15.2399
눴	-15.24
싫	-15.2401
윔	-15.2402
괄	-15.2403
옛	-15.2404
탔	-15.2405
썼	-15.2406
핸	-15.2407
딪	-15.2408
잊	-15.2409
깝	-15.241
멤	-15.2411
벅	-15.2412
흰	-15.2413
갇	-15.2414
췄	-15.2415
묶	-15.2416
뱅	-15.2417
닫	-15.2418
왼	-15.2419
뀌	-15.242
렴	-15.2421
읽	-15.2422
깔	-15.2423
궤	-15.2424
탱	-15.2425
탠	-15.2426
쌓	-15.2427
쫓	-15.2428
짧	-15.2429
쏟	-15.243
뭄	-15.2431
뒷	-15.2432
걷	-15.2433
슴	-15.2434
훨	-15.2435
릎	-15.2436
뽑	-15.2437
뿌	-15.2438
붉	-15.2439
콰	-15.244
앓	-15.2441
얘	-15.2442
옆	-15.2443
멋	-15.2444
꺾	-15.2445
낳	-15.2446
곽	-15.2447
휩	-15.2448
돕	-15.2449
녁	-15.245
듣	-15.2451
춰	-15.2452
끊	-15.2453
됩	-15.2454
젝	-15.2455
늦	-15.2456
앉	-15.2457
슷	-15.2458
렵	-15.2459
쿄	-15.246
밴	-15.2461
옮	-15.2462
봤	-15.2463
젊	-15.2464
챔	-15.2465
촬	-15.2466
빨	-15.2467
찍	-15.2468
떻	-15.2469
렀	-15.247
웠	-15.2471
겪	-15.2472
믿	-15.2473
펼	-15.2474
섰	-15.2475
먹	-15.2476
렇	-15.2477
̋	-15.2478
잃	-15.2479
캠	-15.248
싶	-15.2481
랐	-15.2482
끌	-15.2483
떤	-15.2483
갔	-15.2484
켰	-15.2485
밖	-15.2486
얻	-15.2487
쇄	-15.2488
좋	-15.2489
찾	-15.249
떨	-15.2491
높	-15.2492
맞	-15.2493
났	-15.2494
혐	-15.2495
협	-15.2496
확	-15.2497
없	-15.2498
と	-15.2498
よ	-15.2498
焼	-15.2498
{	-15.2498
さ	-15.2498
修	-15.2498
傷	-15.2498
再	-15.2498
所	-15.2498
掃	-15.2498
敢	-15.2498
本	-15.2498
毁	-15.2498
氣	-15.2498
費	-15.2498
身	-15.2498
難	-15.2498
代	-15.2498
假	-15.2498
兵	-15.2498
安	-15.2498
居	-15.2498
常	-15.2498
後	-15.2498
懶	-15.2498
査	-15.2498
河	-15.2498
滑	-15.2498
無	-15.2498
獸	-15.2498
纏	-15.2498
詩	-15.2498
諸	-15.2498
買	-15.2498
赤	-15.2498
走	-15.2498
鄕	-15.2498
酒	-15.2498
銀	-15.2498
銅	-15.2498
麥	-15.2498
맸	-15.2498
엡	-15.2498
윽	-15.2498
힛	-15.2498
붸	-15.2498
븍	-15.2498
켬	-15.2498
}	-15.2498
×	-15.2498
é	-15.2498
̇	-15.2498
ᄂ	-15.2498
―	-15.2498
〈	-15.2498
〉	-15.2498
か	-15.2498
そ	-15.2498
ぶ	-15.2498
ぷ	-15.2498
ま	-15.2498
万	-15.2498
上	-15.2498
主	-15.2498
九	-15.2498
佛	-15.2498
促	-15.2498
備	-15.2498
像	-15.2498
價	-15.2498
億	-15.2498
兒	-15.2498
全	-15.2498
公	-15.2498
切	-15.2498
力	-15.2498
加	-15.2498
北	-15.2498
區	-15.2498
卍	-15.2498
占	-15.2498
和	-15.2498
品	-15.2498
善	-15.2498
因	-15.2498
地	-15.2498
坤	-15.2498
型	-15.2498
報	-15.2498
塔	-15.2498
墓	-15.2498
奔	-15.2498
奴	-15.2498
婦	-15.2498
孩	-15.2498
學	-15.2498
宇	-15.2498
室	-15.2498
察	-15.2498
寺	-15.2498
小	-15.2498
屋	-15.2498
岩	-15.2498
島	-15.2498
峽	-15.2498
席	-15.2498
平	-15.2498
年	-15.2498
店	-15.2498
度	-15.2498
座	-15.2498
庫	-15.2498
弗	-15.2498
强	-15.2498
心	-15.2498
愁	-15.2498
愛	-15.2498
慶	-15.2498
戀	-15.2498
掌	-15.2498
換	-15.2498
敎	-15.2498
敵	-15.2498
斌	-15.2498
族	-15.2498
明	-15.2498
星	-15.2498
時	-15.2498
晉	-15.2498
書	-15.2498
曾	-15.2498
會	-15.2498
李	-15.2498
林	-15.2498
株	-15.2498
棺	-15.2498
楊	-15.2498
機	-15.2498
權	-15.2498
次	-15.2498
流	-15.2498
浅	-15.2498
淺	-15.2498
港	-15.2498
濱	-15.2498
瀋	-15.2498
然	-15.2498
照	-15.2498
王	-15.2498
珀	-15.2498
琥	-15.2498
男	-15.2498
畵	-15.2498
疫	-15.2498
病	-15.2498
的	-15.2498
票	-15.2498
祭	-15.2498
私	-15.2498
突	-15.2498
章	-15.2498
精	-15.2498
紅	-15.2498
置	-15.2498
習	-15.2498
者	-15.2498
耳	-15.2498
膚	-15.2498
船	-15.2498
芽	-15.2498
華	-15.2498
董	-15.2498
蓄	-15.2498
蓋	-15.2498
衛	-15.2498
要	-15.2498
覺	-15.2498
言	-15.2498
語	-15.2498
談	-15.2498
貧	-15.2498
質	-15.2498
超	-15.2498
足	-15.2498
軌	-15.2498
輔	-15.2498
輪	-15.2498
輿	-15.2498
辛	-15.2498
迷	-15.2498
送	-15.2498
邸	-15.2498
郞	-15.2498
郡	-15.2498
酸	-15.2498
醒	-15.2498
金	-15.2498
長	-15.2498
門	-15.2498
開	-15.2498
間	-15.2498
陽	-15.2498
雙	-15.2498
靑	-15.2498
頂	-15.2498
題	-15.2498
香	-15.2498
馬	-15.2498
體	-15.2498
髮	-15.2498
魚	-15.2498
鳥	-15.2498
鼓	-15.2498
龍	-15.2498
갗	-15.2498
갭	-15.2498
겅	-15.2498
겝	-15.2498
괭	-15.2498
귈	-15.2498
깍	-15.2498
꼐	-15.2498
꼰	-15.2498
꼿	-15.2498
꽥	-15.2498
꾹	-15.2498
뀝	-15.2498
넋	-15.2498
넝	-15.2498
넵	-15.2498
녠	-15.2498
놋	-15.2498
눔	-15.2498
뉼	-15.2498
늉	-15.2498
댁	-15.2498
돛	-15.2498
뒈	-15.2498
땋	-15.2498
뗄	-15.2498
띨	-15.2498
띵	-15.2498
랗	-15.2498
럇	-15.2498
륵	-15.2498
멉	-15.2498
뫼	-15.2498
뭣	-15.2498
벛	-15.2498
뵙	-15.2498
뷜	-15.2498
빕	-15.2498
빰	-15.2498
뺄	-15.2498
뺨	-15.2498
뻘	-15.2498
뻬	-15.2498
뽕	-15.2498
삔	-15.2498
삯	-15.2498
샛	-15.2498
셩	-15.2498
쇤	-15.2498
쇨	-15.2498
숄	-15.2498
숏	-15.2498
숟	-15.2498
숩	-15.2498
숱	-15.2498
쉔	-15.2498
쉠	-15.2498
쉭	-15.2498
슝	-15.2498
슥	-15.2498
싰	-15.2498
쏙	-15.2498
쐬	-15.2498
쓱	-15.2498
씸	-15.2498
씽	-15.2498
얌	-15.2498
엾	-15.2498
옇	-15.2498
옜	-15.2498
옭	-15.2498
옻	-15.2498
왑	-15.2498
윱	-15.2498
윺	-15.2498
읜	-15.2498
쨍	-15.2498
쪄	-15.2498
찟	-15.2498
챕	-15.2498
챘	-15.2498
챨	-15.2498
챵	-15.2498
쳔	-15.2498
쳬	-15.2498
츈	-15.2498
츤	-15.2498
켕	-15.2498
켠	-15.2498
큄	-15.2498
큇	-15.2498
탸	-15.2498
텄	-15.2498
텼	-15.2498
툐	-15.2498
툿	-15.2498
튈	-15.2498
틔	-15.2498
팹	-15.2498
펏	-15.2498
폅	-15.2498
폿	-15.2498
헉	-15.2498
헷	-15.2498
횃	-15.2498
휜	-15.2498
	-15.2498
󕇑	-15.2498
셌	-15.2498
쟀	-15.2498
짰	-15.2498
쬔	-15.2498
ᄋ	-15.2498
命	-15.2498
多	-15.2498
街	-15.2498
領	-15.2498
껀	-15.2498
읊	-15.2498
て	-15.2498
丙	-15.2498
之	-15.2498
兆	-15.2498
克	-15.2498
受	-15.2498
司	-15.2498
吉	-15.2498
喩	-15.2498
堀	-15.2498
壽	-15.2498
外	-15.2498
官	-15.2498
寧	-15.2498
導	-15.2498
山	-15.2498
川	-15.2498
康	-15.2498
建	-15.2498
式	-15.2498
早	-15.2498
晴	-15.2498
月	-15.2498
朱	-15.2498
植	-15.2498
止	-15.2498
殘	-15.2498
氷	-15.2498
燭	-15.2498
疑	-15.2498
石	-15.2498
管	-15.2498
節	-15.2498
築	-15.2498
結	-15.2498
羅	-15.2498
老	-15.2498
聲	-15.2498
良	-15.2498
論	-15.2498
近	-15.2498
遼	-15.2498
配	-15.2498
鎔	-15.2498
雨	-15.2498
雲	-15.2498
靜	-15.2498
頁	-15.2498
鳩	-15.2498
柳	-15.2498
淘	-15.2498
眞	-15.2498
空	-15.2498
在	-15.2499
았	-15.2499
